<unk>	0
<s>	0
</s>	0
<pad>	0
▁t	-0
an	-1
he	-2
in	-3
▁the	-4
on	-5
er	-6
re	-7
▁a	-8
▁o	-9
st	-10
en	-11
al	-12
di	-13
at	-14
▁c	-15
and	-16
▁I	-17
ed	-18
ar	-19
it	-20
▁w	-21
▁In	-22
▁in	-23
▁of	-24
▁s	-25
▁and	-26
▁b	-27
or	-28
ion	-29
▁p	-30
▁m	-31
es	-32
▁Indi	-33
▁f	-34
ic	-35
is	-36
ing	-37
as	-38
ent	-39
▁l	-40
om	-41
▁India	-42
▁e	-43
ou	-44
▁to	-45
ly	-46
▁1	-47
▁h	-48
▁T	-49
▁d	-50
ec	-51
ur	-52
▁re	-53
▁n	-54
▁g	-55
il	-56
th	-57
▁A	-58
्य	-59
్ర	-60
▁ప	-61
ul	-62
ver	-63
ri	-64
▁The	-65
ol	-66
▁C	-67
ra	-68
▁क	-69
ార	-70
▁B	-71
ation	-72
am	-73
▁स	-74
▁S	-75
ాల	-76
le	-77
ve	-78
ow	-79
ार	-80
▁is	-81
ce	-82
tion	-83
▁2	-84
्र	-85
▁by	-86
▁Indian	-87
ist	-88
▁प	-89
▁19	-90
et	-91
ast	-92
us	-93
▁స	-94
im	-95
ad	-96
▁th	-97
ig	-98
▁r	-99
ge	-100
▁క	-101
id	-102
op	-103
00	-104
un	-105
ith	-106
▁for	-107
्या	-108
ir	-109
uc	-110
▁म	-111
▁be	-112
▁M	-113
ate	-114
od	-115
▁con	-116
▁with	-117
లో	-118
▁was	-119
▁ह	-120
ment	-121
ut	-122
▁వ	-123
ies	-124
్య	-125
▁as	-126
▁wh	-127
▁P	-128
▁व	-129
▁మ	-130
▁भ	-131
res	-132
▁st	-133
em	-134
ter	-135
ong	-136
▁(	-137
▁భ	-138
ain	-139
ts	-140
rom	-141
▁E	-142
▁it	-143
▁आ	-144
▁ex	-145
ical	-146
est	-147
ిం	-148
ात	-149
▁di	-150
న్	-151
దే	-152
లు	-153
her	-154
▁an	-155
ది	-156
దేశ	-157
os	-158
oc	-159
ang	-160
▁or	-161
ab	-162
ich	-163
▁has	-164
▁अ	-165
gh	-166
▁ర	-167
ial	-168
▁on	-169
ld	-170
▁from	-171
ని	-172
um	-173
▁H	-174
ర్	-175
ill	-176
▁ar	-177
▁D	-178
up	-179
ac	-180
స్	-181
▁ప్ర	-182
ay	-183
▁which	-184
▁mo	-185
ారత	-186
ारत	-187
ud	-188
▁G	-189
▁N	-190
ern	-191
▁un	-192
ive	-193
र्	-194
▁భారత	-195
▁are	-196
▁అ	-197
▁20	-198
▁भारत	-199
ాలు	-200
ity	-201
▁par	-202
ers	-203
ure	-204
ub	-205
ak	-206
con	-207
rit	-208
ted	-209
ult	-210
▁inc	-211
▁its	-212
end	-213
ere	-214
li	-215
▁com	-216
oun	-217
▁al	-218
ిక	-219
ot	-220
▁v	-221
el	-222
over	-223
▁were	-224
న్న	-225
▁ज	-226
du	-227
ans	-228
ous	-229
గా	-230
ort	-231
iv	-232
ary	-233
ated	-234
▁प्र	-235
िक	-236
▁de	-237
या	-238
▁न	-239
ear	-240
▁pr	-241
▁cent	-242
▁ఉ	-243
▁द	-244
▁ब	-245
arge	-246
ाल	-247
ch	-248
▁त	-249
▁के	-250
ism	-251
ాయ	-252
▁జ	-253
ान	-254
हे	-255
mp	-256
▁As	-257
ough	-258
▁wor	-259
ాత	-260
▁sp	-261
se	-262
▁ch	-263
fter	-264
▁int	-265
▁cont	-266
క్	-267
ry	-268
▁co	-269
outh	-270
▁Hin	-271
▁आहे	-272
దేశం	-273
ां	-274
ag	-275
▁U	-276
age	-277
ame	-278
ant	-279
ass	-280
ally	-281
overn	-282
▁చ	-283
కు	-284
ను	-285
av	-286
if	-287
og	-288
low	-289
our	-290
ance	-291
▁bec	-292
uring	-293
▁part	-294
्त	-295
▁र	-296
▁W	-297
ish	-298
ions	-299
ress	-300
▁mar	-301
conom	-302
ution	-303
▁form	-304
▁into	-305
▁R	-306
aj	-307
any	-308
▁Ch	-309
▁at	-310
▁reg	-311
illion	-312
overnment	-313
్వ	-314
▁201	-315
▁k	-316
్ట	-317
▁gr	-318
▁le	-319
ct	-320
ap	-321
▁ad	-322
▁cl	-323
▁se	-324
angu	-325
ates	-326
stit	-327
▁per	-328
▁sub	-329
▁large	-330
▁centur	-331
▁econom	-332
ें	-333
ిన	-334
ీయ	-335
ाच	-336
ండ	-337
ia	-338
me	-339
▁J	-340
▁y	-341
▁pl	-342
▁pop	-343
inist	-344
▁ఇ	-345
cc	-346
mer	-347
ore	-348
▁el	-349
eral	-350
▁rel	-351
▁langu	-352
▁government	-353
ించ	-354
reas	-355
hi	-356
qu	-357
▁K	-358
lud	-359
ence	-360
▁dec	-361
▁pri	-362
▁popul	-363
▁world	-364
▁ग	-365
▁V	-366
▁में	-367
▁श	-368
reat	-369
ther	-370
▁tra	-371
ire	-372
ome	-373
▁ag	-374
▁sy	-375
irst	-376
▁Ind	-377
▁comp	-378
▁year	-379
▁Hindu	-380
▁first	-381
ంత	-382
▁త	-383
ीय	-384
dition	-385
ాన	-386
all	-387
ave	-388
der	-389
oth	-390
red	-391
uch	-392
ved	-393
▁sh	-394
▁art	-395
▁end	-396
▁exp	-397
ection	-398
▁includ	-399
ित	-400
ाज	-401
ला	-402
▁है	-403
▁5	-404
ల్	-405
so	-406
stem	-407
▁इ	-408
ద్	-409
స్త	-410
▁7	-411
ian	-412
1,	-413
ff	-414
ok	-415
we	-416
ber	-417
ect	-418
gan	-419
ide	-420
igh	-421
▁ne	-422
used	-423
odern	-424
▁over	-425
▁became	-426
▁during	-427
▁system	-428
stitution	-429
ంగ	-430
తి	-431
▁ఆ	-432
ले	-433
ील	-434
▁का	-435
▁3	-436
्ष	-437
ులు	-438
ింది	-439
ign	-440
pp	-441
har	-442
ine	-443
ord	-444
▁ri	-445
ajor	-446
▁but	-447
▁gen	-448
▁had	-449
▁res	-450
mpire	-451
▁been	-452
estern	-453
రి	-454
▁"	-455
▁రా	-456
▁F	-457
▁4	-458
dh	-459
ric	-460
upp	-461
▁me	-462
ages	-463
ural	-464
▁also	-465
▁cons	-466
▁have	-467
▁more	-468
▁relig	-469
ational	-470
ongress	-471
ाम	-472
▁ద	-473
▁న	-474
▁బ	-475
ంది	-476
▁उ	-477
▁200	-478
▁most	-479
రు	-480
▁195	-481
ral	-482
wo	-483
ces	-484
▁pe	-485
atic	-486
ound	-487
ower	-488
▁inf	-489
▁lat	-490
▁num	-491
▁pol	-492
▁rep	-493
▁such	-494
▁that	-495
▁South	-496
▁after	-497
▁class	-498
▁years	-499
▁minist	-500
▁modern	-501
▁century	-502
▁increas	-503
▁million	-504
ంట	-505
ాయి	-506
्व	-507
ास	-508
ము	-509
▁వి	-510
▁భారతదేశం	-511
ष्	-512
▁tradition	-513
▁सं	-514
ep	-515
▁L	-516
ens	-517
ty	-518
tin	-519
▁ca	-520
▁he	-521
▁im	-522
imal	-523
mong	-524
orth	-525
▁dis	-526
▁rul	-527
▁two	-528
▁both	-529
▁long	-530
▁prime	-531
▁region	-532
▁Congress	-533
▁గ	-534
ంలో	-535
▁196	-536
ेश	-537
ైన	-538
▁సం	-539
CE	-540
▁या	-541
ाव	-542
▁202	-543
▁199	-544
ों	-545
ust	-546
వి	-547
ూడ	-548
▁वि	-549
ban	-550
les	-551
ose	-552
ren	-553
▁sc	-554
aste	-555
etwe	-556
ures	-557
vers	-558
▁BCE	-559
▁ser	-560
▁soc	-561
istan	-562
urban	-563
▁Asia	-564
etween	-565
▁major	-566
ने	-567
स्	-568
ుత	-569
▁ఎ	-570
ली	-571
000	-572
▁O	-573
hed	-574
lic	-575
ro	-576
▁Un	-577
ince	-578
lear	-579
uddh	-580
▁not	-581
▁off	-582
ament	-583
rough	-584
▁Brit	-585
▁coun	-586
▁cult	-587
▁grow	-588
▁this	-589
uclear	-590
▁Buddh	-591
▁caste	-592
▁their	-593
▁under	-594
▁urban	-595
isation	-596
▁Empire	-597
▁British	-598
▁election	-599
▁language	-600
▁minister	-601
▁population	-602
ंत	-603
ून	-604
▁శ	-605
ంగా	-606
క్ష	-607
ారు	-608
6%	-609
▁औ	-610
▁च	-611
ना	-612
టి	-613
▁ఉన్న	-614
च्या	-615
ik	-616
lo	-617
pt	-618
ari	-619
eng	-620
ond	-621
out	-622
ree	-623
rib	-624
vel	-625
▁An	-626
▁Con	-627
▁ear	-628
▁fol	-629
▁rec	-630
▁ter	-631
anges	-632
ially	-633
▁land	-634
▁many	-635
▁nort	-636
▁supp	-637
contin	-638
ically	-639
lowing	-640
▁began	-641
▁dance	-642
▁north	-643
▁south	-644
akistan	-645
▁between	-646
continent	-647
),	-648
▁य	-649
र्व	-650
▁और	-651
ిత	-652
0,	-653
▁18	-654
్చ	-655
ార్	-656
▁సా	-657
▁ra	-658
▁ल	-659
ef	-660
▁अस	-661
ci	-662
lu	-663
ni	-664
sh	-665
▁j	-666
ade	-667
als	-668
ell	-669
ess	-670
▁It	-671
▁en	-672
hern	-673
ited	-674
merg	-675
olog	-676
omin	-677
ting	-678
▁app	-679
▁imp	-680
▁tim	-681
ition	-682
▁east	-683
▁fore	-684
ations	-685
▁later	-686
▁Pakistan	-687
▁economic	-688
▁northern	-689
ती	-690
क्ष	-691
▁भारतीय	-692
పు	-693
ధిక	-694
चे	-695
▁194	-696
िया	-697
था	-698
▁CE	-699
▁हो	-700
కి	-701
▁హ	-702
ory	-703
्ये	-704
▁hum	-705
ंग	-706
▁१	-707
ace	-708
▁Al	-709
mon	-710
▁की	-711
7,	-712
own	-713
▁cr	-714
ublic	-715
aw	-716
vi	-717
ard	-718
dic	-719
duc	-720
gin	-721
ice	-722
iod	-723
ite	-724
ket	-725
ugh	-726
▁By	-727
▁ab	-728
▁tr	-729
ered	-730
ilit	-731
iter	-732
ular	-733
▁ext	-734
▁new	-735
▁non	-736
▁sec	-737
▁peop	-738
▁rate	-739
▁spec	-740
▁After	-741
▁count	-742
▁influ	-743
▁since	-744
▁there	-745
▁period	-746
▁economy	-747
▁western	-748
▁classical	-749
▁increased	-750
▁subcontinent	-751
▁राज	-752
▁ए	-753
త్	-754
▁కూడ	-755
▁దేశ	-756
▁ప్రా	-757
▁hist	-758
▁पर	-759
ष्ट	-760
ech	-761
omp	-762
able	-763
▁mat	-764
చ్చ	-765
ట్ట	-766
స్థ	-767
▁జాత	-768
▁దేశం	-769
cy	-770
hm	-771
ph	-772
sl	-773
ta	-774
ced	-775
esp	-776
hem	-777
ics	-778
ife	-779
ise	-780
lim	-781
rol	-782
▁Th	-783
ains	-784
amil	-785
ever	-786
ised	-787
oduc	-788
vent	-789
▁mid	-790
▁mus	-791
▁occ	-792
▁pro	-793
▁war	-794
ately	-795
ative	-796
cient	-797
ected	-798
velop	-799
▁Chin	-800
▁Mugh	-801
▁cour	-802
▁life	-803
▁than	-804
▁among	-805
▁emerg	-806
▁liter	-807
▁parli	-808
▁power	-809
▁state	-810
versity	-811
▁number	-812
▁people	-813
▁develop	-814
▁general	-815
▁largest	-816
▁nuclear	-817
▁species	-818
▁parliament	-819
0.	-820
ही	-821
ची	-822
ంద	-823
ష్ట	-824
▁రాజ	-825
▁భారతీయ	-826
5.	-827
▁से	-828
▁6	-829
कार	-830
▁12	-831
ంచ	-832
తర	-833
్ల	-834
▁ఒ	-835
▁ల	-836
▁రై	-837
ता	-838
▁Pl	-839
fe	-840
ya	-841
hen	-842
ild	-843
jab	-844
ope	-845
orm	-846
oss	-847
ten	-848
til	-849
▁Ma	-850
▁US	-851
ansk	-852
enni	-853
▁Eur	-854
▁Pun	-855
▁bas	-856
▁est	-857
▁ref	-858
▁set	-859
engal	-860
ities	-861
ments	-862
ultan	-863
▁East	-864
▁Indo	-865
▁lead	-866
▁rule	-867
▁them	-868
ennium	-869
▁China	-870
▁Sansk	-871
▁milit	-872
▁Bengal	-873
▁Mughal	-874
▁Punjab	-875
▁caused	-876
▁social	-877
▁though	-878
▁country	-879
▁through	-880
illennium	-881
▁Sanskrit	-882
▁including	-883
▁languages	-884
▁constitution	-885
▁आहेत	-886
ुर	-887
▁8	-888
र्म	-889
▁2011	-890
▁197	-891
5,	-892
ాబ	-893
▁ఈ	-894
▁ని	-895
▁మొ	-896
ाह	-897
▁9	-898
ाण	-899
▁कर	-900
ते	-901
▁198	-902
ाग	-903
ीन	-904
द्	-905
▁सम	-906
▁up	-907
లి	-908
ద్ధ	-909
ల్ల	-910
్రి	-911
్రీ	-912
▁పే	-913
▁భా	-914
ंद	-915
4%	-916
).	-917
▁को	-918
▁ध	-919
्यां	-920
ai	-921
ex	-922
ks	-923
ati	-924
emp	-925
hes	-926
ied	-927
ird	-928
odi	-929
ood	-930
rew	-931
ron	-932
▁St	-933
▁fe	-934
ared	-935
ians	-936
ivil	-937
orts	-938
read	-939
tern	-940
▁Mus	-941
▁Sik	-942
▁all	-943
▁emp	-944
▁far	-945
▁gra	-946
▁led	-947
▁one	-948
▁pre	-949
▁sty	-950
▁who	-951
heast	-952
ident	-953
large	-954
▁Comp	-955
▁dire	-956
▁main	-957
▁sign	-958
▁some	-959
imalay	-960
ording	-961
owever	-962
vement	-963
▁Indus	-964
▁music	-965
▁other	-966
▁polit	-967
▁river	-968
▁rural	-969
largest	-970
▁forest	-971
▁mathem	-972
▁religi	-973
▁served	-974
▁Himalay	-975
▁billion	-976
▁military	-977
▁centuries	-978
▁millennium	-979
▁स्	-980
నే	-981
ఖ్య	-982
మైన	-983
ర్వ	-984
ాన్	-985
▁స్	-986
▁జాతీయ	-987
▁భారతదేశ	-988
ाच्या	-989
omet	-990
▁एक	-991
िय	-992
▁human	-993
ति	-994
▁हि	-995
యా	-996
ింద	-997
్యవ	-998
▁ము	-999
▁లో	-1000
1.	-1001
dle	-1002
▁great	-1003
▁झ	-1004
चा	-1005
ost	-1006
ange	-1007
▁Plate	-1008
eh	-1009
gl	-1010
ru	-1011
abl	-1012
acy	-1013
amp	-1014
arn	-1015
ars	-1016
ats	-1017
cri	-1018
day	-1019
gen	-1020
ins	-1021
ked	-1022
mit	-1023
ors	-1024
put	-1025
▁En	-1026
▁Sh	-1027
▁no	-1028
▁us	-1029
ands	-1030
ants	-1031
dust	-1032
elhi	-1033
ives	-1034
ocal	-1035
omen	-1036
orld	-1037
ould	-1038
raph	-1039
very	-1040
▁Isl	-1041
▁acc	-1042
▁ass	-1043
▁col	-1044
▁out	-1045
▁sur	-1046
ances	-1047
ensus	-1048
ories	-1049
▁Cent	-1050
▁Sikh	-1051
▁coal	-1052
▁cook	-1053
▁high	-1054
▁made	-1055
▁tech	-1056
▁time	-1057
▁used	-1058
▁wide	-1059
ricult	-1060
▁Delhi	-1061
▁World	-1062
▁areas	-1063
▁coast	-1064
▁found	-1065
▁third	-1066
▁trans	-1067
▁women	-1068
eration	-1069
▁Muslim	-1070
▁growth	-1071
▁territ	-1072
ultanate	-1073
▁Company	-1074
▁Indians	-1075
▁central	-1076
▁contrib	-1077
▁control	-1078
▁culture	-1079
▁emerged	-1080
▁include	-1081
▁influen	-1082
▁Hinduism	-1083
▁agricult	-1084
▁following	-1085
▁political	-1086
▁religious	-1087
3.	-1088
री	-1089
ध्ये	-1090
ातील	-1091
0%	-1092
డి	-1093
ణా	-1094
తో	-1095
నా	-1096
పా	-1097
వా	-1098
ుల	-1099
ద్ద	-1100
▁స్థ	-1101
ష్ట్ర	-1102
▁ఉన్నాయి	-1103
ाद	-1104
▁जात	-1105
वि	-1106
%.	-1107
न्	-1108
ेत	-1109
20	-1110
▁हे	-1111
▁17	-1112
▁झाल	-1113
्यात	-1114
त्त	-1115
డు	-1116
▁ఏ	-1117
ండి	-1118
ధ్య	-1119
▁ఒక	-1120
▁మార్	-1121
▁రాష్ట్ర	-1122
▁భారతదేశంలో	-1123
19	-1124
▁bir	-1125
▁leg	-1126
▁भारतात	-1127
द्ध	-1128
▁देश	-1129
6,	-1130
JP	-1131
au	-1132
ib	-1133
iz	-1134
ne	-1135
ack	-1136
anu	-1137
are	-1138
ata	-1139
led	-1140
ley	-1141
ock	-1142
oin	-1143
oms	-1144
ons	-1145
ped	-1146
und	-1147
ven	-1148
vol	-1149
wor	-1150
▁bi	-1151
ades	-1152
ehru	-1153
emoc	-1154
fore	-1155
ific	-1156
ines	-1157
ists	-1158
ites	-1159
main	-1160
ulpt	-1161
ving	-1162
west	-1163
▁Its	-1164
▁ago	-1165
▁arm	-1166
▁cap	-1167
▁cre	-1168
▁dev	-1169
▁dra	-1170
▁ent	-1171
▁esp	-1172
▁fed	-1173
▁fig	-1174
▁her	-1175
▁ori	-1176
andhi	-1177
ature	-1178
ction	-1179
glish	-1180
istic	-1181
nolog	-1182
opean	-1183
ually	-1184
verse	-1185
▁Jain	-1186
▁arch	-1187
▁diff	-1188
▁grew	-1189
▁last	-1190
▁pain	-1191
▁righ	-1192
▁they	-1193
minist	-1194
ograph	-1195
▁Hindi	-1196
▁Nehru	-1197
▁There	-1198
▁early	-1199
▁espec	-1200
▁local	-1201
▁marri	-1202
▁occup	-1203
▁party	-1204
▁rates	-1205
▁Gandhi	-1206
▁Ganges	-1207
▁United	-1208
▁animal	-1209
▁census	-1210
▁direct	-1211
▁indust	-1212
▁origin	-1213
▁remain	-1214
▁sculpt	-1215
▁second	-1216
▁states	-1217
▁Central	-1218
▁English	-1219
▁ancient	-1220
▁regions	-1221
▁literacy	-1222
▁majority	-1223
▁painting	-1224
▁diversity	-1225
▁religions	-1226
▁especially	-1227
▁Constitution	-1228
▁parliamentary	-1229
▁मु	-1230
2,	-1231
డ్	-1232
తం	-1233
మా	-1234
ాని	-1235
ెండ	-1236
్రమ	-1237
▁కా	-1238
ిన్న	-1239
▁స్వ	-1240
▁ఉంది	-1241
▁వచ్చ	-1242
▁హింద	-1243
్యవస్థ	-1244
▁మార్గ	-1245
▁मह	-1246
ल्या	-1247
ार्	-1248
र्ष	-1249
से	-1250
▁15	-1251
▁1947,	-1252
▁हैं	-1253
के	-1254
ृत	-1255
▁–	-1256
,000	-1257
ूर्व	-1258
िस	-1259
ంబ	-1260
రా	-1261
ధాన	-1262
్యం	-1263
్రా	-1264
▁చె	-1265
ంత్ర	-1266
▁అధిక	-1267
▁घ	-1268
ळे	-1269
ाष्ट	-1270
ाष्ट्र	-1271
str	-1272
ाय	-1273
4.	-1274
▁Act	-1275
3,	-1276
▁ने	-1277
▁१९	-1278
9.	-1279
DP	-1280
de	-1281
ft	-1282
ix	-1283
wn	-1284
दी	-1285
ach	-1286
amm	-1287
ana	-1288
ani	-1289
ank	-1290
bal	-1291
dam	-1292
eak	-1293
ert	-1294
ety	-1295
leg	-1296
mar	-1297
min	-1298
ned	-1299
ody	-1300
oup	-1301
ual	-1302
vid	-1303
▁1.	-1304
▁ed	-1305
▁sm	-1306
alth	-1307
arat	-1308
cent	-1309
dian	-1310
ecut	-1311
etic	-1312
ight	-1313
ingd	-1314
ings	-1315
osed	-1316
ract	-1317
sequ	-1318
▁Acc	-1319
▁BJP	-1320
▁air	-1321
▁car	-1322
▁ind	-1323
▁low	-1324
▁pen	-1325
▁sou	-1326
▁won	-1327
alled	-1328
alley	-1329
ating	-1330
daman	-1331
icial	-1332
ished	-1333
ively	-1334
orted	-1335
thern	-1336
▁Pers	-1337
▁decl	-1338
▁educ	-1339
▁pres	-1340
▁prom	-1341
▁stat	-1342
▁well	-1343
atures	-1344
ration	-1345
urther	-1346
▁Among	-1347
▁Tamil	-1348
▁These	-1349
▁based	-1350
▁earli	-1351
▁endem	-1352
▁forms	-1353
▁gener	-1354
▁inter	-1355
▁lower	-1356
▁often	-1357
▁sever	-1358
▁union	-1359
▁whose	-1360
ificant	-1361
sequent	-1362
▁During	-1363
▁States	-1364
▁become	-1365
▁cities	-1366
▁commer	-1367
▁common	-1368
▁contin	-1369
▁execut	-1370
▁histor	-1371
▁longer	-1372
▁market	-1373
▁penins	-1374
▁produc	-1375
▁styles	-1376
▁widely	-1377
outheast	-1378
▁Andaman	-1379
▁Western	-1380
▁created	-1381
▁eastern	-1382
▁federal	-1383
▁popular	-1384
▁Buddhism	-1385
▁National	-1386
▁administ	-1387
▁movement	-1388
▁national	-1389
▁regional	-1390
▁republic	-1391
▁southern	-1392
▁According	-1393
▁Himalayas	-1394
▁education	-1395
▁elections	-1396
▁sultanate	-1397
▁technolog	-1398
▁mathematic	-1399
िल	-1400
नी	-1401
గు	-1402
ట్	-1403
భా	-1404
పంచ	-1405
ాల్	-1406
▁కో	-1407
▁మత	-1408
క్షి	-1409
న్ని	-1410
▁పార	-1411
ానికి	-1412
▁ఎన్న	-1413
▁కూడా	-1414
▁పేరు	-1415
▁రైలు	-1416
▁ప్రధాన	-1417
▁ప్రపంచ	-1418
▁ప్రాంత	-1419
देश	-1420
मु	-1421
▁मो	-1422
िण	-1423
ाने	-1424
तात	-1425
स्क	-1426
द्र	-1427
ंड	-1428
मी	-1429
विध	-1430
▁धर्म	-1431
కర	-1432
కృ	-1433
ప్	-1434
సి	-1435
ుక	-1436
త్వ	-1437
దాయ	-1438
ారం	-1439
్టీ	-1440
▁కే	-1441
▁చే	-1442
▁పా	-1443
▁శా	-1444
▁సభ	-1445
క్కు	-1446
ాలలో	-1447
▁క్రీ	-1448
▁మధ్య	-1449
▁దక్షి	-1450
▁రాజ్య	-1451
▁పార్టీ	-1452
▁వ్యవస్థ	-1453
▁ट	-1454
▁नि	-1455
8.	-1456
ड़	-1457
6.	-1458
▁वा	-1459
पट	-1460
pl	-1461
▁birth	-1462
▁1950	-1463
▁193	-1464
क्षिण	-1465
▁साम	-1466
ంప	-1467
టు	-1468
త్య	-1469
్రం	-1470
▁అయ	-1471
ున్న	-1472
▁ఆర్	-1473
▁ఇతర	-1474
▁కాల	-1475
▁జనా	-1476
▁పరి	-1477
▁భాష	-1478
▁మొద	-1479
క్కువ	-1480
ించిన	-1481
▁ప్రజ	-1482
▁హిందూ	-1483
ించింది	-1484
▁దేశంలో	-1485
1%	-1486
ah	-1487
ax	-1488
ea	-1489
ie	-1490
mb	-1491
sc	-1492
ue	-1493
▁z	-1494
act	-1495
ale	-1496
ays	-1497
bar	-1498
can	-1499
cho	-1500
ded	-1501
dra	-1502
elf	-1503
isl	-1504
iss	-1505
loy	-1506
oci	-1507
rop	-1508
tle	-1509
val	-1510
yan	-1511
▁2.	-1512
▁Af	-1513
▁bl	-1514
▁fl	-1515
▁ob	-1516
▁sa	-1517
▁we	-1518
ales	-1519
ards	-1520
ashm	-1521
bers	-1522
cial	-1523
ices	-1524
ined	-1525
ived	-1526
lief	-1527
mary	-1528
nown	-1529
ouse	-1530
rahm	-1531
redi	-1532
work	-1533
▁Ara	-1534
▁GDP	-1535
▁Raj	-1536
▁aff	-1537
▁ann	-1538
▁cur	-1539
▁def	-1540
▁eth	-1541
▁gar	-1542
▁glo	-1543
▁mak	-1544
▁mem	-1545
▁men	-1546
▁now	-1547
▁old	-1548
▁str	-1549
▁sup	-1550
▁tex	-1551
▁win	-1552
ality	-1553
anted	-1554
ather	-1555
chool	-1556
epend	-1557
ility	-1558
ingly	-1559
ising	-1560
ption	-1561
roduc	-1562
▁Alth	-1563
▁Bhar	-1564
▁This	-1565
▁caus	-1566
▁char	-1567
▁dist	-1568
▁fast	-1569
▁five	-1570
▁four	-1571
▁held	-1572
▁indi	-1573
▁left	-1574
▁proc	-1575
▁prot	-1576
▁resp	-1577
▁rise	-1578
▁rock	-1579
▁sing	-1580
▁soci	-1581
▁surv	-1582
▁temp	-1583
▁term	-1584
▁trib	-1585
▁vari	-1586
▁vast	-1587
▁vill	-1588
▁west	-1589
▁wild	-1590
▁worn	-1591
ortant	-1592
ternal	-1593
▁Brahm	-1594
▁Islam	-1595
▁Kashm	-1596
▁Union	-1597
▁along	-1598
▁civil	-1599
▁court	-1600
▁domin	-1601
▁estim	-1602
▁every	-1603
▁famil	-1604
▁group	-1605
▁kingd	-1606
▁plain	-1607
▁polic	-1608
▁three	-1609
▁times	-1610
▁until	-1611
angered	-1612
▁around	-1613
▁comple	-1614
▁conduc	-1615
▁consid	-1616
▁courts	-1617
▁dances	-1618
▁differ	-1619
▁empire	-1620
▁employ	-1621
▁establ	-1622
▁formed	-1623
▁legisl	-1624
▁middle	-1625
▁record	-1626
▁spread	-1627
▁दक्षिण	-1628
▁Jainism	-1629
▁Persian	-1630
▁changes	-1631
▁figures	-1632
▁further	-1633
▁however	-1634
▁leading	-1635
▁thought	-1636
▁Although	-1637
▁Buddhist	-1638
▁earliest	-1639
▁families	-1640
▁independ	-1641
▁industry	-1642
▁kingdoms	-1643
▁official	-1644
▁Southeast	-1645
▁coalition	-1646
▁developed	-1647
▁executive	-1648
▁sculpture	-1649
▁endangered	-1650
▁influenced	-1651
▁peninsular	-1652
▁subsequent	-1653
▁technology	-1654
▁traditions	-1655
▁significant	-1656
▁territories	-1657
▁traditional	-1658
▁10	-1659
▁वर्ष	-1660
धिक	-1661
▁हा	-1662
42	-1663
रे	-1664
ित्र	-1665
▁संस्क	-1666
श्	-1667
▁स्व	-1668
ोक	-1669
हु	-1670
ाला	-1671
्ह	-1672
मध्ये	-1673
▁२	-1674
▁सर	-1675
ंध	-1676
त्	-1677
▁वे	-1678
ाष	-1679
గి	-1680
తా	-1681
దు	-1682
వర	-1683
ష్	-1684
▁अन	-1685
▁కు	-1686
▁పర	-1687
▁పు	-1688
▁వా	-1689
▁సి	-1690
స్కృ	-1691
ెద్ద	-1692
▁काळ	-1693
▁రెండ	-1694
▁వచ్చింది	-1695
▁भारताच्या	-1696
नेक	-1697
3%	-1698
ंत्र	-1699
0,000	-1700
▁ख	-1701
वा	-1702
▁अनेक	-1703
7.	-1704
9%	-1705
–2	-1706
थान	-1707
▁50	-1708
र्थ	-1709
ाती	-1710
िळ	-1711
ाचे	-1712
ित्रपट	-1713
▁चित्रपट	-1714
स्त	-1715
▁history	-1716
की	-1717
..	-1718
क्	-1719
erial	-1720
▁सा	-1721
▁शिक	-1722
tou	-1723
ांत	-1724
ured	-1725
▁All	-1726
▁War	-1727
▁man	-1728
ठी	-1729
प्र	-1730
▁इस	-1731
8,	-1732
గర	-1733
దా	-1734
మీ	-1735
▁ట	-1736
క్క	-1737
త్ర	-1738
పాల	-1739
ప్ప	-1740
భుత	-1741
రిగ	-1742
రువ	-1743
ుకు	-1744
్రె	-1745
ంద్ర	-1746
నాలు	-1747
ాలను	-1748
ుంది	-1749
▁बहु	-1750
▁అతి	-1751
▁ఉంట	-1752
▁ఉత్	-1753
▁ద్వ	-1754
భుత్వ	-1755
రువాత	-1756
▁అయిన	-1757
▁పట్ట	-1758
▁క్రీడ	-1759
▁స్థాన	-1760
▁తరువాత	-1761
▁ప్రభుత్వ	-1762
▁మార్గాలు	-1763
त्तर	-1764
4,	-1765
7%	-1766
▁13	-1767
▁Des	-1768
▁सर्व	-1769
▁ये	-1770
▁पूर्व	-1771
▁ही	-1772
वी	-1773
cr	-1774
ga	-1775
gu	-1776
gy	-1777
te	-1778
ti	-1779
uj	-1780
▁Y	-1781
ail	-1782
ali	-1783
ara	-1784
ash	-1785
dis	-1786
div	-1787
ely	-1788
equ	-1789
erc	-1790
erv	-1791
ett	-1792
has	-1793
ico	-1794
mas	-1795
new	-1796
old	-1797
ole	-1798
ots	-1799
row	-1800
rox	-1801
tal	-1802
ued	-1803
ues	-1804
▁Bi	-1805
▁Gh	-1806
▁Mo	-1807
▁ge	-1808
▁lo	-1809
▁qu	-1810
▁so	-1811
▁ve	-1812
▁wa	-1813
ably	-1814
aksh	-1815
bian	-1816
chab	-1817
ergy	-1818
harm	-1819
here	-1820
ingh	-1821
lied	-1822
life	-1823
miss	-1824
olid	-1825
ones	-1826
ravi	-1827
reme	-1828
rial	-1829
rica	-1830
tain	-1831
ture	-1832
ulti	-1833
upta	-1834
uted	-1835
viol	-1836
▁Ass	-1837
▁Dec	-1838
▁Guj	-1839
▁Mah	-1840
▁Par	-1841
▁Sea	-1842
▁can	-1843
▁che	-1844
▁der	-1845
▁equ	-1846
▁exc	-1847
▁fam	-1848
▁his	-1849
▁lay	-1850
▁mon	-1851
▁nat	-1852
▁ret	-1853
▁ste	-1854
▁sum	-1855
▁tax	-1856
▁tur	-1857
▁upp	-1858
aceut	-1859
acted	-1860
astri	-1861
aving	-1862
cross	-1863
duced	-1864
emocr	-1865
ering	-1866
hedul	-1867
ified	-1868
ining	-1869
itect	-1870
iving	-1871
ommon	-1872
orter	-1873
otion	-1874
ously	-1875
roxim	-1876
▁1200	-1877
▁Gree	-1878
▁Janu	-1879
▁Many	-1880
▁Maur	-1881
▁West	-1882
▁body	-1883
▁exch	-1884
▁flow	-1885
▁fund	-1886
▁head	-1887
▁just	-1888
▁meat	-1889
▁near	-1890
▁poll	-1891
▁prov	-1892
▁sari	-1893
▁scri	-1894
▁serv	-1895
▁show	-1896
▁took	-1897
▁wear	-1898
▁when	-1899
▁writ	-1900
atical	-1901
dramas	-1902
dually	-1903
genous	-1904
liance	-1905
ortion	-1906
ulting	-1907
▁1950,	-1908
▁Asian	-1909
▁Civil	-1910
▁Dravi	-1911
▁Ghats	-1912
▁Singh	-1913
▁Their	-1914
▁about	-1915
▁again	-1916
▁below	-1917
▁capit	-1918
▁creat	-1919
▁crust	-1920
▁invol	-1921
▁known	-1922
▁nomin	-1923
▁pharm	-1924
▁place	-1925
▁plate	-1926
▁pract	-1927
▁renew	-1928
▁small	-1929
▁upper	-1930
▁waist	-1931
amental	-1932
touchab	-1933
vention	-1934
▁Africa	-1935
▁Bharat	-1936
▁Valley	-1937
▁before	-1938
▁called	-1939
▁cooked	-1940
▁curren	-1941
▁disput	-1942
▁elites	-1943
▁extant	-1944
▁extens	-1945
▁global	-1946
▁leader	-1947
▁member	-1948
▁oldest	-1949
▁public	-1950
▁reform	-1951
▁rights	-1952
▁school	-1953
▁single	-1954
▁within	-1955
▁Ancient	-1956
▁Constit	-1957
▁Hindust	-1958
▁However	-1959
▁January	-1960
▁Kashmir	-1961
▁Nuclear	-1962
▁Plateau	-1963
▁cooking	-1964
▁decades	-1965
▁diverse	-1966
▁enacted	-1967
▁exports	-1968
▁foreign	-1969
▁greater	-1970
▁growing	-1971
▁numbers	-1972
▁process	-1973
▁reduced	-1974
▁secular	-1975
▁support	-1976
aceutical	-1977
emocratic	-1978
operation	-1979
▁European	-1980
▁approxim	-1981
▁commonly	-1982
▁composed	-1983
▁consolid	-1984
▁directly	-1985
▁external	-1986
▁features	-1987
▁introduc	-1988
▁recorded	-1989
▁Dravidian	-1990
▁architect	-1991
▁conducted	-1992
▁continued	-1993
▁different	-1994
▁estimated	-1995
▁important	-1996
▁influence	-1997
▁partition	-1998
▁resulting	-1999
▁commercial	-2000
▁indigenous	-2001
▁agriculture	-2002
▁development	-2003
▁established	-2004
▁fundamental	-2005
▁mathematics	-2006
▁agricultural	-2007
▁contribution	-2008
▁approximately	-2009
▁traditionally	-2010
▁pharmaceutical	-2011
वर	-2012
▁भी	-2013
▁पा	-2014
▁185	-2015
▁तथा	-2016
िव	-2017
का	-2018
▁पुर	-2019
▁राष्ट्र	-2020
ाचा	-2021
ाची	-2022
ारी	-2023
▁आण	-2024
▁गे	-2025
▁भू	-2026
▁मान	-2027
▁भाष	-2028
िम	-2029
▁ते	-2030
▁वै	-2031
सा	-2032
▁सि	-2033
▁हु	-2034
▁शिक्ष	-2035
▁राज्य	-2036
ाचीन	-2037
िल्	-2038
▁भाग	-2039
▁संस्कृ	-2040
ाहित	-2041
▁साहित	-2042
शी	-2043
ంక	-2044
గ్	-2045
ణం	-2046
బడ	-2047
మి	-2048
లా	-2049
▁య	-2050
ाली	-2051
కీయ	-2052
ాబ్	-2053
ారి	-2054
ుకో	-2055
▁కొ	-2056
▁ను	-2057
▁బహ	-2058
▁మహ	-2059
▁వే	-2060
ందిన	-2061
వాణా	-2062
ిల్ల	-2063
▁అనే	-2064
▁ఇది	-2065
▁ఏర్	-2066
▁కలి	-2067
▁పాల	-2068
▁వంట	-2069
▁సంగ	-2070
▁సాధ	-2071
ంగ్రె	-2072
్రదాయ	-2073
▁జరిగ	-2074
▁ఎన్నో	-2075
▁జనాభా	-2076
▁పెద్ద	-2077
▁ముఖ్య	-2078
▁రవాణా	-2079
▁ఎక్కువ	-2080
▁కేంద్ర	-2081
▁దక్షిణ	-2082
▁కాంగ్రె	-2083
ूप	-2084
रा	-2085
िश	-2086
▁1965,	-2087
▁प्राचीन	-2088
रण	-2089
दल	-2090
▁26	-2091
िन	-2092
▁इत	-2093
▁ओ	-2094
▁प्रदेश	-2095
▁उद	-2096
▁kil	-2097
▁kilomet	-2098
2%	-2099
2.	-2100
प्त	-2101
▁नाव	-2102
▁शिक्षण	-2103
श्च	-2104
yp	-2105
ख्य	-2106
▁25	-2107
▁प्रकार	-2108
▁उप	-2109
ीप	-2110
्रे	-2111
▁पु	-2112
व्य	-2113
▁दो	-2114
▁Ar	-2115
other	-2116
▁त्या	-2117
▁विविध	-2118
▁मध	-2119
);	-2120
ष्ठ	-2121
जी	-2122
ख्या	-2123
▁लोक	-2124
ास्त	-2125
ोग	-2126
माण	-2127
దం	-2128
దర	-2129
సు	-2130
ాక	-2131
ిమ	-2132
ీన	-2133
ండు	-2134
కాల	-2135
టిక	-2136
డిప	-2137
లలో	-2138
ల్ప	-2139
ాతా	-2140
ాలో	-2141
ిక్	-2142
ీర్	-2143
▁గల	-2144
ంగ్ల	-2145
క్రమ	-2146
ద్ధి	-2147
ించి	-2148
▁మాత	-2149
▁సిం	-2150
స్తుత	-2151
ాల్లో	-2152
▁అత్య	-2153
▁ఏర్ప	-2154
▁పాకి	-2155
▁సంగీ	-2156
▁సిని	-2157
స్తారు	-2158
▁ఉత్తర	-2159
▁చిన్న	-2160
▁దేశాల	-2161
▁ప్రతి	-2162
▁ప్రాచ	-2163
▁భారత్	-2164
▁శాస్త	-2165
▁అధికార	-2166
▁ఆర్ధిక	-2167
▁కాలంలో	-2168
▁రాజకీయ	-2169
▁సంస్కృ	-2170
▁అత్యధిక	-2171
▁अधिक	-2172
म्	-2173
००	-2174
struc	-2175
▁होता	-2176
–20	-2177
▁(19	-2178
ुस	-2179
्हण	-2180
ऱ्या	-2181
▁मोठ	-2182
▁काही	-2183
▁झाले	-2184
▁प्रज	-2185
▁म्हण	-2186
▁संस्कृती	-2187
ेत्र	-2188
▁क्ष	-2189
▁क्षेत्र	-2190
थाप	-2191
▁हिम	-2192
ंतर	-2193
8%	-2194
–201	-2195
▁Rep	-2196
हा	-2197
ोल	-2198
मान	-2199
▁जन	-2200
▁ला	-2201
▁फ	-2202
ृष्ट	-2203
▁तर	-2204
%,	-2205
DA	-2206
HO	-2207
PA	-2208
af	-2209
co	-2210
ds	-2211
ez	-2212
ha	-2213
ii	-2214
jo	-2215
kh	-2216
la	-2217
no	-2218
tr	-2219
400	-2220
8–2	-2221
Ary	-2222
Eur	-2223
ada	-2224
aic	-2225
ala	-2226
alw	-2227
ams	-2228
ann	-2229
aro	-2230
ath	-2231
avi	-2232
aws	-2233
ble	-2234
bly	-2235
des	-2236
die	-2237
era	-2238
eri	-2239
esc	-2240
ese	-2241
ger	-2242
get	-2243
gth	-2244
hok	-2245
ict	-2246
ilw	-2247
inc	-2248
iqu	-2249
irt	-2250
nam	-2251
ods	-2252
ogn	-2253
oli	-2254
one	-2255
ott	-2256
pay	-2257
pic	-2258
pts	-2259
pur	-2260
ran	-2261
rat	-2262
reg	-2263
ret	-2264
rig	-2265
sha	-2266
the	-2267
uis	-2268
une	-2269
ung	-2270
ush	-2271
ute	-2272
van	-2273
▁0.	-2274
▁7.	-2275
▁Ak	-2276
▁Bh	-2277
▁Cl	-2278
▁De	-2279
▁Me	-2280
▁Pr	-2281
▁Re	-2282
▁Va	-2283
▁Vi	-2284
▁bu	-2285
▁hy	-2286
▁ir	-2287
▁mi	-2288
▁op	-2289
▁pa	-2290
▁te	-2291
abad	-2292
abit	-2293
anch	-2294
angl	-2295
anta	-2296
arly	-2297
arna	-2298
avou	-2299
ayed	-2300
bell	-2301
cean	-2302
daro	-2303
ders	-2304
eign	-2305
ency	-2306
ened	-2307
ense	-2308
erch	-2309
eter	-2310
form	-2311
gins	-2312
hoka	-2313
iber	-2314
idly	-2315
imes	-2316
isen	-2317
ises	-2318
itud	-2319
ject	-2320
land	-2321
line	-2322
long	-2323
lows	-2324
medi	-2325
mend	-2326
omic	-2327
onds	-2328
oods	-2329
oral	-2330
orce	-2331
osen	-2332
oted	-2333
pend	-2334
racy	-2335
reen	-2336
ries	-2337
road	-2338
ront	-2339
uent	-2340
uous	-2341
urid	-2342
ार्थ	-2343
▁192	-2344
▁26%	-2345
▁300	-2346
▁400	-2347
▁Bay	-2348
▁Dal	-2349
▁For	-2350
▁Jan	-2351
▁Kal	-2352
▁Mal	-2353
▁Mid	-2354
▁Non	-2355
▁She	-2356
▁Sri	-2357
▁age	-2358
▁bri	-2359
▁cal	-2360
▁cle	-2361
▁cos	-2362
▁div	-2363
▁dri	-2364
▁eff	-2365
▁era	-2366
▁fem	-2367
▁fra	-2368
▁gas	-2369
▁hig	-2370
▁hub	-2371
▁lib	-2372
▁lik	-2373
▁lim	-2374
▁mig	-2375
▁min	-2376
▁opp	-2377
▁pat	-2378
▁sep	-2379
▁sho	-2380
▁sil	-2381
▁sim	-2382
▁six	-2383
▁tak	-2384
▁use	-2385
▁vis	-2386
Aryan	-2387
ached	-2388
acter	-2389
adesh	-2390
after	-2391
ained	-2392
allav	-2393
ameez	-2394
ample	-2395
anged	-2396
anies	-2397
anism	-2398
apons	-2399
aries	-2400
astes	-2401
ector	-2402
embly	-2403
ening	-2404
estic	-2405
guard	-2406
henjo	-2407
ither	-2408
ivity	-2409
nings	-2410
oming	-2411
onial	-2412
reath	-2413
reaty	-2414
rents	-2415
round	-2416
ucial	-2417
urred	-2418
uscri	-2419
vided	-2420
wards	-2421
▁2001	-2422
▁Lank	-2423
▁Myan	-2424
▁Nico	-2425
▁Temp	-2426
▁Thar	-2427
▁adop	-2428
▁area	-2429
▁arts	-2430
▁aver	-2431
▁back	-2432
▁band	-2433
▁came	-2434
▁clim	-2435
▁coll	-2436
▁crit	-2437
▁defe	-2438
▁fact	-2439
▁fall	-2440
▁folk	-2441
▁gave	-2442
▁gend	-2443
▁init	-2444
▁inst	-2445
▁isol	-2446
▁laws	-2447
▁loss	-2448
▁mamm	-2449
▁much	-2450
▁name	-2451
▁pers	-2452
▁pred	-2453
▁prop	-2454
▁rich	-2455
▁safe	-2456
▁slow	-2457
▁test	-2458
▁then	-2459
▁town	-2460
▁trop	-2461
▁unit	-2462
▁very	-2463
▁vict	-2464
▁went	-2465
anding	-2466
assing	-2467
crimin	-2468
ctions	-2469
dieval	-2470
eignty	-2471
idents	-2472
itions	-2473
mitted	-2474
onesia	-2475
overty	-2476
rength	-2477
resent	-2478
ressed	-2479
ricket	-2480
romise	-2481
ulture	-2482
venues	-2483
▁1,000	-2484
▁1951,	-2485
▁1991,	-2486
▁2011,	-2487
▁Bangl	-2488
▁Dance	-2489
▁Early	-2490
▁Euras	-2491
▁Front	-2492
▁Greek	-2493
▁Gupta	-2494
▁North	-2495
▁added	-2496
▁basin	-2497
▁being	-2498
▁broad	-2499
▁cause	-2500
▁conce	-2501
▁could	-2502
▁displ	-2503
▁drain	-2504
▁eight	-2505
▁enter	-2506
▁extin	-2507
▁goods	-2508
▁habit	-2509
▁impro	-2510
▁inequ	-2511
▁level	-2512
▁loose	-2513
▁makes	-2514
▁merch	-2515
▁moist	-2516
▁multi	-2517
▁natal	-2518
▁organ	-2519
▁parts	-2520
▁railw	-2521
▁range	-2522
▁refer	-2523
▁retur	-2524
▁right	-2525
▁seals	-2526
▁share	-2527
▁sites	-2528
▁somet	-2529
▁sover	-2530
▁speak	-2531
▁style	-2532
▁suppl	-2533
▁texts	-2534
▁these	-2535
▁those	-2536
▁today	-2537
▁total	-2538
▁trade	-2539
▁veget	-2540
▁would	-2541
bellion	-2542
ections	-2543
heduled	-2544
omestic	-2545
reasing	-2546
uridars	-2547
▁Ashoka	-2548
▁Buddha	-2549
▁Deccan	-2550
▁Desert	-2551
▁Europe	-2552
▁Indira	-2553
▁Janata	-2554
▁Maurya	-2555
▁Middle	-2556
▁Modern	-2557
▁Pallav	-2558
▁Treaty	-2559
▁across	-2560
▁appear	-2561
▁armies	-2562
▁assert	-2563
▁associ	-2564
▁belief	-2565
▁belong	-2566
▁capita	-2567
▁chosen	-2568
▁consum	-2569
▁decade	-2570
▁dishes	-2571
▁distin	-2572
▁energy	-2573
▁expans	-2574
▁formal	-2575
▁having	-2576
▁heredi	-2577
▁kameez	-2578
▁latter	-2579
▁marked	-2580
▁office	-2581
▁others	-2582
▁partic	-2583
▁plains	-2584
▁rather	-2585
▁recent	-2586
▁recogn	-2587
▁rivers	-2588
▁script	-2589
▁sector	-2590
▁signed	-2591
▁status	-2592
▁strong	-2593
▁summer	-2594
▁threat	-2595
▁tribal	-2596
European	-2597
ditional	-2598
emocracy	-2599
resident	-2600
▁Arabian	-2601
▁Islands	-2602
▁Mohenjo	-2603
▁Myanmar	-2604
▁Nicobar	-2605
▁Sikhism	-2606
▁animals	-2607
▁another	-2608
▁average	-2609
▁classes	-2610
▁contain	-2611
▁crucial	-2612
▁elected	-2613
▁endemic	-2614
▁example	-2615
▁express	-2616
▁forests	-2617
▁liberal	-2618
▁mammals	-2619
▁margins	-2620
▁nominal	-2621
▁poverty	-2622
▁primary	-2623
▁reached	-2624
▁schools	-2625
▁setting	-2626
▁society	-2627
▁village	-2628
▁weapons	-2629
▁written	-2630
mediately	-2631
▁Assembly	-2632
▁becoming	-2633
▁consider	-2634
▁consists	-2635
▁contains	-2636
▁cultural	-2637
▁cultures	-2638
▁currency	-2639
▁devotion	-2640
▁disputes	-2641
▁employed	-2642
▁exchange	-2643
▁manuscri	-2644
▁policies	-2645
▁populous	-2646
▁predomin	-2647
▁religion	-2648
▁revenues	-2649
▁strength	-2650
▁tropical	-2651
▁wildlife	-2652
odiversity	-2653
▁Himalayan	-2654
▁Indonesia	-2655
▁character	-2656
▁churidars	-2657
▁companies	-2658
▁gradually	-2659
▁marriages	-2660
▁ministers	-2661
▁northwest	-2662
▁practices	-2663
▁protected	-2664
▁relations	-2665
▁remaining	-2666
▁residents	-2667
▁sometimes	-2668
▁supported	-2669
ternational	-2670
▁Bangladesh	-2671
▁Government	-2672
▁compromise	-2673
▁inequality	-2674
▁influences	-2675
▁introduced	-2676
▁kilometres	-2677
▁originally	-2678
touchability	-2679
▁Constituent	-2680
▁governments	-2681
▁institution	-2682
▁sovereignty	-2683
▁transmitted	-2684
▁Civilisation	-2685
▁architecture	-2686
▁increasingly	-2687
▁independence	-2688
▁mathematical	-2689
▁urbanisation	-2690
▁contributions	-2691
▁administration	-2692
▁constitutional	-2693
▁थ	-2694
ामु	-2695
ावर	-2696
▁असे	-2697
▁आणि	-2698
▁प्रजाती	-2699
▁बन	-2700
▁1991	-2701
्रि	-2702
▁स्थान	-2703
ाट	-2704
▁इंड	-2705
ुन	-2706
▁किया	-2707
र्ण	-2708
ंद्र	-2709
ंप	-2710
ीत	-2711
▁मुख्य	-2712
▁स्थाप	-2713
ैन	-2714
▁सरकार	-2715
ंब	-2716
▁पद	-2717
ంధ	-2718
కొ	-2719
గం	-2720
ణి	-2721
ధి	-2722
మే	-2723
మ్	-2724
యో	-2725
రం	-2726
రో	-2727
వల	-2728
హద	-2729
ూప	-2730
ెల	-2731
ांप	-2732
ంతో	-2733
గలు	-2734
ట్ల	-2735
డ్డ	-2736
తిక	-2737
ముఖ	-2738
లకు	-2739
ల్వ	-2740
విధ	-2741
ాబా	-2742
ెంగ	-2743
ెలు	-2744
ౌకర	-2745
▁ఉప	-2746
▁జన	-2747
▁పో	-2748
मुळे	-2749
కాలు	-2750
ాత్ర	-2751
్యాయ	-2752
▁टक्	-2753
▁यां	-2754
▁కార	-2755
▁బహు	-2756
▁మూడ	-2757
▁రహద	-2758
▁వర్	-2759
▁సామ	-2760
ण्यात	-2761
ఢిల్ల	-2762
తంత్ర	-2763
సింది	-2764
ాన్ని	-2765
ారులు	-2766
▁నడిప	-2767
▁బెంగ	-2768
▁బ్రి	-2769
▁మొదల	-2770
▁సింధ	-2771
▁సౌకర	-2772
ఢిల్లీ	-2773
ప్పటిక	-2774
▁పట్టణ	-2775
▁రెండు	-2776
▁వివిధ	-2777
▁ప్రముఖ	-2778
▁దేశంలోని	-2779
▁ప్రస్తుత	-2780
▁ప్రాంతాలు	-2781
्राज	-2782
▁साम्राज	-2783
▁आज	-2784
कड	-2785
कर	-2786
▁तक	-2787
▁उत्तर	-2788
▁गण	-2789
त्र	-2790
▁ऑ	-2791
".	-2792
▁सुर	-2793
▁निर्म	-2794
्वीप	-2795
▁भाषा	-2796
ालय	-2797
▁लि	-2798
वळ	-2799
ोब	-2800
▁मिळ	-2801
▁टक्के	-2802
मा	-2803
वस्	-2804
ाब	-2805
िका	-2806
51	-2807
▁16	-2808
हार	-2809
▁जग	-2810
च्	-2811
काल	-2812
पू	-2813
द्य	-2814
ांध	-2815
धान	-2816
▁30	-2817
▁40%	-2818
तो	-2819
ुव	-2820
▁हिंद	-2821
ारण	-2822
▁साथ	-2823
▁आध	-2824
▁मध्य	-2825
तिह	-2826
तिहास	-2827
▁नाम	-2828
▁साहित्य	-2829
धील	-2830
सेच	-2831
▁पृ	-2832
▁येथ	-2833
▁तसेच	-2834
▁पृष्ठ	-2835
In	-2836
क्त	-2837
ागर	-2838
▁शह	-2839
▁अर्थ	-2840
ेव	-2841
▁बंग	-2842
▁इतिहास	-2843
▁हव	-2844
▁ड	-2845
▁1,	-2846
▁था	-2847
णा	-2848
చే	-2849
టీ	-2850
నీ	-2851
భి	-2852
ళం	-2853
వడ	-2854
వు	-2855
షు	-2856
▁ఖ	-2857
▁ఫ	-2858
జ్య	-2859
నిక	-2860
నుక	-2861
పతి	-2862
మంత	-2863
ముద	-2864
మ్య	-2865
రిహ	-2866
లతో	-2867
లను	-2868
ళ్ల	-2869
వత్	-2870
స్య	-2871
ైనా	-2872
్యా	-2873
▁ఆధ	-2874
▁గా	-2875
▁తన	-2876
▁దా	-2877
▁నే	-2878
▁పూ	-2879
▁మన	-2880
▁యు	-2881
▁రో	-2882
▁వల	-2883
▁శత	-2884
▁సమ	-2885
త్తం	-2886
నులు	-2887
ర్వహ	-2888
ల్వే	-2889
వచ్చ	-2890
వరణం	-2891
సియా	-2892
స్వా	-2893
ాబిత	-2894
ాలకు	-2895
ాలతో	-2896
ించే	-2897
ిత్ర	-2898
▁అను	-2899
▁అభి	-2900
▁చరి	-2901
▁చేయ	-2902
▁తమి	-2903
▁నగర	-2904
▁విశ	-2905
▁సమా	-2906
▁సార	-2907
ాబ్దం	-2908
▁అనేక	-2909
▁ఇండి	-2910
▁ఒకటి	-2911
▁చెంద	-2912
▁పండు	-2913
▁పద్ధ	-2914
▁పరిశ	-2915
▁పేర్	-2916
▁వాతా	-2917
▁సరిహ	-2918
▁సర్వ	-2919
స్తాన్	-2920
ాతంత్ర	-2921
▁కూడిన	-2922
▁జాబిత	-2923
▁నుండి	-2924
▁ప్రజా	-2925
▁మొదటి	-2926
▁సంఖ్య	-2927
▁ఉంటాయి	-2928
▁చరిత్ర	-2929
▁జరిగిన	-2930
▁నిర్వహ	-2931
▁మొత్తం	-2932
▁రైల్వే	-2933
▁సౌకర్య	-2934
▁ప్రాచీన	-2935
▁శతాబ్దం	-2936
▁సరిహద్ద	-2937
▁ఎక్కువగా	-2938
▁రహదారులు	-2939
▁వాతావరణం	-2940
▁కాంగ్రెసు	-2941
▁ప్రపంచంలో	-2942
▁స్వాతంత్ర	-2943
▁రాష్ట్రపతి	-2944
▁రాష్ట్రాలు	-2945
▁భారతదేశానికి	-2946
बंध	-2947
▁अप	-2948
▁अज	-2949
▁यह	-2950
ल्	-2951
▁विश	-2952
▁बहुत	-2953
पर	-2954
णी	-2955
दिक	-2956
ांचा	-2957
ामान	-2958
▁इतर	-2959
▁असते	-2960
▁हवामान	-2961
▁1960	-2962
ओं	-2963
टी	-2964
ched	-2965
tive	-2966
▁गया	-2967
orial	-2968
▁only	-2969
erials	-2970
▁materials	-2971
श्चिम	-2972
▁'	-2973
▁बौ	-2974
▁बौद्ध	-2975
मार	-2976
▁वैदिक	-2977
24	-2978
र्त	-2979
▁21	-2980
▁पाक	-2981
▁1965	-2982
▁2013	-2983
र्ज	-2984
▁बाद	-2985
वस्था	-2986
्रिट	-2987
▁1947	-2988
▁ब्रिट	-2989
क्र	-2990
▁होती	-2991
त्ये	-2992
▁सिंध	-2993
ीचे	-2994
्यंत	-2995
▁दे	-2996
40	-2997
5%	-2998
61	-2999
64	-3000
80	-3001
1.1	-3002
yal	-3003
–19	-3004
▁28	-3005
▁42	-3006
mers	-3007
ुसार	-3008
▁16.	-3009
▁21.	-3010
▁500	-3011
▁55,	-3012
▁1930	-3013
▁55,000	-3014
▁Republic	-3015
ढ़	-3016
पा	-3017
▁अर	-3018
ुद्ध	-3019
▁जिस	-3020
तिश	-3021
▁व्या	-3022
▁ब्रिटिश	-3023
▁होते	-3024
ारे	-3025
ैकी	-3026
▁सण	-3027
मधील	-3028
साठी	-3029
ासून	-3030
▁समु	-3031
▁आहार	-3032
▁केली	-3033
▁झाला	-3034
लेल्या	-3035
ांच्या	-3036
ांमध्ये	-3037
िस्त	-3038
")	-3039
$1	-3040
(2	-3041
,"	-3042
31	-3043
9,	-3044
94	-3045
Ar	-3046
Bh	-3047
PP	-3048
ba	-3049
ee	-3050
ey	-3051
fl	-3052
ho	-3053
ip	-3054
kn	-3055
ls	-3056
ma	-3057
mn	-3058
ms	-3059
nd	-3060
sp	-3061
tt	-3062
tu	-3063
uk	-3064
xt	-3065
νδ	-3066
▁Z	-3067
▁°	-3068
▁₹	-3069
$2,	-3070
(2)	-3071
.6%	-3072
1,3	-3073
4.4	-3074
Art	-3075
aem	-3076
air	-3077
ake	-3078
akh	-3079
alf	-3080
amy	-3081
app	-3082
aps	-3083
ase	-3084
asi	-3085
bai	-3086
buc	-3087
cil	-3088
cto	-3089
den	-3090
dus	-3091
ead	-3092
edd	-3093
emi	-3094
eth	-3095
ets	-3096
fer	-3097
han	-3098
hau	-3099
anc	-3100
awa	-3101
dif	-3102
hip	-3103
ick	-3104
ili	-3105
ils	-3106
ily	-3107
ime	-3108
iol	-3109
irm	-3110
iva	-3111
jay	-3112
lac	-3113
lal	-3114
lus	-3115
mns	-3116
nic	-3117
nov	-3118
och	-3119
odu	-3120
omy	-3121
oor	-3122
orn	-3123
oro	-3124
osa	-3125
osi	-3126
osp	-3127
ove	-3128
ovi	-3129
ple	-3130
rac	-3131
rdu	-3132
rid	-3133
rup	-3134
ser	-3135
set	-3136
shy	-3137
sty	-3138
sur	-3139
tre	-3140
udy	-3141
ulk	-3142
uls	-3143
ups	-3144
urs	-3145
ury	-3146
vas	-3147
wan	-3148
yth	-3149
zed	-3150
Ἰνδ	-3151
▁("	-3152
▁34	-3153
▁6%	-3154
▁Aj	-3155
▁At	-3156
▁El	-3157
▁Ex	-3158
▁He	-3159
▁II	-3160
▁Ka	-3161
▁Ni	-3162
▁Or	-3163
▁To	-3164
▁Ve	-3165
▁dh	-3166
▁do	-3167
▁dy	-3168
▁fo	-3169
▁ro	-3170
▁sw	-3171
▁कि	-3172
$100	-3173
5.8%	-3174
Gang	-3175
Prol	-3176
abha	-3177
aces	-3178
adwe	-3179
airs	-3180
aith	-3181
aled	-3182
amed	-3183
ammu	-3184
anag	-3185
andy	-3186
anuf	-3187
aput	-3188
aras	-3189
ares	-3190
ased	-3191
atak	-3192
atts	-3193
aval	-3194
aved	-3195
aves	-3196
ayat	-3197
body	-3198
bour	-3199
buck	-3200
ceed	-3201
down	-3202
east	-3203
econ	-3204
efly	-3205
elig	-3206
ends	-3207
ents	-3208
erly	-3209
eror	-3210
etah	-3211
fast	-3212
fort	-3213
gadi	-3214
gest	-3215
grow	-3216
head	-3217
hess	-3218
hest	-3219
iant	-3220
ibet	-3221
ible	-3222
icle	-3223
icon	-3224
idel	-3225
igaw	-3226
iger	-3227
ilar	-3228
iled	-3229
indh	-3230
inth	-3231
ires	-3232
ital	-3233
itiz	-3234
ival	-3235
ixed	-3236
kets	-3237
king	-3238
knit	-3239
laim	-3240
ling	-3241
mitt	-3242
mphi	-3243
ning	-3244
niqu	-3245
odel	-3246
oint	-3247
oken	-3248
olit	-3249
ondw	-3250
onse	-3251
orne	-3252
osis	-3253
osts	-3254
otsp	-3255
puts	-3256
reak	-3257
ream	-3258
rent	-3259
ring	-3260
rist	-3261
riya	-3262
ronz	-3263
side	-3264
tary	-3265
tile	-3266
uris	-3267
urta	-3268
utes	-3269
vene	-3270
veri	-3271
wing	-3272
year	-3273
ying	-3274
▁2.8	-3275
▁361	-3276
▁70%	-3277
▁Ach	-3278
▁Bah	-3279
▁Bal	-3280
▁Dem	-3281
▁Dis	-3282
▁Fol	-3283
▁Inc	-3284
▁Lat	-3285
▁Mum	-3286
▁NDA	-3287
▁Nep	-3288
▁Net	-3289
▁Old	-3290
▁Sim	-3291
▁Ter	-3292
▁UPA	-3293
▁Vaj	-3294
▁Vis	-3295
▁WHO	-3296
▁abs	-3297
▁any	-3298
▁att	-3299
▁aut	-3300
▁bal	-3301
▁ban	-3302
▁bar	-3303
▁cat	-3304
▁cin	-3305
▁cor	-3306
▁cut	-3307
▁dem	-3308
▁did	-3309
▁doc	-3310
▁dry	-3311
▁due	-3312
▁emb	-3313
▁enc	-3314
▁ess	-3315
▁fil	-3316
▁flo	-3317
▁gro	-3318
▁hun	-3319
▁ide	-3320
▁jac	-3321
▁kho	-3322
▁lab	-3323
▁lar	-3324
▁may	-3325
▁nar	-3326
▁net	-3327
▁own	-3328
▁pet	-3329
▁ple	-3330
▁pot	-3331
▁rap	-3332
▁saw	-3333
▁sex	-3334
▁she	-3335
▁siz	-3336
▁suc	-3337
▁ten	-3338
▁top	-3339
▁tub	-3340
▁tun	-3341
▁typ	-3342
▁unc	-3343
▁vol	-3344
▁way	-3345
▁wet	-3346
▁whe	-3347
ables	-3348
ademi	-3349
aemen	-3350
agana	-3351
andar	-3352
anded	-3353
angra	-3354
aning	-3355
assin	-3356
atory	-3357
avira	-3358
bably	-3359
cover	-3360
dicts	-3361
dised	-3362
eated	-3363
ength	-3364
ently	-3365
erala	-3366
erals	-3367
ercul	-3368
ereal	-3369
erous	-3370
erves	-3371
ganiz	-3372
gener	-3373
harkh	-3374
hered	-3375
house	-3376
icles	-3377
idesp	-3378
iding	-3379
illed	-3380
inces	-3381
isans	-3382
ision	-3383
itude	-3384
lands	-3385
leges	-3386
lowed	-3387
major	-3388
mitte	-3389
oduce	-3390
ogamy	-3391
oints	-3392
olved	-3393
organ	-3394
ority	-3395
osing	-3396
otech	-3397
ottom	-3398
ought	-3399
ouses	-3400
oviet	-3401
payee	-3402
rical	-3403
rigon	-3404
riors	-3405
ronic	-3406
scale	-3407
sease	-3408
stant	-3409
style	-3410
tiles	-3411
works	-3412
yalty	-3413
▁(199	-3414
▁2009	-3415
▁2018	-3416
▁7.5%	-3417
▁Carn	-3418
▁Chol	-3419
▁Clim	-3420
▁Cups	-3421
▁Fore	-3422
▁Jawa	-3423
▁June	-3424
▁Kosi	-3425
▁Modi	-3426
▁Nort	-3427
▁Octo	-3428
▁Sant	-3429
▁Some	-3430
▁They	-3431
▁Urdu	-3432
▁Zoro	-3433
▁able	-3434
▁anat	-3435
▁arms	-3436
▁best	-3437
▁bord	-3438
▁bulk	-3439
▁chap	-3440
▁city	-3441
▁cost	-3442
▁cuis	-3443
▁cust	-3444
▁desc	-3445
▁dest	-3446
▁died	-3447
▁down	-3448
▁drew	-3449
▁evol	-3450
▁fash	-3451
▁fest	-3452
▁fish	-3453
▁food	-3454
▁fort	-3455
▁give	-3456
▁gods	-3457
▁half	-3458
▁hubs	-3459
▁late	-3460
▁less	-3461
▁lies	-3462
▁like	-3463
▁ling	-3464
▁live	-3465
▁make	-3466
▁mand	-3467
▁meas	-3468
▁next	-3469
▁open	-3470
▁pass	-3471
▁past	-3472
▁port	-3473
▁proj	-3474
▁push	-3475
▁rati	-3476
▁rece	-3477
▁refl	-3478
▁rest	-3479
▁role	-3480
▁scen	-3481
▁sedi	-3482
▁self	-3483
▁sole	-3484
▁soon	-3485
▁stif	-3486
▁tand	-3487
▁vary	-3488
▁viol	-3489
▁wars	-3490
▁welf	-3491
▁what	-3492
Prolif	-3493
adweep	-3494
ailand	-3495
alwars	-3496
aputra	-3497
asions	-3498
atives	-3499
avated	-3500
avoury	-3501
castes	-3502
dified	-3503
ective	-3504
ential	-3505
eously	-3506
espite	-3507
ettled	-3508
everal	-3509
formed	-3510
gather	-3511
harlal	-3512
ianity	-3513
iduous	-3514
ilding	-3515
includ	-3516
isions	-3517
isting	-3518
mental	-3519
mented	-3520
mework	-3521
ointed	-3522
orting	-3523
oulder	-3524
ources	-3525
ptions	-3526
rative	-3527
remely	-3528
rising	-3529
rought	-3530
string	-3531
vanced	-3532
vasive	-3533
wealth	-3534
▁1950.	-3535
▁1971,	-3536
▁1999.	-3537
▁2001,	-3538
▁2008,	-3539
▁2010.	-3540
▁2022,	-3541
▁2023.	-3542
▁2026,	-3543
▁Akbar	-3544
▁Bihar	-3545
▁Caves	-3546
▁Champ	-3547
▁Chand	-3548
▁Chess	-3549
▁Chhau	-3550
▁Class	-3551
▁Emerg	-3552
▁Gondw	-3553
▁Jammu	-3554
▁Laksh	-3555
▁Langu	-3556
▁Major	-3557
▁Marat	-3558
▁Ocean	-3559
▁Party	-3560
▁Plain	-3561
▁Rajiv	-3562
▁Relig	-3563
▁Sabha	-3564
▁Shiva	-3565
▁Sikhs	-3566
▁Still	-3567
▁Tibet	-3568
▁Vedic	-3569
▁Vijay	-3570
▁Yaksh	-3571
▁above	-3572
▁agree	-3573
▁amend	-3574
▁amphi	-3575
▁begin	-3576
▁black	-3577
▁bonds	-3578
▁bread	-3579
▁break	-3580
▁bronz	-3581
▁child	-3582
▁citiz	-3583
▁close	-3584
▁cloth	-3585
▁defin	-3586
▁deleg	-3587
▁dense	-3588
▁elect	-3589
▁emiss	-3590
▁enabl	-3591
▁event	-3592
▁exerc	-3593
▁flour	-3594
▁gigaw	-3595
▁gradi	-3596
▁green	-3597
▁hotsp	-3598
▁house	-3599
▁hymns	-3600
▁imple	-3601
▁initi	-3602
▁innov	-3603
▁juris	-3604
▁kurta	-3605
▁lands	-3606
▁layer	-3607
▁liber	-3608
▁males	-3609
▁manuf	-3610
▁marry	-3611
▁medic	-3612
▁model	-3613
▁monso	-3614
▁neigh	-3615
▁ninth	-3616
▁onset	-3617
▁pants	-3618
▁peace	-3619
▁plant	-3620
▁reser	-3621
▁ruled	-3622
▁seats	-3623
▁short	-3624
▁study	-3625
▁super	-3626
▁taxes	-3627
▁thorn	-3628
▁towns	-3629
▁unres	-3630
▁varna	-3631
▁voted	-3632
▁winds	-3633
▁works	-3634
anagara	-3635
centage	-3636
century	-3637
diction	-3638
eatedly	-3639
eticide	-3640
growing	-3641
laiming	-3642
mission	-3643
oration	-3644
osition	-3645
osphere	-3646
passing	-3647
pendent	-3648
ressive	-3649
tlement	-3650
vidence	-3651
violent	-3652
western	-3653
▁Ajanta	-3654
▁Asians	-3655
▁Christ	-3656
▁Common	-3657
▁Econom	-3658
▁Health	-3659
▁Hindus	-3660
▁Jharkh	-3661
▁Kaveri	-3662
▁Kerala	-3663
▁Lankan	-3664
▁Mumbai	-3665
▁Soviet	-3666
▁Temple	-3667
▁access	-3668
▁accoun	-3669
▁action	-3670
▁advent	-3671
▁affirm	-3672
▁annual	-3673
▁arisen	-3674
▁births	-3675
▁bottom	-3676
▁breath	-3677
▁calend	-3678
▁carved	-3679
▁cattle	-3680
▁centre	-3681
▁cereal	-3682
▁chains	-3683
▁coasts	-3684
▁compos	-3685
▁contra	-3686
▁cosine	-3687
▁devast	-3688
▁edicts	-3689
▁effect	-3690
▁either	-3691
▁emphas	-3692
▁ending	-3693
▁factor	-3694
▁family	-3695
▁figure	-3696
▁gained	-3697
▁garlic	-3698
▁gender	-3699
▁geolog	-3700
▁govern	-3701
▁groups	-3702
▁highly	-3703
▁houses	-3704
▁humans	-3705
▁hunter	-3706
▁income	-3707
▁larger	-3708
▁lasted	-3709
▁length	-3710
▁levels	-3711
▁living	-3712
▁mainly	-3713
▁marshy	-3714
▁megadi	-3715
▁narrow	-3716
▁nation	-3717
▁orally	-3718
▁patron	-3719
▁played	-3720
▁points	-3721
▁policy	-3722
▁promin	-3723
▁ranges	-3724
▁regist	-3725
▁relief	-3726
▁rulers	-3727
▁ruling	-3728
▁series	-3729
▁shared	-3730
▁shores	-3731
▁sports	-3732
▁subduc	-3733
▁turned	-3734
▁united	-3735
▁valley	-3736
▁volcan	-3737
Congress	-3738
Gangetic	-3739
economic	-3740
fortable	-3741
ilitated	-3742
majority	-3743
ographic	-3744
ological	-3745
stitutes	-3746
violence	-3747
▁Between	-3748
▁Climate	-3749
▁Cricket	-3750
▁Eastern	-3751
▁Eurasia	-3752
▁Gujarat	-3753
▁Islamic	-3754
▁Muslims	-3755
▁October	-3756
▁Organiz	-3757
▁Punjabi	-3758
▁Rajputs	-3759
▁Several	-3760
▁Shastri	-3761
▁adopted	-3762
▁affairs	-3763
▁against	-3764
▁applied	-3765
▁archaic	-3766
▁artists	-3767
▁attract	-3768
▁biotech	-3769
▁borders	-3770
▁briefly	-3771
▁brought	-3772
▁cheetah	-3773
▁cleared	-3774
▁coastal	-3775
▁company	-3776
▁complex	-3777
▁disease	-3778
▁divorce	-3779
▁emperor	-3780
▁ethical	-3781
▁extends	-3782
▁extinct	-3783
▁farmers	-3784
▁feature	-3785
▁females	-3786
▁garment	-3787
▁habitat	-3788
▁highest	-3789
▁jackets	-3790
▁largely	-3791
▁limited	-3792
▁markets	-3793
▁married	-3794
▁meaning	-3795
▁notable	-3796
▁obstruc	-3797
▁overran	-3798
▁parents	-3799
▁parties	-3800
▁persist	-3801
▁portion	-3802
▁present	-3803
▁prevent	-3804
▁princes	-3805
▁produce	-3806
▁rapidly	-3807
▁reforms	-3808
▁savoury	-3809
▁separat	-3810
▁service	-3811
▁several	-3812
▁similar	-3813
▁standar	-3814
▁steamed	-3815
▁supreme	-3816
▁systems	-3817
▁tandoor	-3818
▁temples	-3819
▁unitary	-3820
▁usually	-3821
▁various	-3822
▁welfare	-3823
▁whereas	-3824
assinated	-3825
erculosis	-3826
gatherers	-3827
idespread	-3828
including	-3829
ographics	-3830
rigonomet	-3831
▁Achaemen	-3832
▁Alliance	-3833
▁Carnatic	-3834
▁Gondwana	-3835
▁Pallavas	-3836
▁Religion	-3837
▁Simultan	-3838
▁Thailand	-3839
▁Vajpayee	-3840
▁advanced	-3841
▁alliance	-3842
▁annually	-3843
▁artisans	-3844
▁artistic	-3845
▁building	-3846
▁citizens	-3847
▁civilian	-3848
▁climatic	-3849
▁colleges	-3850
▁colonial	-3851
▁commerce	-3852
▁committe	-3853
▁creating	-3854
▁declared	-3855
▁defeated	-3856
▁diffused	-3857
▁distinct	-3858
▁domestic	-3859
▁dominion	-3860
▁endemism	-3861
▁everyday	-3862
▁exported	-3863
▁exporter	-3864
▁followed	-3865
▁formally	-3866
▁geograph	-3867
▁hotspots	-3868
▁imperial	-3869
▁included	-3870
▁includes	-3871
▁involved	-3872
▁literary	-3873
▁maintain	-3874
▁manufact	-3875
▁medieval	-3876
▁numerals	-3877
▁occurred	-3878
▁original	-3879
▁presence	-3880
▁probably	-3881
▁produced	-3882
▁producer	-3883
▁provided	-3884
▁railways	-3885
▁relative	-3886
▁remained	-3887
▁response	-3888
▁returned	-3889
▁sediment	-3890
▁severely	-3891
▁shoulder	-3892
▁speakers	-3893
▁strongly	-3894
▁substant	-3895
▁survives	-3896
▁techniqu	-3897
▁uncommon	-3898
▁villages	-3899
▁violence	-3900
▁warriors	-3901
astrianism	-3902
▁Classical	-3903
▁Emergency	-3904
▁Following	-3905
▁Hindustan	-3906
▁Jharkhand	-3907
▁Languages	-3908
▁Northeast	-3909
▁President	-3910
▁Sultanate	-3911
▁according	-3912
▁blackbuck	-3913
▁breathing	-3914
▁coastline	-3915
▁contribut	-3916
▁countries	-3917
▁deciduous	-3918
▁delegates	-3919
▁democracy	-3920
▁dependent	-3921
▁discrimin	-3922
▁dominance	-3923
▁emissions	-3924
▁essential	-3925
▁excavated	-3926
▁expanding	-3927
▁expansion	-3928
▁extremely	-3929
▁flowering	-3930
▁foeticide	-3931
▁fortified	-3932
▁framework	-3933
▁generally	-3934
▁generated	-3935
▁gigawatts	-3936
▁involving	-3937
▁isolation	-3938
▁merchants	-3939
▁migration	-3940
▁neighbour	-3941
▁occasions	-3942
▁paintings	-3943
▁partially	-3944
▁pollution	-3945
▁president	-3946
▁rebellion	-3947
▁renewable	-3948
▁represent	-3949
▁safeguard	-3950
▁scheduled	-3951
▁southwest	-3952
▁spreading	-3953
▁therefore	-3954
▁victories	-3955
▁Democratic	-3956
▁Hindustani	-3957
▁Jawaharlal	-3958
▁Yakshagana	-3959
▁additional	-3960
▁amendments	-3961
▁associated	-3962
▁beginnings	-3963
▁comprising	-3964
▁creativity	-3965
▁decreasing	-3966
▁democratic	-3967
▁eventually	-3968
▁expression	-3969
▁greenhouse	-3970
▁hereditary	-3971
▁historians	-3972
▁historical	-3973
▁increasing	-3974
▁industrial	-3975
▁literature	-3976
▁manuscript	-3977
▁nonviolent	-3978
▁occupation	-3979
▁particular	-3980
▁percentage	-3981
▁repeatedly	-3982
▁settlement	-3983
▁supplanted	-3984
▁thereafter	-3985
▁threatened	-3986
▁unresolved	-3987
▁Brahmaputra	-3988
▁Lakshadweep	-3989
▁comfortable	-3990
▁consumption	-3991
▁contributed	-3992
▁extensively	-3993
▁immediately	-3994
▁independent	-3995
▁legislature	-3996
▁megadiverse	-3997
▁nationalist	-3998
▁territorial	-3999
▁transformed	-4000
Proliferation	-4001
▁Christianity	-4002
▁Commonwealth	-4003
▁Demographics	-4004
▁Organization	-4005
▁Vijayanagara	-4006
▁assassinated	-4007
▁biodiversity	-4008
▁historically	-4009
▁intervention	-4010
▁jurisdiction	-4011
▁organisation	-4012
▁standardised	-4013
▁subsequently	-4014
▁tuberculosis	-4015
▁international	-4016
▁substantially	-4017
▁Simultaneously	-4018
▁Zoroastrianism	-4019
▁characteristic	-4020
▁liberalisation	-4021
▁mathematicians	-4022
▁supercontinent	-4023
▁untouchability	-4024
बसे	-4025
िला	-4026
▁सबसे	-4027
▁नद	-4028
▁जाते	-4029
▁हिमालय	-4030
ासन	-4031
▁इंडिया	-4032
ाले	-4033
▁महार	-4034
▁प्रमाण	-4035
भा	-4036
▁ई	-4037
शिया	-4038
िस्तान	-4039
▁गु	-4040
▁क्र	-4041
",	-4042
4%,	-4043
▁29	-4044
▁ले	-4045
▁1977	-4046
▁अर्थव्य	-4047
मू	-4048
वन	-4049
क्षण	-4050
▁बदल	-4051
त्येक	-4052
▁प्रत्येक	-4053
▁केंद्र	-4054
वं	-4055
▁अम	-4056
▁मै	-4057
▁पाकिस्तान	-4058
▁अभ	-4059
▁उत्	-4060
लग	-4061
▁हिन्	-4062
▁पश्चिम	-4063
▁जो	-4064
▁पठ	-4065
▁बंगाल	-4066
కా	-4067
గో	-4068
టం	-4069
డే	-4070
దన	-4071
పూ	-4072
మై	-4073
రత	-4074
లే	-4075
వృ	-4076
వే	-4077
ాఖ	-4078
ీప	-4079
ూచ	-4080
ౌర	-4081
▁ఐ	-4082
▁ఘ	-4083
ంగం	-4084
ంచి	-4085
ంటే	-4086
కరణ	-4087
ఖండ	-4088
థిక	-4089
ద్య	-4090
న్మ	-4091
ర్ట	-4092
ర్ష	-4093
శ్చ	-4094
ాయక	-4095
ారస	-4096
ాలీ	-4097
ికత	-4098
ికి	-4099
ైగా	-4100
▁ఇవ	-4101
▁గు	-4102
▁గో	-4103
▁దీ	-4104
▁నా	-4105
▁పత	-4106
▁పొ	-4107
▁మా	-4108
▁మే	-4109
▁లే	-4110
▁వహ	-4111
▁వై	-4112
▁సు	-4113
కారం	-4114
కుంట	-4115
గంగా	-4116
టిలో	-4117
టుంబ	-4118
ట్లు	-4119
డ్డు	-4120
తులు	-4121
దేశ్	-4122
యాలు	-4123
ల్లో	-4124
వత్స	-4125
స్యత	-4126
▁అని	-4127
▁క్య	-4128
▁విభ	-4129
▁సంక	-4130
▁సంఘ	-4131
▁సంప	-4132
▁సాం	-4133
క్షరా	-4134
పాలిత	-4135
మైనది	-4136
ళ్లను	-4137
శ్చిమ	-4138
ాబాద్	-4139
ుకోవడ	-4140
్యులు	-4141
▁किल्	-4142
▁जातो	-4143
▁ఆధార	-4144
▁చైనా	-4145
▁పైగా	-4146
▁ముంబ	-4147
▁మూడు	-4148
▁రకాల	-4149
▁లక్ష	-4150
▁లోక్	-4151
▁వంటి	-4152
▁వారస	-4153
▁సాంప	-4154
దినాలు	-4155
న్నాయి	-4156
మంత్రి	-4157
వృద్ధి	-4158
స్థాన్	-4159
ుతున్న	-4160
▁काळात	-4161
▁मध्ये	-4162
▁सिंधू	-4163
▁ఆక్రమ	-4164
▁కలిగి	-4165
▁కార్య	-4166
▁ద్వీప	-4167
▁న్యాయ	-4168
▁పాత్ర	-4169
▁పుట్ట	-4170
▁భాషలు	-4171
▁విస్త	-4172
▁సర్వీ	-4173
ప్పటికీ	-4174
స్వామ్య	-4175
▁समुद्र	-4176
▁ఆర్థిక	-4177
▁ఇండియా	-4178
▁కుటుంబ	-4179
▁కొన్ని	-4180
▁చెందిన	-4181
▁జాబితా	-4182
▁ఢిల్లీ	-4183
▁పశ్చిమ	-4184
▁బ్రిటి	-4185
▁మాత్రం	-4186
▁రోడ్డు	-4187
▁వచ్చిన	-4188
▁సంగీతం	-4189
▁సంవత్స	-4190
▁సామ్రా	-4191
▁సినిమా	-4192
▁ఉన్నారు	-4193
▁దక్షిణా	-4194
▁దేశాలలో	-4195
▁నడిపించ	-4196
▁పరిశ్రమ	-4197
▁బెంగాలీ	-4198
▁వారసత్వ	-4199
క్షరాస్యత	-4200
▁దక్షిణాన	-4201
▁రాజ్యాలు	-4202
▁శాస్త్రం	-4203
▁సంప్రదాయ	-4204
▁సంస్కృతి	-4205
▁స్వతంత్ర	-4206
▁అభివృద్ధి	-4207
▁ప్రస్తుతం	-4208
▁భారతదేశపు	-4209
▁రాష్ట్రాల	-4210
▁సాంప్రదాయ	-4211
▁పాకిస్థాన్	-4212
▁కేంద్రపాలిత	-4213
▁ప్రధానమంత్రి	-4214
▁భారతదేశంలోని	-4215
क्षा	-4216
सं	-4217
ोष	-4218
▁संग	-4219
▁राष्ट्रीय	-4220
▁५	-4221
▁तम	-4222
▁गंग	-4223
डी	-4224
्ञ	-4225
त्या	-4226
▁रूप	-4227
▁वन	-4228
▁महाराष्ट्र	-4229
▁दोन	-4230
ंग्रे	-4231
वस	-4232
▁४	-4233
▁विश्व	-4234
षभ	-4235
ाहरण	-4236
▁विद्य	-4237
▁उदाहरण	-4238
मुख	-4239
ाप्त	-4240
▁प्रमुख	-4241
▁पह	-4242
▁सह	-4243
ेर	-4244
त्य	-4245
ांग	-4246
रत	-4247
▁ग्र	-4248
ास्त्र	-4249
णे	-4250
पती	-4251
▁22	-4252
▁कु	-4253
▁1962	-4254
▁झाली	-4255
▁प्राण	-4256
▁जगातील	-4257
्यांच्या	-4258
▁स्थानिक	-4259
्यांमध्ये	-4260
▁विद्यार्थ	-4261
▁)	-4262
दा	-4263
नि	-4264
▁सो	-4265
ृत्य	-4266
िल्ली	-4267
▁दिल्ली	-4268
▁ठ	-4269
ंतु	-4270
▁परंतु	-4271
▁,	-4272
सद	-4273
ंज	-4274
रूप	-4275
वाद	-4276
▁शै	-4277
ियों	-4278
कालीन	-4279
▁पड	-4280
▁मस	-4281
▁रो	-4282
वसाय	-4283
▁लाग	-4284
▁छ	-4285
▁100	-4286
▁1974	-4287
▁1998	-4288
▁2014	-4289
▁2022	-4290
ब्	-4291
तंत्र	-4292
र्थिक	-4293
▁आर्थिक	-4294
ूर	-4295
ौर	-4296
▁काल	-4297
▁अर्थव्यवस्था	-4298
ंती	-4299
▁पठार	-4300
कि	-4301
जे	-4302
ळख	-4303
ळी	-4304
▁इम	-4305
▁घे	-4306
ांशी	-4307
▁ओळख	-4308
▁विष	-4309
▁वेग	-4310
्याने	-4311
▁अतिश	-4312
▁असून	-4313
▁बांध	-4314
▁शासन	-4315
्यांची	-4316
▁इमारत	-4317
▁येथील	-4318
▁वर्षांप	-4319
▁सर्वांत	-4320
▁बहुतांशी	-4321
30	-4322
63	-4323
,51	-4324
...	-4325
004	-4326
01,	-4327
3.8	-4328
8.7	-4329
िन्	-4330
,517	-4331
3,42	-4332
▁2004	-4333
▁7000	-4334
▁1975,	-4335
▁7,517	-4336
▁9,000	-4337
सी	-4338
▁सैन	-4339
▁पर्व	-4340
▁ऋ	-4341
स्व	-4342
ंदि	-4343
▁पार	-4344
ंच	-4345
ड़ा	-4346
▁अथ	-4347
▁नदी	-4348
▁हुआ	-4349
▁हुई	-4350
▁द्वीप	-4351
▁देख	-4352
కళ	-4353
కో	-4354
జి	-4355
జ్	-4356
టా	-4357
టో	-4358
తీ	-4359
పడ	-4360
పై	-4361
బె	-4362
మన	-4363
మూ	-4364
మె	-4365
మొ	-4366
యం	-4367
రే	-4368
ళ్	-4369
వె	-4370
సీ	-4371
హ్	-4372
ాస	-4373
ిప	-4374
ియ	-4375
ూట	-4376
ెహ	-4377
ోత	-4378
▁డ	-4379
ందు	-4380
ంధీ	-4381
ంపె	-4382
ంబూ	-4383
గిన	-4384
గువ	-4385
గోళ	-4386
టర్	-4387
తాక	-4388
తుల	-4389
దటి	-4390
నది	-4391
నలో	-4392
బంధ	-4393
మతి	-4394
మాన	-4395
రుష	-4396
ర్జ	-4397
ర్త	-4398
లంప	-4399
లామ	-4400
లిం	-4401
లిచ	-4402
ళ్ళ	-4403
వరి	-4404
వర్	-4405
వలం	-4406
ష్ణ	-4407
హార	-4408
ాతో	-4409
ాత్	-4410
ారా	-4411
ాలా	-4412
ినీ	-4413
ిరు	-4414
ుకొ	-4415
ుత్	-4416
ూరు	-4417
▁जा	-4418
▁అవ	-4419
▁కథ	-4420
▁కల	-4421
▁కి	-4422
▁గణ	-4423
▁టె	-4424
▁టై	-4425
▁పద	-4426
▁భౌ	-4427
▁మై	-4428
▁వీ	-4429
▁సహ	-4430
▁సై	-4431
▁హై	-4432
ारिक	-4433
కులు	-4434
క్తి	-4435
క్షం	-4436
జాలు	-4437
ణంగా	-4438
దాపు	-4439
ద్ధం	-4440
న్నడ	-4441
పాదన	-4442
బడిన	-4443
బడ్డ	-4444
భారత	-4445
మాలు	-4446
ములో	-4447
యాలో	-4448
రుపు	-4449
వులు	-4450
సులు	-4451
ారంభ	-4452
ాలనే	-4453
ిమాల	-4454
ిస్త	-4455
ీర్ణ	-4456
ెలవు	-4457
్యాప	-4458
్రీయ	-4459
▁व्य	-4460
▁१९९	-4461
▁ఇవి	-4462
▁ఇస్	-4463
▁ఉండ	-4464
▁ఒకే	-4465
▁కుల	-4466
▁పంచ	-4467
▁రంగ	-4468
▁సూచ	-4469
ంగ్లా	-4470
ంపెనీ	-4471
గరికత	-4472
ట్టమొ	-4473
ణిజ్య	-4474
నుకటి	-4475
న్నిక	-4476
యింది	-4477
వచ్చు	-4478
వరాలు	-4479
విధ్య	-4480
స్థాన	-4481
ారిగా	-4482
ాలుగు	-4483
ాలెండ	-4484
ుకుంట	-4485
ెలుగు	-4486
▁संसद	-4487
▁కల్ప	-4488
▁కింద	-4489
▁చాలా	-4490
▁జంబూ	-4491
▁జనాభ	-4492
▁జన్మ	-4493
▁నిర్	-4494
▁పాక్	-4495
▁బహుళ	-4496
▁భాగం	-4497
▁మంది	-4498
▁రాజు	-4499
▁లేదా	-4500
▁వర్గ	-4501
▁శ్రీ	-4502
▁సముద	-4503
▁స్థా	-4504
బడింది	-4505
ర్టులు	-4506
ుతుంది	-4507
▁ఇంగ్ల	-4508
▁ఉపఖండ	-4509
▁కన్నడ	-4510
▁కలిసి	-4511
▁కేవలం	-4512
▁గాంధీ	-4513
▁గుర్త	-4514
▁జరుపు	-4515
▁తమిళం	-4516
▁నుంచి	-4517
▁పరంగా	-4518
▁పురుష	-4519
▁ప్రజల	-4520
▁భిన్న	-4521
▁మతాలు	-4522
▁ముంబై	-4523
▁విద్య	-4524
▁వ్యాప	-4525
▁శెలవు	-4526
▁సంగీత	-4527
▁సంబంధ	-4528
▁సింధు	-4529
▁హిందీ	-4530
▁హిమాల	-4531
వెనుకటి	-4532
స్కృతిక	-4533
ాలెండర్	-4534
▁ఇస్లామ	-4535
▁ఎన్నిక	-4536
▁ఒకటిగా	-4537
▁కంపెనీ	-4538
▁కూడుకు	-4539
▁తక్కువ	-4540
▁తెలుగు	-4541
▁దాదాపు	-4542
▁దేశంగా	-4543
▁ద్వారా	-4544
▁నగరాలు	-4545
▁నాలుగు	-4546
▁పతకాలు	-4547
▁పద్ధతి	-4548
▁పరిపాల	-4549
▁పేర్కొ	-4550
▁పొందిన	-4551
▁బంగ్లా	-4552
▁మనదేశం	-4553
▁మొదలైన	-4554
▁రాజ్యా	-4555
▁వీటిలో	-4556
▁వేగంగా	-4557
▁సమాఖ్య	-4558
▁సాధించ	-4559
ట్టమొదటి	-4560
విస్తారు	-4561
▁ఉంటుంది	-4562
▁ఏర్పడ్డ	-4563
▁క్రీడలు	-4564
▁చేసింది	-4565
▁తరువాతి	-4566
▁నాగరికత	-4567
▁నిర్వహణ	-4568
▁పండుగలు	-4569
▁ప్రకారం	-4570
▁ప్రారంభ	-4571
▁రైళ్లను	-4572
▁వాణిజ్య	-4573
▁విభిన్న	-4574
▁వైవిధ్య	-4575
▁దేశానికి	-4576
▁పట్టణాలు	-4577
▁ముఖ్యమైన	-4578
▁సినిమాలు	-4579
▁స్థానంలో	-4580
▁కార్యక్రమ	-4581
▁పరిశ్రమలు	-4582
▁ప్రతిపాదన	-4583
▁ప్రభుత్వం	-4584
▁వ్యవస్థలో	-4585
▁శాస్త్రీయ	-4586
▁సర్వీసులు	-4587
▁హిందూదేశం	-4588
▁క్యాలెండర్	-4589
▁పాకిస్తాన్	-4590
▁బంగ్లాదేశ్	-4591
▁మొట్టమొదటి	-4592
▁సాంస్కృతిక	-4593
▁ఇస్లామాబాద్	-4594
▁దక్షిణాసియా	-4595
▁సంప్రదాయాలు	-4596
▁సాంప్రదాయిక	-4597
▁స్వాతంత్ర్య	-4598
▁ప్రజాస్వామ్య	-4599
▁सु	-4600
andm	-4601
बी	-4602
▁३	-4603
च्छ	-4604
दार	-4605
पूर्व	-4606
स्थान	-4607
में	-4608
िष्ट	-4609
▁लाल	-4610
▁जाता	-4611
दान	-4612
राज	-4613
ारा	-4614
▁विक	-4615
्तर	-4616
ुग	-4617
▁किन	-4618
टा	-4619
▁सी	-4620
खन	-4621
नाड	-4622
▁नृत्य	-4623
ख्	-4624
ळू	-4625
ंनी	-4626
यार	-4627
ेकड	-4628
ोड़	-4629
▁आढ	-4630
ंग्र	-4631
ण्या	-4632
लेला	-4633
लेली	-4634
ांची	-4635
ातून	-4636
्त्व	-4637
▁गेट	-4638
ामुळे	-4639
▁अजून	-4640
▁केले	-4641
▁तमिळ	-4642
▁तयार	-4643
▁दिया	-4644
▁मोठा	-4645
ख्याने	-4646
▁अतिशय	-4647
▁भागात	-4648
▁किल्ला	-4649
▁प्रामु	-4650
▁मोठ्या	-4651
▁म्हणून	-4652
▁प्रामुख्याने	-4653
▁स्थ	-4654
विधान	-4655
▁साम्राज्य	-4656
▁विभ	-4657
पे	-4658
ॉल	-4659
dia	-4660
स्ट	-4661
ुरू	-4662
▁घोष	-4663
India	-4664
पूर्ण	-4665
पु	-4666
▁६	-4667
ाजिक	-4668
▁आधार	-4669
▁प्रस	-4670
▁संगीत	-4671
▁सामाजिक	-4672
वे	-4673
िवस	-4674
▁भरत	-4675
▁वैश	-4676
▁अथवा	-4677
▁शास्त्र	-4678
हीं	-4679
▁थी	-4680
▁बढ़	-4681
▁राज्यों	-4682
▁दश	-4683
▁लग	-4684
योग	-4685
▁संविधान	-4686
▁1980	-4687
▁युद्ध	-4688
CN	-4689
UCN	-4690
शास	-4691
ाता	-4692
▁ec	-4693
▁cra	-4694
▁spe	-4695
▁val	-4696
▁१९७	-4697
place	-4698
▁IUCN	-4699
▁पर्वत	-4700
▁grandm	-4701
▁संस्कृत	-4702
▁birthplace	-4703
▁ऑफ	-4704
▁ति	-4705
▁शहरी	-4706
यी	-4707
ांचे	-4708
▁लिए	-4709
▁समय	-4710
▁अन्य	-4711
र्ग	-4712
▁पू	-4713
▁जाती	-4714
▁स्थित	-4715
▁निर्माण	-4716
-1	-4717
भाव	-4718
▁जी	-4719
▁1,2	-4720
▁1951	-4721
▁2012	-4722
ोध	-4723
ोर	-4724
ष्ण	-4725
▁अग	-4726
▁तो	-4727
▁मा	-4728
▁७	-4729
गोल	-4730
मिक	-4731
▁गो	-4732
▁१२	-4733
▁जैन	-4734
डे	-4735
ूळ	-4736
्ल	-4737
ळवळ	-4738
िती	-4739
ोबत	-4740
▁घड	-4741
▁सध	-4742
नाडू	-4743
ांवर	-4744
ावली	-4745
▁आढळ	-4746
▁कमी	-4747
▁दख्	-4748
▁नाट	-4749
▁होत	-4750
पासून	-4751
ीच्या	-4752
▁गेली	-4753
▁चळवळ	-4754
▁वापर	-4755
ातंत्र	-4756
ामध्ये	-4757
▁सध्या	-4758
▁सुरुव	-4759
▁हिंदू	-4760
ृष्ट्या	-4761
▁प्रांत	-4762
▁म्हणजे	-4763
▁करण्यात	-4764
▁भारताचे	-4765
▁भारताने	-4766
▁राज्यात	-4767
▁वैशिष्ट	-4768
▁स्वातंत्र	-4769
▁वर्षांपूर्व	-4770
▁संघ	-4771
▁ऊ	-4772
▁भूम	-4773
ंत्री	-4774
ेष	-4775
च्च	-4776
$2	-4777
13	-4778
62	-4779
67	-4780
$64	-4781
04%	-4782
500	-4783
omm	-4784
▁(2	-4785
▁14	-4786
▁2,	-4787
Aust	-4788
ters	-4789
ुनिक	-4790
▁17.	-4791
▁72.	-4792
▁74.	-4793
▁काम	-4794
▁1967	-4795
▁1984	-4796
▁1990	-4797
▁2007	-4798
▁2019	-4799
ralian	-4800
▁16.6%	-4801
▁30,000	-4802
▁74.04%	-4803
Australian	-4804
ांस	-4805
ाख	-4806
ूष	-4807
देव	-4808
वंट	-4809
▁कला	-4810
▁खास	-4811
▁इत्या	-4812
▁पारंप	-4813
▁-	-4814
ड़ी	-4815
िये	-4816
▁चुन	-4817
▁बना	-4818
▁रहा	-4819
▁करने	-4820
▁देशों	-4821
▁हिन्दी	-4822
ीच	-4823
जात	-4824
▁नेत	-4825
▁पार्	-4826
▁मैदान	-4827
▁संबंध	-4828
▁कम	-4829
'.	-4830
.)	-4831
01	-4832
22	-4833
3–	-4834
5°	-4835
75	-4836
96	-4837
Al	-4838
NA	-4839
US	-4840
[ˈ	-4841
ao	-4842
az	-4843
bh	-4844
bu	-4845
by	-4846
hg	-4847
ji	-4848
ke	-4849
lt	-4850
lw	-4851
mo	-4852
oo	-4853
rg	-4854
sf	-4855
ug	-4856
ux	-4857
wh	-4858
xf	-4859
yi	-4860
yj	-4861
yl	-4862
yā	-4863
āh	-4864
ām	-4865
ɦa	-4866
ɦɪ	-4867
ɾə	-4868
ία	-4869
ός	-4870
चल	-4871
ṇa	-4872
–6	-4873
▁Ö	-4874
▁Ś	-4875
$30	-4876
-19	-4877
001	-4878
1.3	-4879
2%.	-4880
22-	-4881
3–3	-4882
423	-4883
46%	-4884
6%;	-4885
64%	-4886
663	-4887
85.	-4888
Aph	-4889
Ara	-4890
Dem	-4891
Min	-4892
Mus	-4893
Pol	-4894
adi	-4895
adv	-4896
aiv	-4897
aja	-4898
alk	-4899
23	-4900
7°	-4901
ca	-4902
ew	-4903
ṣṭ	-4904
700	-4905
Kad	-4906
acc	-4907
amb	-4908
ami	-4909
ane	-4910
anw	-4911
aos	-4912
api	-4913
arm	-4914
arp	-4915
asl	-4916
asy	-4917
ayb	-4918
azz	-4919
bac	-4920
bhā	-4921
bra	-4922
bɦa	-4923
clo	-4924
col	-4925
ctu	-4926
cul	-4927
cut	-4928
eav	-4929
eca	-4930
ece	-4931
eep	-4932
ees	-4933
elo	-4934
ema	-4935
ems	-4936
ero	-4937
ght	-4938
gic	-4939
hav	-4940
hlw	-4941
hol	-4942
hor	-4943
ika	-4944
ila	-4945
ims	-4946
iri	-4947
isi	-4948
its	-4949
jan	-4950
jav	-4951
key	-4952
kut	-4953
lad	-4954
lar	-4955
lel	-4956
ler	-4957
lid	-4958
lig	-4959
man	-4960
mop	-4961
mun	-4962
nai	-4963
nat	-4964
ndʊ	-4965
ner	-4966
not	-4967
oda	-4968
olk	-4969
oma	-4970
opy	-4971
ora	-4972
ota	-4973
owd	-4974
par	-4975
rel	-4976
rif	-4977
ril	-4978
rin	-4979
roc	-4980
rul	-4981
rum	-4982
sia	-4983
tem	-4984
tra	-4985
uda	-4986
udh	-4987
uff	-4988
ugu	-4989
ula	-4990
una	-4991
urg	-4992
uru	-4993
use	-4994
uth	-4995
yam	-4996
yed	-4997
yāy	-4998
āmā	-4999
ox	-5000
to	-5001
00–	-5002
Ban	-5003
arh	-5004
ull	-5005
ūtr	-5006
ɾət	-5007
ṇin	-5008
▁('	-5009
▁([	-5010
▁32	-5011
▁44	-5012
▁5,	-5013
▁53	-5014
▁6.	-5015
▁63	-5016
▁9%	-5017
▁Ad	-5018
▁Am	-5019
▁Az	-5020
▁Br	-5021
▁Co	-5022
▁Cr	-5023
▁Ge	-5024
▁Gr	-5025
▁Id	-5026
▁Na	-5027
▁No	-5028
▁Ph	-5029
▁Pā	-5030
▁Ri	-5031
▁Sc	-5032
▁Sp	-5033
▁[ˈ	-5034
▁go	-5035
▁id	-5036
▁il	-5037
▁ju	-5038
▁my	-5039
▁pi	-5040
▁po	-5041
▁ub	-5042
$308	-5043
235.	-5044
3.94	-5045
4.2%	-5046
5.6%	-5047
601,	-5048
627,	-5049
9.8%	-5050
Arab	-5051
Polo	-5052
Test	-5053
abin	-5054
abyl	-5055
aged	-5056
agon	-5057
agos	-5058
akti	-5059
amas	-5060
amic	-5061
anam	-5062
anim	-5063
anks	-5064
apan	-5065
aped	-5066
aper	-5067
apon	-5068
aran	-5069
arba	-5070
arhi	-5071
arji	-5072
atab	-5073
atis	-5074
avar	-5075
ayal	-5076
bans	-5077
bate	-5078
beca	-5079
bhār	-5080
cept	-5081
chas	-5082
chol	-5083
cies	-5084
clof	-5085
cont	-5086
dily	-5087
drop	-5088
dual	-5089
eans	-5090
easy	-5091
ecog	-5092
ects	-5093
edom	-5094
efin	-5095
ehrg	-5096
eing	-5097
emin	-5098
endi	-5099
11	-5100
65	-5101
1%,	-5102
2),	-5103
eda	-5104
lit	-5105
odo	-5106
arla	-5107
arāh	-5108
atur	-5109
enth	-5110
eria	-5111
eset	-5112
ewly	-5113
five	-5114
fted	-5115
ghan	-5116
glom	-5117
hava	-5118
hira	-5119
hmed	-5120
hous	-5121
idge	-5122
ield	-5123
iers	-5124
igin	-5125
imum	-5126
irls	-5127
isak	-5128
ithm	-5129
ivas	-5130
ivot	-5131
join	-5132
jour	-5133
kent	-5134
khar	-5135
kirt	-5136
last	-5137
leav	-5138
lian	-5139
lier	-5140
loor	-5141
lora	-5142
ltry	-5143
lymp	-5144
mass	-5145
most	-5146
nast	-5147
ners	-5148
nine	-5149
odav	-5150
oder	-5151
ogen	-5152
ogur	-5153
oist	-5154
oked	-5155
oldi	-5156
olls	-5157
olly	-5158
olon	-5159
onic	-5160
onyi	-5161
ooge	-5162
ooth	-5163
ours	-5164
owda	-5165
past	-5166
pren	-5167
pure	-5168
rach	-5169
rain	-5170
rees	-5171
rely	-5172
riad	-5173
rich	-5174
rike	-5175
rise	-5176
rish	-5177
role	-5178
rule	-5179
ryab	-5180
sful	-5181
sine	-5182
sive	-5183
sted	-5184
ster	-5185
tane	-5186
tell	-5187
terc	-5188
term	-5189
tery	-5190
tial	-5191
ties	-5192
udra	-5193
uett	-5194
umin	-5195
unei	-5196
utan	-5197
uxur	-5198
vals	-5199
48	-5200
arc	-5201
eft	-5202
lih	-5203
sta	-5204
1.2%	-5205
aced	-5206
ases	-5207
ator	-5208
iced	-5209
nder	-5210
omsm	-5211
orem	-5212
puri	-5213
vial	-5214
ward	-5215
were	-5216
wice	-5217
with	-5218
yani	-5219
yaṇa	-5220
yder	-5221
ythm	-5222
yāyī	-5223
ārat	-5224
ṇini	-5225
–60%	-5226
▁(3,	-5227
▁1.4	-5228
▁10,	-5229
▁113	-5230
▁12%	-5231
▁120	-5232
▁15,	-5233
▁18,	-5234
▁2,0	-5235
▁30′	-5236
▁35°	-5237
▁39%	-5238
▁431	-5239
▁53%	-5240
▁580	-5241
▁596	-5242
▁93.	-5243
▁97°	-5244
▁Any	-5245
▁Asi	-5246
▁Aug	-5247
▁Aṣṭ	-5248
▁But	-5249
▁Cal	-5250
▁Cap	-5251
▁Cha	-5252
▁Chi	-5253
▁DNA	-5254
▁Dic	-5255
▁Dog	-5256
▁Emp	-5257
▁Exp	-5258
▁Fed	-5259
▁Fic	-5260
▁Gra	-5261
▁Gup	-5262
▁Har	-5263
▁Hom	-5264
▁Imp	-5265
▁Kon	-5266
▁Kut	-5267
▁Lok	-5268
▁Mad	-5269
▁Mar	-5270
▁Mat	-5271
▁Mig	-5272
▁Mit	-5273
▁Mor	-5274
▁Nad	-5275
▁Nag	-5276
▁Nat	-5277
▁Nav	-5278
▁Out	-5279
▁Oxf	-5280
▁Pri	-5281
▁Pud	-5282
▁Ram	-5283
▁Rao	-5284
▁Res	-5285
▁Rig	-5286
▁Ruk	-5287
▁Rus	-5288
▁Sin	-5289
▁Son	-5290
▁Tap	-5291
▁Tow	-5292
▁Tra	-5293
▁Whe	-5294
▁ach	-5295
▁adi	-5296
▁adv	-5297
▁arc	-5298
▁arr	-5299
dr	-5300
dit	-5301
elt	-5302
fts	-5303
inf	-5304
ray	-5305
sar	-5306
ulg	-5307
fess	-5308
icul	-5309
isis	-5310
omot	-5311
prop	-5312
▁May	-5313
▁abj	-5314
▁asp	-5315
▁bey	-5316
▁big	-5317
▁bit	-5318
▁cig	-5319
▁day	-5320
▁del	-5321
▁dep	-5322
▁det	-5323
▁dol	-5324
▁dou	-5325
▁dur	-5326
▁eat	-5327
▁ele	-5328
▁ens	-5329
▁env	-5330
▁fac	-5331
▁few	-5332
▁fin	-5333
▁fle	-5334
▁foc	-5335
▁fre	-5336
▁fun	-5337
▁fut	-5338
▁gap	-5339
▁hor	-5340
▁ing	-5341
▁kne	-5342
▁lex	-5343
▁lit	-5344
▁lop	-5345
▁mal	-5346
▁mob	-5347
▁mud	-5348
▁nas	-5349
▁pac	-5350
▁pil	-5351
▁pow	-5352
▁pyj	-5353
▁reh	-5354
▁ric	-5355
▁ris	-5356
▁rit	-5357
▁roc	-5358
▁rup	-5359
▁sci	-5360
▁see	-5361
▁seg	-5362
▁sus	-5363
▁tuc	-5364
▁uni	-5365
▁unl	-5366
▁unp	-5367
▁unw	-5368
▁ver	-5369
▁vie	-5370
▁vul	-5371
▁wra	-5372
▁Śul	-5373
▁चीन	-5374
$24.4	-5375
001).	-5376
004).	-5377
1,300	-5378
3,422	-5379
3–351	-5380
4,700	-5381
5.46%	-5382
Aphor	-5383
Kadai	-5384
acrif	-5385
aging	-5386
agore	-5387
aking	-5388
alism	-5389
allel	-5390
alwar	-5391
anctu	-5392
anjav	-5393
antic	-5394
antle	-5395
antly	-5396
antra	-5397
appes	-5398
araja	-5399
.1	-5400
32	-5401
hâ	-5402
alo	-5403
bon	-5404
eur	-5405
hâl	-5406
tas	-5407
vis	-5408
▁ac	-5409
.1%.	-5410
aker	-5411
asis	-5412
dise	-5413
iron	-5414
liff	-5415
nial	-5416
upas	-5417
▁nor	-5418
8–232	-5419
acity	-5420
amuna	-5421
arasw	-5422
ardam	-5423
arish	-5424
arsis	-5425
arter	-5426
aters	-5427
athan	-5428
athes	-5429
atist	-5430
atura	-5431
avati	-5432
avour	-5433
backs	-5434
bally	-5435
bined	-5436
ching	-5437
cutta	-5438
dates	-5439
dical	-5440
eavor	-5441
elugu	-5442
empor	-5443
ences	-5444
ental	-5445
eptem	-5446
erate	-5447
esans	-5448
eties	-5449
etnam	-5450
ffalo	-5451
gebra	-5452
gidly	-5453
gment	-5454
heras	-5455
herry	-5456
hgala	-5457
horse	-5458
icoat	-5459
idate	-5460
iders	-5461
iform	-5462
ighat	-5463
ikank	-5464
ilipp	-5465
illar	-5466
inade	-5467
indhu	-5468
ineal	-5469
inely	-5470
inger	-5471
inked	-5472
itage	-5473
ithic	-5474
itous	-5475
ivasa	-5476
known	-5477
kuttu	-5478
laden	-5479
lders	-5480
liffs	-5481
liter	-5482
lived	-5483
merge	-5484
mined	-5485
mohan	-5486
monds	-5487
namon	-5488
nions	-5489
ocodi	-5490
oding	-5491
ogeny	-5492
oking	-5493
ongol	-5494
onoun	-5495
onour	-5496
opped	-5497
order	-5498
otton	-5499
art	-5500
een	-5501
ont	-5502
ruc	-5503
▁IT	-5504
▁Im	-5505
anda	-5506
dial	-5507
iand	-5508
pics	-5509
rest	-5510
ully	-5511
▁Ire	-5512
▁ins	-5513
ankar	-5514
danda	-5515
izont	-5516
ourse	-5517
owded	-5518
owned	-5519
oxide	-5520
pared	-5521
party	-5522
prise	-5523
quest	-5524
raits	-5525
rance	-5526
regul	-5527
right	-5528
rishn	-5529
roken	-5530
slide	-5531
sting	-5532
tains	-5533
tered	-5534
tions	-5535
uffed	-5536
ulmon	-5537
ultil	-5538
uppli	-5539
veals	-5540
veill	-5541
which	-5542
ūtras	-5543
ɦɪndʊ	-5544
Ἰνδία	-5545
Ἰνδός	-5546
–1900	-5547
–1975	-5548
▁(1.3	-5549
▁(400	-5550
▁1,21	-5551
▁1,42	-5552
▁1.7%	-5553
▁16.1	-5554
▁1765	-5555
▁1848	-5556
▁1911	-5557
▁1935	-5558
▁1964	-5559
▁2.3%	-5560
▁2024	-5561
▁24%,	-5562
▁28.7	-5563
▁29%.	-5564
▁522-	-5565
▁63.8	-5566
▁7.9%	-5567
▁700–	-5568
▁72.0	-5569
▁8.6%	-5570
▁93.9	-5571
▁Aṣṭā	-5572
▁Bahá	-5573
▁Bakh	-5574
▁Bedd	-5575
▁Camb	-5576
▁Cons	-5577
▁Coun	-5578
▁Deve	-5579
▁Devi	-5580
▁Dhol	-5581
▁Educ	-5582
▁Epic	-5583
▁From	-5584
▁Ganw	-5585
▁Hist	-5586
▁Homo	-5587
▁Iran	-5588
▁Juda	-5589
▁Kolk	-5590
▁Konk	-5591
▁Laos	-5592
▁Left	-5593
▁Nadu	-5594
▁Narm	-5595
▁Pain	-5596
▁Pali	-5597
▁Parc	-5598
▁Pash	-5599
nc	-5600
.2%	-5601
def	-5602
esi	-5603
nas	-5604
▁Ac	-5605
eper	-5606
inga	-5607
isms	-5608
ping	-5609
ried	-5610
riff	-5611
rion	-5612
vail	-5613
went	-5614
▁20%	-5615
▁pou	-5616
▁rak	-5617
▁sal	-5618
▁sit	-5619
$3.94	-5620
anked	-5621
heesi	-5622
ncret	-5623
ratri	-5624
ābhār	-5625
▁18%,	-5626
▁Prog	-5627
▁Rasl	-5628
▁Rāmā	-5629
▁Sang	-5630
▁Sarn	-5631
▁Sign	-5632
▁Sikk	-5633
▁Sind	-5634
▁Srin	-5635
▁Sund	-5636
▁Tash	-5637
▁Teth	-5638
▁Toda	-5639
▁Uday	-5640
▁Vaig	-5641
▁Veda	-5642
▁With	-5643
▁adhe	-5644
▁agro	-5645
▁allu	-5646
▁arri	-5647
▁atop	-5648
▁auth	-5649
▁bird	-5650
▁clot	-5651
▁core	-5652
▁cres	-5653
▁danc	-5654
▁date	-5655
▁deal	-5656
▁deep	-5657
▁dhot	-5658
▁docu	-5659
▁done	-5660
▁doub	-5661
▁drop	-5662
▁eigh	-5663
▁ensl	-5664
▁felt	-5665
▁fend	-5666
▁forb	-5667
▁foun	-5668
▁free	-5669
▁full	-5670
▁gain	-5671
▁ghar	-5672
▁gill	-5673
▁gold	-5674
▁hour	-5675
▁idli	-5676
▁inve	-5677
▁jazz	-5678
▁judi	-5679
▁keep	-5680
▁kill	-5681
▁lear	-5682
▁lent	-5683
▁line	-5684
▁list	-5685
▁maln	-5686
▁mass	-5687
▁meet	-5688
▁ment	-5689
▁migr	-5690
▁ming	-5691
▁mini	-5692
▁mort	-5693
▁moun	-5694
▁move	-5695
▁must	-5696
▁myst	-5697
▁neol	-5698
▁noma	-5699
cur	-5700
▁gu	-5701
$2,7	-5702
adur	-5703
alls	-5704
bout	-5705
ired	-5706
irep	-5707
▁1.5	-5708
▁bur	-5709
▁god	-5710
▁har	-5711
▁hom	-5712
allis	-5713
entry	-5714
inate	-5715
irety	-5716
lying	-5717
osome	-5718
pired	-5719
rades	-5720
▁1985	-5721
▁feud	-5722
▁here	-5723
▁home	-5724
▁noun	-5725
▁oral	-5726
▁outp	-5727
▁perh	-5728
▁pett	-5729
▁pree	-5730
▁priv	-5731
▁quad	-5732
▁rush	-5733
▁same	-5734
▁sapi	-5735
▁seaf	-5736
▁seal	-5737
▁seas	-5738
▁seen	-5739
▁sett	-5740
▁sher	-5741
▁side	-5742
▁silk	-5743
▁stit	-5744
▁subc	-5745
▁subt	-5746
▁sust	-5747
▁symb	-5748
▁tabl	-5749
▁talk	-5750
▁tang	-5751
▁thus	-5752
▁ties	-5753
▁toad	-5754
▁upon	-5755
▁vacc	-5756
▁view	-5757
▁wedd	-5758
▁whil	-5759
▁will	-5760
▁wood	-5761
▁work	-5762
▁wors	-5763
▁youn	-5764
▁zero	-5765
$2,731	-5766
0–1975	-5767
235.24	-5768
8,627,	-5769
Arabic	-5770
Bhārat	-5771
Indian	-5772
Muslim	-5773
Parsis	-5774
abinet	-5775
abylon	-5776
aching	-5777
achisi	-5778
action	-5779
advant	-5780
agupta	-5781
aivers	-5782
aivite	-5783
alleng	-5784
alling	-5785
amples	-5786
andise	-5787
andson	-5788
angeet	-5789
annada	-5790
anning	-5791
anujan	-5792
arated	-5793
arishv	-5794
asured	-5795
asures	-5796
ategic	-5797
aturaṅ	-5798
ayback	-5799
91,	-5800
aff	-5801
off	-5802
▁3%	-5803
▁5%	-5804
▁7%	-5805
▁70	-5806
▁7′	-5807
▁rh	-5808
hask	-5809
laps	-5810
ligh	-5811
plus	-5812
such	-5813
▁Esc	-5814
▁Sat	-5815
▁neg	-5816
▁veh	-5817
Eight	-5818
arian	-5819
ellen	-5820
ights	-5821
ioned	-5822
ockey	-5823
odies	-5824
utrit	-5825
▁Eigh	-5826
▁Four	-5827
▁hold	-5828
▁need	-5829
▁neem	-5830
▁peak	-5831
▁poet	-5832
▁tect	-5833
anking	-5834
breath	-5835
broken	-5836
clofen	-5837
cooked	-5838
descri	-5839
downtr	-5840
eadily	-5841
eaking	-5842
ecting	-5843
elagos	-5844
ellate	-5845
elodic	-5846
ending	-5847
eneral	-5848
engine	-5849
ennial	-5850
ensity	-5851
ethnic	-5852
eurial	-5853
ferred	-5854
gested	-5855
glomer	-5856
headed	-5857
herent	-5858
hering	-5859
hewing	-5860
hlwani	-5861
housie	-5862
iander	-5863
iation	-5864
igarhi	-5865
ightly	-5866
incial	-5867
infall	-5868
ionals	-5869
isakhi	-5870
ishing	-5871
ivotal	-5872
ixture	-5873
lihood	-5874
manent	-5875
market	-5876
mended	-5877
natyam	-5878
nicity	-5879
odated	-5880
olitan	-5881
ollywo	-5882
omsmen	-5883
onsors	-5884
oothly	-5885
opping	-5886
orally	-5887
origin	-5888
ossess	-5889
othing	-5890
oughly	-5891
ounded	-5892
ousand	-5893
ousers	-5894
produc	-5895
rachta	-5896
radesh	-5897
rators	-5898
repren	-5899
ebu	-5900
cked	-5901
dhan	-5902
dled	-5903
ords	-5904
pped	-5905
rict	-5906
▁940	-5907
▁App	-5908
▁Fem	-5909
▁dai	-5910
igned	-5911
ooded	-5912
▁camp	-5913
▁obsc	-5914
▁sine	-5915
▁zebu	-5916
idered	-5917
ricity	-5918
rident	-5919
rishna	-5920
ritsar	-5921
rochem	-5922
roleum	-5923
rounds	-5924
rumped	-5925
served	-5926
shaped	-5927
slamic	-5928
stment	-5929
teries	-5930
udhary	-5931
uettes	-5932
uistic	-5933
urally	-5934
urchas	-5935
ustice	-5936
vallis	-5937
weapon	-5938
▁("...	-5939
▁(1967	-5940
▁12.2%	-5941
▁1206.	-5942
▁14.2%	-5943
▁15(2)	-5944
▁16(2)	-5945
▁1858,	-5946
▁1885.	-5947
▁1891,	-5948
▁1920,	-5949
▁1935.	-5950
▁1957,	-5951
▁1962;	-5952
▁1972,	-5953
▁1977;	-5954
▁1985;	-5955
▁1989,	-5956
▁1991.	-5957
▁1995.	-5958
▁1998.	-5959
▁2,094	-5960
▁2006,	-5961
▁2013.	-5962
▁2017.	-5963
▁2021,	-5964
▁2024,	-5965
▁2024.	-5966
▁31.2%	-5967
▁5,423	-5968
▁55.6%	-5969
▁55.8%	-5970
▁About	-5971
▁Ahmed	-5972
▁Aryab	-5973
▁Azadi	-5974
▁Balas	-5975
▁Bhask	-5976
▁Chief	-5977
▁Chota	-5978
▁Chrom	-5979
▁Coast	-5980
▁Credi	-5981
▁Crown	-5982
▁Deter	-5983
▁Dogri	-5984
▁Donyi	-5985
▁Ficus	-5986
▁Fully	-5987
▁Garba	-5988
▁Godav	-5989
▁Gowda	-5990
▁Group	-5991
▁Hyder	-5992
▁Ident	-5993
▁Indoi	-5994
▁Indos	-5995
▁Jains	-5996
▁Japan	-5997
▁Karla	-5998
▁Kingd	-5999
sid	-6000
tym	-6001
ukh	-6002
0,19	-6003
009.	-6004
epul	-6005
ests	-6006
imha	-6007
less	-6008
▁9%.	-6009
▁Lal	-6010
▁act	-6011
▁ety	-6012
▁hel	-6013
▁imm	-6014
▁loc	-6015
▁lon	-6016
204.4	-6017
8–29,	-6018
disha	-6019
erior	-6020
itime	-6021
rence	-6022
river	-6023
sided	-6024
venth	-6025
▁0.7%	-6026
▁1994	-6027
▁2026	-6028
▁Etym	-6029
▁Long	-6030
▁Lord	-6031
▁bust	-6032
▁care	-6033
▁disb	-6034
▁foss	-6035
arless	-6036
ingual	-6037
▁1857.	-6038
▁1962,	-6039
▁79.8%	-6040
▁Devan	-6041
▁Kutch	-6042
▁Lanka	-6043
▁Latin	-6044
▁Liber	-6045
▁Local	-6046
▁Marri	-6047
▁Mehrg	-6048
▁Moder	-6049
▁Nains	-6050
▁Naras	-6051
▁Naren	-6052
▁Natak	-6053
▁Newly	-6054
▁Nihâl	-6055
▁Panch	-6056
▁Pandy	-6057
▁Puduc	-6058
▁Revol	-6059
▁Ridge	-6060
▁Sanam	-6061
▁Sonia	-6062
▁Thous	-6063
▁Tiger	-6064
▁Trade	-6065
▁Under	-6066
▁Until	-6067
▁Vindh	-6068
▁achie	-6069
▁acute	-6070
▁adequ	-6071
▁ahead	-6072
▁arose	-6073
▁balan	-6074
▁beset	-6075
▁camps	-6076
▁canon	-6077
▁caret	-6078
▁caval	-6079
▁chain	-6080
▁chose	-6081
▁clean	-6082
▁coins	-6083
▁conif	-6084
▁coral	-6085
▁cumin	-6086
▁dates	-6087
▁decis	-6088
▁delta	-6089
▁devad	-6090
▁dhoti	-6091
▁dolph	-6092
▁dress	-6093
▁drift	-6094
▁earth	-6095
▁eaten	-6096
▁ethos	-6097
▁falls	-6098
▁field	-6099
pro	-6100
▁),	-6101
▁Ön	-6102
awed	-6103
oice	-6104
riti	-6105
▁27%	-6106
▁36%	-6107
▁46%	-6108
▁Pro	-6109
▁raw	-6110
arati	-6111
aripp	-6112
ribes	-6113
शासित	-6114
▁31.1	-6115
▁Aver	-6116
▁Bodo	-6117
▁Over	-6118
▁When	-6119
▁emit	-6120
▁lack	-6121
ceeded	-6122
incely	-6123
istics	-6124
ulsing	-6125
ythmic	-6126
▁1964,	-6127
▁2010,	-6128
▁Anand	-6129
▁Since	-6130
▁dynam	-6131
▁emits	-6132
▁final	-6133
▁firep	-6134
▁fires	-6135
▁force	-6136
▁giant	-6137
▁gilli	-6138
▁girls	-6139
▁gives	-6140
▁grass	-6141
▁grown	-6142
▁harsh	-6143
▁heads	-6144
▁heart	-6145
▁homes	-6146
▁humid	-6147
▁ideas	-6148
▁illeg	-6149
▁incre	-6150
▁infra	-6151
▁irreg	-6152
▁jatis	-6153
▁jeans	-6154
▁katab	-6155
▁knees	-6156
▁kriti	-6157
▁limit	-6158
▁luxur	-6159
▁might	-6160
▁moved	-6161
▁mudfl	-6162
▁oblig	-6163
▁ocean	-6164
▁offer	-6165
▁offic	-6166
▁order	-6167
▁panch	-6168
▁paper	-6169
▁perce	-6170
▁piece	-6171
▁pilaf	-6172
▁piled	-6173
▁plays	-6174
▁portf	-6175
▁ports	-6176
▁preex	-6177
▁prior	-6178
▁ranks	-6179
▁recom	-6180
▁regul	-6181
▁rehab	-6182
▁resol	-6183
▁risen	-6184
▁risks	-6185
▁round	-6186
▁ruler	-6187
▁saved	-6188
▁schol	-6189
▁semin	-6190
▁sharp	-6191
▁shirt	-6192
▁shook	-6193
▁sitar	-6194
▁sixth	-6195
▁sizes	-6196
▁soldi	-6197
▁speed	-6198
▁split	-6199
sel	-6200
away	-6201
dica	-6202
eace	-6203
mons	-6204
shat	-6205
▁31,	-6206
▁82.	-6207
▁Bef	-6208
▁daw	-6209
▁ham	-6210
alite	-6211
among	-6212
anied	-6213
arded	-6214
atite	-6215
ciary	-6216
culus	-6217
edals	-6218
itely	-6219
ology	-6220
vious	-6221
▁1946	-6222
▁1949	-6223
▁21.2	-6224
▁82.1	-6225
▁Most	-6226
▁fell	-6227
▁grid	-6228
▁oven	-6229
▁rice	-6230
▁rite	-6231
▁vice	-6232
arting	-6233
associ	-6234
ociety	-6235
rently	-6236
ritory	-6237
vidual	-6238
▁1.6%;	-6239
▁1967,	-6240
▁2007,	-6241
▁2017,	-6242
▁Domin	-6243
▁Faith	-6244
▁Kshat	-6245
▁Peace	-6246
▁Varāh	-6247
▁cited	-6248
▁daily	-6249
▁elite	-6250
▁legal	-6251
▁medit	-6252
▁spite	-6253
▁sport	-6254
▁stage	-6255
▁still	-6256
▁stone	-6257
▁struc	-6258
▁subdu	-6259
▁tiger	-6260
▁toler	-6261
▁treat	-6262
▁trees	-6263
▁trial	-6264
▁tunic	-6265
▁twice	-6266
▁ubiqu	-6267
▁uncon	-6268
▁unpre	-6269
▁upsur	-6270
▁value	-6271
▁whims	-6272
▁white	-6273
▁yogur	-6274
▁zones	-6275
▁zooge	-6276
▁Śulba	-6277
$2,601,	-6278
8–2009.	-6279
Aligned	-6280
Islamic	-6281
Minimum	-6282
achings	-6283
ageable	-6284
agement	-6285
agorean	-6286
amihira	-6287
anipuri	-6288
anjavur	-6289
anmohan	-6290
ardamom	-6291
arnatak	-6292
atantra	-6293
aturing	-6294
avarsha	-6295
avoured	-6296
axalite	-6297
because	-6298
ceeding	-6299
25	-6300
8°	-6301
गर	-6302
30.	-6303
ift	-6304
▁6°	-6305
▁ta	-6306
ancy	-6307
otta	-6308
roph	-6309
ught	-6310
्यता	-6311
▁15.	-6312
▁600	-6313
▁68°	-6314
ishya	-6315
▁1525	-6316
▁Chen	-6317
▁Inst	-6318
▁Tech	-6319
▁Wild	-6320
▁norm	-6321
▁real	-6322
cedent	-6323
income	-6324
▁15.1%	-6325
▁2030.	-6326
▁Maith	-6327
▁Three	-6328
▁Troph	-6329
▁basis	-6330
▁gross	-6331
▁newly	-6332
▁quite	-6333
▁ratio	-6334
▁swift	-6335
ayments	-6336
cessful	-6337
content	-6338
defined	-6339
ectancy	-6340
elected	-6341
erience	-6342
fastest	-6343
forming	-6344
gencies	-6345
hensive	-6346
ideline	-6347
ignated	-6348
ishment	-6349
istance	-6350
ivalent	-6351
jecting	-6352
joining	-6353
laciers	-6354
lasting	-6355
licated	-6356
lighten	-6357
lympics	-6358
million	-6359
nasties	-6360
ncretic	-6361
ndering	-6362
nerable	-6363
odiment	-6364
omotive	-6365
onsible	-6366
orytell	-6367
overnor	-6368
picuous	-6369
present	-6370
racotta	-6371
related	-6372
renched	-6373
roughts	-6374
ruction	-6375
ruments	-6376
settled	-6377
tionary	-6378
ukkuttu	-6379
urgence	-6380
vailing	-6381
–2001).	-6382
▁(1,300	-6383
▁(3,400	-6384
▁(4,700	-6385
▁10,500	-6386
▁17.64%	-6387
▁18.1%.	-6388
▁40,000	-6389
▁50,000	-6390
▁50–60%	-6391
▁65.46%	-6392
▁80,000	-6393
▁82.14%	-6394
▁93.91%	-6395
▁Across	-6396
▁Afghan	-6397
▁Almost	-6398
▁Araval	-6399
4%.	-6400
54%	-6401
▁9.	-6402
exts	-6403
odia	-6404
vati	-6405
▁800	-6406
▁9.3	-6407
▁900	-6408
▁Art	-6409
▁Can	-6410
▁Tai	-6411
aches	-6412
bians	-6413
efied	-6414
upati	-6415
▁1901	-6416
▁1981	-6417
▁74%.	-6418
▁Cuis	-6419
▁Rice	-6420
▁film	-6421
▁gram	-6422
▁tied	-6423
–2014,	-6424
▁1980.	-6425
▁1985.	-6426
▁2011.	-6427
▁9.39%	-6428
▁Music	-6429
▁cases	-6430
▁choli	-6431
▁encro	-6432
▁faces	-6433
▁grain	-6434
▁gramm	-6435
▁ident	-6436
▁scene	-6437
▁socio	-6438
▁stood	-6439
▁while	-6440
▁21.54%	-6441
▁Ardhan	-6442
▁Aryabh	-6443
▁Atomic	-6444
▁August	-6445
▁Aṣṭādh	-6446
▁Bakhsh	-6447
▁Before	-6448
▁Bhutan	-6449
▁Brunei	-6450
▁Canada	-6451
▁Charan	-6452
▁Cheras	-6453
▁Chords	-6454
▁Compre	-6455
▁Concur	-6456
▁Declar	-6457
▁Disaff	-6458
▁Eighth	-6459
▁Ellora	-6460
▁Female	-6461
▁France	-6462
▁Guptas	-6463
▁Harapp	-6464
▁Hellen	-6465
▁Iranis	-6466
▁Latika	-6467
▁Maoist	-6468
▁Mathem	-6469
▁Minist	-6470
▁Mitoch	-6471
▁Mongol	-6472
▁Nagpur	-6473
▁Odisha	-6474
▁Onions	-6475
▁Oxford	-6476
▁Persia	-6477
▁Pāṇini	-6478
▁Rukmin	-6479
▁Russia	-6480
▁Sangam	-6481
▁Septem	-6482
▁Shudra	-6483
▁Sikkim	-6484
▁Sindhi	-6485
▁Sindhu	-6486
▁Sports	-6487
▁Sundar	-6488
▁Suppli	-6489
▁Sūtras	-6490
▁Telugu	-6491
▁Vaigai	-6492
▁Viswan	-6493
▁Yamuna	-6494
▁accomm	-6495
▁altern	-6496
▁anatom	-6497
▁appare	-6498
▁archip	-6499
3,2	-6500
ियन	-6501
$3,2	-6502
wide	-6503
▁0.7	-6504
▁1%.	-6505
▁13.	-6506
▁2.5	-6507
arnas	-6508
ended	-6509
gency	-6510
▁41%,	-6511
▁42%.	-6512
▁Cold	-6513
▁Post	-6514
▁aven	-6515
▁bark	-6516
▁cold	-6517
▁liqu	-6518
▁lost	-6519
▁meal	-6520
▁post	-6521
$3,264	-6522
arians	-6523
asants	-6524
strung	-6525
tailed	-6526
▁(1991	-6527
▁13.7%	-6528
▁2001.	-6529
▁Oriya	-6530
▁Sanch	-6531
▁leads	-6532
▁stamp	-6533
▁usage	-6534
▁using	-6535
achment	-6536
ropical	-6537
▁Agency	-6538
▁Census	-6539
▁Indust	-6540
▁Sanchi	-6541
▁accomp	-6542
▁arenas	-6543
▁arithm	-6544
▁aspect	-6545
▁atolls	-6546
▁avenge	-6547
▁backsl	-6548
▁baking	-6549
▁banned	-6550
▁beyond	-6551
▁bitter	-6552
▁blouse	-6553
▁bodies	-6554
▁border	-6555
▁bronze	-6556
▁canals	-6557
▁capped	-6558
▁carbon	-6559
▁causes	-6560
▁change	-6561
▁charts	-6562
▁choice	-6563
▁cigare	-6564
▁cinema	-6565
▁cliffs	-6566
▁collab	-6567
▁commun	-6568
▁consci	-6569
▁cosmop	-6570
▁cotton	-6571
▁course	-6572
▁crafts	-6573
▁crisis	-6574
▁cuffed	-6575
▁custom	-6576
▁debate	-6577
▁decent	-6578
▁defeat	-6579
▁defore	-6580
▁demarc	-6581
▁detail	-6582
▁ecolog	-6583
▁eighty	-6584
▁elders	-6585
▁emerge	-6586
▁engine	-6587
▁except	-6588
▁exclus	-6589
▁excurs	-6590
▁faster	-6591
▁favour	-6592
▁female	-6593
▁feudal	-6594
▁filled	-6595
▁finely	-6596
▁flawed	-6597
▁floods	-6598
▁forced	-6599
-20	-6600
BJP	-6601
oman	-6602
▁17)	-6603
▁172	-6604
▁26,	-6605
▁49.	-6606
▁Ele	-6607
▁run	-6608
borne	-6609
force	-6610
▁1500	-6611
▁1820	-6612
▁49.7	-6613
▁Both	-6614
▁Pyth	-6615
▁abol	-6616
▁army	-6617
▁bias	-6618
▁cake	-6619
▁data	-6620
▁devd	-6621
▁draw	-6622
▁size	-6623
▁teak	-6624
▁tons	-6625
▁zone	-6626
disput	-6627
ecific	-6628
itated	-6629
undred	-6630
▁1949.	-6631
▁1956,	-6632
▁1966,	-6633
▁1984.	-6634
▁1996,	-6635
▁2023,	-6636
▁3,000	-6637
▁Eleph	-6638
▁Noted	-6639
▁Roman	-6640
▁birch	-6641
▁capab	-6642
▁goals	-6643
▁inval	-6644
▁lived	-6645
▁paved	-6646
▁tabla	-6647
ography	-6648
serving	-6649
versely	-6650
▁Bhakti	-6651
▁Maldiv	-6652
▁Nepali	-6653
▁Report	-6654
▁canopy	-6655
▁create	-6656
▁crises	-6657
▁draped	-6658
▁forces	-6659
▁formul	-6660
▁fought	-6661
▁future	-6662
▁genres	-6663
▁gentry	-6664
▁ginger	-6665
▁grazed	-6666
▁guidel	-6667
▁helped	-6668
▁herbal	-6669
▁higher	-6670
▁hockey	-6671
▁honour	-6672
▁hooded	-6673
▁hourly	-6674
▁humped	-6675
▁import	-6676
▁inclus	-6677
▁indica	-6678
▁inform	-6679
▁inscri	-6680
▁island	-6681
▁itself	-6682
▁killed	-6683
▁kingly	-6684
▁labour	-6685
▁landed	-6686
▁lately	-6687
▁legacy	-6688
▁little	-6689
▁losing	-6690
▁mainst	-6691
▁mantle	-6692
▁marble	-6693
▁medals	-6694
▁median	-6695
▁monkey	-6696
▁moving	-6697
▁multil	-6698
▁musics	-6699
81%	-6700
GDP	-6701
NDA	-6702
amma	-6703
fety	-6704
mark	-6705
▁1.3	-6706
▁11%	-6707
▁26.	-6708
▁Emb	-6709
▁Utt	-6710
▁amb	-6711
▁lie	-6712
7.81%	-6713
agari	-6714
ahism	-6715
althy	-6716
anadi	-6717
▁0.4%	-6718
▁Each	-6719
▁dosa	-6720
▁each	-6721
▁miss	-6722
▁weak	-6723
asters	-6724
iquely	-6725
lating	-6726
teenth	-6727
undale	-6728
▁1858.	-6729
▁1935,	-6730
▁1988.	-6731
▁2018.	-6732
▁2026.	-6733
▁26.3%	-6734
▁Uttar	-6735
▁borne	-6736
▁carry	-6737
▁clans	-6738
▁deems	-6739
▁drawn	-6740
▁irrig	-6741
▁parks	-6742
▁pride	-6743
escence	-6744
legraph	-6745
▁27.81%	-6746
▁31.16%	-6747
▁Embrac	-6748
▁Santal	-6749
▁burden	-6750
▁dhamma	-6751
▁lowest	-6752
▁nappes	-6753
▁native	-6754
▁nearly	-6755
▁occupy	-6756
▁output	-6757
▁parity	-6758
▁passes	-6759
▁patril	-6760
▁peepul	-6761
▁pillar	-6762
▁plural	-6763
▁poetry	-6764
▁powers	-6765
▁preyed	-6766
▁promot	-6767
▁proper	-6768
▁pulmon	-6769
▁raksha	-6770
▁rarely	-6771
▁realms	-6772
▁replac	-6773
▁report	-6774
▁resent	-6775
▁return	-6776
▁riches	-6777
▁ritual	-6778
▁rocked	-6779
▁rupees	-6780
▁sacrif	-6781
▁safety	-6782
▁sanctu	-6783
▁secure	-6784
▁segreg	-6785
▁severe	-6786
▁sheets	-6787
▁sojour	-6788
▁specif	-6789
▁spiced	-6790
▁stable	-6791
▁stands	-6792
▁strain	-6793
▁stress	-6794
▁strike	-6795
▁stupas	-6796
▁subdue	-6797
▁subord	-6798
▁symbol	-6799
')	-6800
$42	-6801
▁2%.	-6802
▁43%	-6803
▁44′	-6804
▁7%,	-6805
aysia	-6806
▁1300	-6807
▁2.9%	-6808
▁Virt	-6809
▁host	-6810
$24.44	-6811
divide	-6812
erness	-6813
worker	-6814
▁Desai	-6815
▁Rajya	-6816
▁block	-6817
▁lines	-6818
▁rocky	-6819
▁sales	-6820
▁seams	-6821
▁stret	-6822
▁triad	-6823
▁yards	-6824
derived	-6825
reamble	-6826
▁Forest	-6827
▁School	-6828
▁disrup	-6829
▁encomp	-6830
▁everyw	-6831
▁forays	-6832
▁places	-6833
▁remitt	-6834
▁rising	-6835
▁spices	-6836
▁taxpay	-6837
▁temple	-6838
▁theory	-6839
▁traded	-6840
▁tribut	-6841
▁trough	-6842
▁tucked	-6843
▁unanim	-6844
▁underg	-6845
▁unders	-6846
▁uneasy	-6847
▁unleav	-6848
▁unrest	-6849
▁varied	-6850
▁varnas	-6851
▁verbal	-6852
▁viewed	-6853
▁walled	-6854
▁wanted	-6855
▁warmer	-6856
▁waters	-6857
▁wearer	-6858
▁winter	-6859
▁yogurt	-6860
▁आधुनिक	-6861
▁₹204.4	-6862
Pakistan	-6863
agonists	-6864
allenges	-6865
although	-6866
anticide	-6867
arnataka	-6868
cedented	-6869
clofenac	-6870
colonial	-6871
disputed	-6872
eastward	-6873
ectively	-6874
emporary	-6875
enditure	-6876
eratures	-6877
ervative	-6878
existing	-6879
ickening	-6880
ikankari	-6881
inations	-6882
inspired	-6883
maravati	-6884
national	-6885
official	-6886
ointment	-6887
ollywood	-6888
ortional	-6889
ossessed	-6890
otection	-6891
pastoral	-6892
redients	-6893
rictions	-6894
roidered	-6895
roughout	-6896
speaking	-6897
specific	-6898
ulgation	-6899
olio	-6900
tier	-6901
▁25′	-6902
odden	-6903
olden	-6904
trine	-6905
▁Adiv	-6906
▁Atal	-6907
▁anti	-6908
▁icon	-6909
▁raga	-6910
▁turn	-6911
▁स्तर	-6912
divine	-6913
ecogni	-6914
hedule	-6915
▁1921,	-6916
▁Assam	-6917
▁Mahat	-6918
▁Multi	-6919
▁cheap	-6920
▁visit	-6921
▁where	-6922
ipation	-6923
minster	-6924
ondrial	-6925
▁Energy	-6926
▁Golden	-6927
▁Greeks	-6928
▁Gujral	-6929
▁attain	-6930
▁dining	-6931
▁famine	-6932
▁headed	-6933
▁iconic	-6934
▁serves	-6935
▁turmer	-6936
ervation	-6937
utrition	-6938
ypically	-6939
ābhārata	-6940
▁(1967),	-6941
▁(1992),	-6942
▁16(2)).	-6943
▁343–351	-6944
▁700–400	-6945
▁74.04%:	-6946
▁Academi	-6947
▁Adivasi	-6948
▁Asiatic	-6949
▁Babylon	-6950
▁Bahadur	-6951
▁Beddome	-6952
▁Bengali	-6953
▁Bharati	-6954
▁Bounded	-6955
▁Capital	-6956
▁Centred	-6957
▁Chandra	-6958
▁Chennai	-6959
▁Chinese	-6960
▁Chronic	-6961
▁Coastal	-6962
▁Cuisine	-6963
▁Culture	-6964
▁Economy	-6965
▁Empires	-6966
▁Foreign	-6967
▁Further	-6968
▁Ganweri	-6969
▁General	-6970
▁Harappa	-6971
▁History	-6972
▁Increas	-6973
▁Instead	-6974
▁Ireland	-6975
▁Judaism	-6976
▁Kalinga	-6977
▁Kannada	-6978
▁Kingdom	-6979
▁Kolkata	-6980
▁Konkani	-6981
▁Krishna	-6982
▁Madhava	-6983
▁Mahatma	-6984
▁Malayal	-6985
▁Marathi	-6986
▁Mauryan	-6987
▁Medical	-6988
▁Morarji	-6989
▁Mughals	-6990
▁Narmada	-6991
▁Nations	-6992
▁Outside	-6993
▁Pachisi	-6994
▁Painted	-6995
▁Pallava	-6996
▁Pandyas	-6997
▁Parvati	-6998
▁Philipp	-6999
UPA	-7000
WHO	-7001
exp	-7002
iii	-7003
$1,3	-7004
pura	-7005
soli	-7006
wala	-7007
▁14%	-7008
▁5%,	-7009
Green	-7010
amsar	-7011
avily	-7012
olute	-7013
ursue	-7014
uteed	-7015
▁2500	-7016
▁Crit	-7017
▁Proc	-7018
▁Rann	-7019
▁epic	-7020
▁iron	-7021
▁leaf	-7022
▁paid	-7023
▁tala	-7024
▁thin	-7025
$1,380	-7026
abaddi	-7027
itudes	-7028
–2010,	-7029
▁1962.	-7030
▁Dalit	-7031
▁Sarna	-7032
▁array	-7033
▁bride	-7034
▁chick	-7035
▁death	-7036
▁deter	-7037
▁drive	-7038
▁films	-7039
▁herds	-7040
▁meets	-7041
▁meter	-7042
▁minor	-7043
▁taken	-7044
▁takes	-7045
▁teams	-7046
isional	-7047
pending	-7048
treated	-7049
▁Ramsar	-7050
▁allows	-7051
▁castes	-7052
▁likely	-7053
▁orders	-7054
▁pursue	-7055
▁silver	-7056
▁taking	-7057
▁Justice	-7058
▁Pradesh	-7059
▁Primary	-7060
▁Project	-7061
▁Raslila	-7062
▁Rukmini	-7063
▁Sangeet	-7064
▁Santali	-7065
▁Sarnath	-7066
▁Satpura	-7067
▁Shankar	-7068
▁Shekhar	-7069
▁Society	-7070
▁Statist	-7071
▁Tethyan	-7072
▁Tibetan	-7073
▁Towards	-7074
▁Vaishya	-7075
▁Vietnam	-7076
▁Vindhya	-7077
▁Whether	-7078
▁abjured	-7079
▁absence	-7080
▁adhered	-7081
▁algebra	-7082
▁almonds	-7083
▁apparel	-7084
▁arrived	-7085
▁articul	-7086
▁balance	-7087
▁beaches	-7088
▁biryani	-7089
▁blowing	-7090
▁blurred	-7091
▁broadly	-7092
▁buffalo	-7093
▁bustard	-7094
▁capital	-7095
▁carried	-7096
▁carrion	-7097
▁causing	-7098
▁cavalry	-7099
exe	-7100
.6%,	-7101
▁140	-7102
atics	-7103
▁1.24	-7104
▁41.1	-7105
▁6.0%	-7106
▁70%,	-7107
▁hydr	-7108
▁prec	-7109
▁silt	-7110
▁slid	-7111
▁sung	-7112
▁wage	-7113
alised	-7114
owners	-7115
tivity	-7116
–2013,	-7117
▁1947.	-7118
▁2020.	-7119
▁Polit	-7120
▁Tapti	-7121
▁calls	-7122
▁epics	-7123
▁insur	-7124
▁prana	-7125
▁units	-7126
▁12.6%,	-7127
▁annexe	-7128
▁person	-7129
▁plants	-7130
▁relied	-7131
▁slowly	-7132
▁taught	-7133
aturaṅga	-7134
▁Brahmin	-7135
▁Council	-7136
▁bandhan	-7137
▁beliefs	-7138
▁changed	-7139
▁checked	-7140
▁chicken	-7141
▁chronic	-7142
▁climate	-7143
▁clothes	-7144
▁conduct	-7145
▁consist	-7146
▁cordial	-7147
▁council	-7148
▁counted	-7149
▁cricket	-7150
▁crocodi	-7151
▁crowded	-7152
▁crustal	-7153
▁cuisine	-7154
▁current	-7155
▁customs	-7156
▁dancing	-7157
▁decimal	-7158
▁decline	-7159
▁decolon	-7160
▁defence	-7161
▁defined	-7162
▁density	-7163
▁derived	-7164
▁derives	-7165
▁devdasi	-7166
▁dioxide	-7167
▁display	-7168
▁disprop	-7169
▁divided	-7170
▁dolphin	-7171
▁doubled	-7172
▁drafted	-7173
▁driving	-7174
▁dropped	-7175
▁durable	-7176
▁dynamic	-7177
▁earlier	-7178
▁effects	-7179
▁enabled	-7180
▁entered	-7181
▁environ	-7182
▁equates	-7183
▁equator	-7184
▁etymons	-7185
▁exogamy	-7186
▁factors	-7187
▁famines	-7188
▁faraway	-7189
▁farther	-7190
▁fashion	-7191
▁fastest	-7192
▁festive	-7193
▁flanked	-7194
▁fleeing	-7195
▁flowing	-7196
▁focused	-7197
▁follows	-7198
▁forbade	-7199
.")	-7200
PPP	-7201
ttes	-7202
amtre	-7203
based	-7204
flung	-7205
onomy	-7206
ulses	-7207
wanis	-7208
▁Rakh	-7209
▁panc	-7210
▁root	-7211
ayattu	-7212
covery	-7213
rupled	-7214
▁45.8%	-7215
▁Based	-7216
▁Chola	-7217
▁Nepal	-7218
▁faith	-7219
▁fixed	-7220
▁groom	-7221
▁hosts	-7222
▁joint	-7223
▁label	-7224
▁lying	-7225
▁marma	-7226
▁mixed	-7227
▁naval	-7228
▁sandy	-7229
Article	-7230
Bhangra	-7231
▁Baloch	-7232
▁Cholas	-7233
▁Visual	-7234
▁barley	-7235
▁demand	-7236
▁fables	-7237
▁pulses	-7238
▁sealed	-7239
▁shares	-7240
▁simple	-7241
▁sought	-7242
▁spoken	-7243
▁spring	-7244
▁tribes	-7245
▁tunics	-7246
Articles	-7247
covering	-7248
onounced	-7249
▁(2004).	-7250
▁63.82%.	-7251
▁Akademi	-7252
▁Bhangra	-7253
▁Network	-7254
▁Niamtre	-7255
▁Reorgan	-7256
▁anatomy	-7257
▁chapati	-7258
▁fossils	-7259
▁founded	-7260
▁founder	-7261
▁freedom	-7262
▁genders	-7263
▁generic	-7264
▁genetic	-7265
▁gharial	-7266
▁gradual	-7267
▁granted	-7268
▁greatly	-7269
▁heavily	-7270
▁holding	-7271
▁hundred	-7272
▁illegal	-7273
▁immense	-7274
▁indefin	-7275
▁inflows	-7276
▁instead	-7277
▁kabaddi	-7278
▁keeping	-7279
▁killing	-7280
▁layered	-7281
▁learned	-7282
▁lentils	-7283
▁lexicon	-7284
▁liberty	-7285
▁longest	-7286
▁loosely	-7287
▁lowered	-7288
▁loyalty	-7289
▁mandate	-7290
▁marital	-7291
▁marries	-7292
▁martial	-7293
▁melodic	-7294
▁members	-7295
▁midriff	-7296
▁mingled	-7297
▁missing	-7298
▁mixture	-7299
▁River	-7300
▁bears	-7301
▁stiff	-7302
notably	-7303
▁Bihari	-7304
▁ratios	-7305
▁scenes	-7306
araswati	-7307
▁268–232	-7308
▁Despite	-7309
▁Settled	-7310
▁astring	-7311
▁bronzes	-7312
▁cabinet	-7313
▁concept	-7314
▁despite	-7315
▁evolved	-7316
▁monsoon	-7317
▁montane	-7318
▁morally	-7319
▁musical	-7320
▁mystics	-7321
▁nascent	-7322
▁natural	-7323
▁neither	-7324
▁network	-7325
▁nomadic	-7326
▁notably	-7327
▁oceanic	-7328
▁onwards	-7329
▁opposed	-7330
▁origins	-7331
▁orogeny	-7332
▁outside	-7333
▁overall	-7334
▁pancake	-7335
▁pastime	-7336
▁peoples	-7337
▁perhaps	-7338
▁pivotal	-7339
▁plainly	-7340
▁plateau	-7341
▁pleated	-7342
▁polling	-7343
▁pottery	-7344
▁poultry	-7345
▁precise	-7346
▁priests	-7347
▁private	-7348
▁profess	-7349
▁promote	-7350
▁provide	-7351
▁purchas	-7352
▁pyjamas	-7353
▁quality	-7354
▁quarter	-7355
▁raiders	-7356
▁raiding	-7357
▁railway	-7358
▁raising	-7359
▁receive	-7360
▁refined	-7361
▁related	-7362
▁reliefs	-7363
▁renewal	-7364
▁renewed	-7365
▁reorgan	-7366
▁reports	-7367
▁reptile	-7368
▁reserve	-7369
▁retreat	-7370
▁reveals	-7371
▁rigidly	-7372
▁roughly	-7373
▁royalty	-7374
▁sapiens	-7375
▁sauteed	-7376
▁science	-7377
▁scripts	-7378
▁seeking	-7379
▁serving	-7380
▁seventh	-7381
▁shalwar	-7382
▁sheared	-7383
▁shorter	-7384
▁showing	-7385
▁signing	-7386
▁singers	-7387
▁slowing	-7388
▁smaller	-7389
▁smoking	-7390
▁sources	-7391
▁statues	-7392
▁steeper	-7393
▁stiffer	-7394
▁stopped	-7395
▁subduct	-7396
▁subject	-7397
▁summary	-7398
▁survive	-7399
▁swathes	-7400
▁talkies	-7401
▁tangent	-7402
▁testing	-7403
▁textile	-7404
▁theorem	-7405
▁thereby	-7406
▁threats	-7407
▁tightly	-7408
▁towards	-7409
▁traders	-7410
▁typical	-7411
▁uniform	-7412
▁univers	-7413
▁upsurge	-7414
▁ushered	-7415
▁variety	-7416
▁varying	-7417
▁vehicle	-7418
▁victory	-7419
▁visible	-7420
▁visited	-7421
▁vulture	-7422
▁waivers	-7423
▁wealthy	-7424
▁weights	-7425
▁winning	-7426
▁working	-7427
▁worship	-7428
▁wrapped	-7429
▁writing	-7430
▁younger	-7431
▁₹235.24	-7432
0,193,422	-7433
8,627,663	-7434
Aphorisms	-7435
arishvara	-7436
associate	-7437
discrimin	-7438
ditioning	-7439
ecognized	-7440
ectionist	-7441
expressed	-7442
generally	-7443
izontally	-7444
literally	-7445
mittently	-7446
nological	-7447
onsorship	-7448
outcastes	-7449
president	-7450
producing	-7451
regulated	-7452
scheduled	-7453
selective	-7454
sequently	-7455
structure	-7456
ularities	-7457
untouchab	-7458
veillance	-7459
▁1928–29,	-7460
▁Administ	-7461
▁Amritsar	-7462
▁Aravalli	-7463
▁Arundale	-7464
▁Assamese	-7465
▁Bhaskara	-7466
▁Calcutta	-7467
▁Cambodia	-7468
▁Champion	-7469
▁Clothing	-7470
▁Credible	-7471
▁Domestic	-7472
▁Dominion	-7473
▁Economic	-7474
▁Eurasian	-7475
▁Evidence	-7476
▁Examples	-7477
▁Godavari	-7478
▁Governor	-7479
▁Gujarati	-7480
▁Kalaripp	-7481
▁Kalighat	-7482
▁Kashmiri	-7483
▁Mahanadi	-7484
▁Mahavira	-7485
▁Maithili	-7486
▁Malaysia	-7487
▁Maldives	-7488
▁Manipuri	-7489
▁Manmohan	-7490
▁Marathas	-7491
▁Marriage	-7492
▁Measured	-7493
▁Medieval	-7494
▁Mehrgarh	-7495
▁Movement	-7496
▁Nainsukh	-7497
▁Narendra	-7498
▁Nataraja	-7499
▁Navratri	-7500
▁Naxalite	-7501
▁Networks	-7502
▁Olympics	-7503
▁Politics	-7504
▁Preamble	-7505
▁Reserves	-7506
▁Rāmāyaṇa	-7507
▁Sarnaism	-7508
▁Schedule	-7509
▁Shaivite	-7510
▁Shalwars	-7511
▁Tashkent	-7512
▁Trophies	-7513
▁Vaisakhi	-7514
▁Wildlife	-7515
▁absolute	-7516
▁accounts	-7517
▁addition	-7518
▁adequate	-7519
▁adhering	-7520
▁adopting	-7521
▁advances	-7522
▁affected	-7523
▁agglomer	-7524
▁allowing	-7525
▁alluvial	-7526
▁arranged	-7527
▁arteries	-7528
▁articles	-7529
▁autonomy	-7530
▁backdrop	-7531
▁balanced	-7532
▁calculus	-7533
▁calendar	-7534
▁canalled	-7535
▁capacity	-7536
▁cardamom	-7537
▁chapters	-7538
▁cinnamon	-7539
▁codified	-7540
▁coherent	-7541
▁combined	-7542
▁compared	-7543
▁complete	-7544
▁concepts	-7545
▁conquest	-7546
▁consumer	-7547
▁contexts	-7548
▁continue	-7549
▁contours	-7550
▁counterc	-7551
▁crescent	-7552
▁criteria	-7553
▁critical	-7554
▁cropping	-7555
▁cuisines	-7556
▁dawnings	-7557
▁declares	-7558
▁declined	-7559
▁defining	-7560
▁deriving	-7561
▁disputed	-7562
▁distance	-7563
▁district	-7564
▁doctrine	-7565
▁document	-7566
▁droughts	-7567
▁eighteen	-7568
▁elements	-7569
▁emerging	-7570
▁emphasis	-7571
▁enabling	-7572
▁endeavor	-7573
▁endemics	-7574
▁endogamy	-7575
▁entirety	-7576
▁evidence	-7577
▁evolving	-7578
▁expanded	-7579
▁expected	-7580
▁fashions	-7581
▁favoured	-7582
▁festival	-7583
▁flanking	-7584
▁flooding	-7585
▁formerly	-7586
▁founding	-7587
▁fragment	-7588
▁garments	-7589
▁generate	-7590
▁geologic	-7591
▁glaciers	-7592
▁globally	-7593
▁governed	-7594
▁gradient	-7595
▁grandson	-7596
▁griddled	-7597
▁habitats	-7598
▁heredity	-7599
▁heritage	-7600
▁identity	-7601
▁imitated	-7602
▁importer	-7603
▁improved	-7604
▁improvis	-7605
▁increase	-7606
▁ingested	-7607
▁interest	-7608
▁internal	-7609
▁invasive	-7610
▁isolates	-7611
▁landmark	-7612
▁landmass	-7613
▁latitude	-7614
▁lineages	-7615
▁lingered	-7616
▁mainland	-7617
▁marinade	-7618
▁maritime	-7619
▁markedly	-7620
▁marrying	-7621
▁measured	-7622
▁measures	-7623
▁medicine	-7624
▁minority	-7625
▁mobility	-7626
▁moisture	-7627
▁monsoons	-7628
▁moreover	-7629
▁mountain	-7630
▁mudflats	-7631
▁multiple	-7632
▁negative	-7633
▁networks	-7634
▁numerous	-7635
▁observed	-7636
▁occupies	-7637
▁opposing	-7638
▁outposts	-7639
▁overlaps	-7640
▁pacified	-7641
▁parallel	-7642
▁partners	-7643
▁passages	-7644
▁pastoral	-7645
▁payments	-7646
▁peasants	-7647
▁pehlwani	-7648
▁planning	-7649
▁playback	-7650
▁politics	-7651
▁polluted	-7652
▁practice	-7653
▁prepared	-7654
▁previous	-7655
▁princely	-7656
▁promised	-7657
▁proposed	-7658
▁province	-7659
▁rainfall	-7660
▁reaching	-7661
▁received	-7662
▁recourse	-7663
▁referred	-7664
▁regarded	-7665
▁replaced	-7666
▁reported	-7667
▁reptiles	-7668
▁reserved	-7669
▁reserves	-7670
▁rhythmic	-7671
▁scholars	-7672
▁seafloor	-7673
▁servants	-7674
▁setbacks	-7675
▁settings	-7676
▁settling	-7677
▁severity	-7678
▁shalwars	-7679
▁sideline	-7680
▁smoothly	-7681
▁socially	-7682
▁soldiers	-7683
▁speaking	-7684
▁spending	-7685
▁sporting	-7686
▁starting	-7687
▁steadily	-7688
▁steatite	-7689
▁stitched	-7690
▁stressed	-7691
▁strident	-7692
▁subcaste	-7693
▁superior	-7694
▁supplied	-7695
▁supplier	-7696
▁supplies	-7697
▁survived	-7698
▁tandoori	-7699
▁taxation	-7700
▁tectonic	-7701
▁tempered	-7702
▁textiles	-7703
▁thousand	-7704
▁training	-7705
▁trousers	-7706
▁turmeric	-7707
▁uniquely	-7708
▁unlinked	-7709
▁unwanted	-7710
▁vaccines	-7711
▁volcanic	-7712
▁weddings	-7713
▁wetlands	-7714
advantaged	-7715
designated	-7716
millennium	-7717
missioning	-7718
orytelling	-7719
ralisation	-7720
rochemical	-7721
solidified	-7722
▁1970–1975	-7723
▁2500–1900	-7724
▁Ahmedabad	-7725
▁Amaravati	-7726
▁Appointed	-7727
▁Aravallis	-7728
▁Aryabhata	-7729
▁Averaging	-7730
▁Bakhshali	-7731
▁Bengaluru	-7732
▁Bharatiya	-7733
▁Biosphere	-7734
▁Bollywood	-7735
▁Buddhists	-7736
▁Champions	-7737
▁Chaudhary	-7738
▁Dalhousie	-7739
▁Democracy	-7740
▁Dholavira	-7741
▁Discovery	-7742
▁Education	-7743
▁Elections	-7744
▁Elephanta	-7745
▁Embracing	-7746
▁Eschewing	-7747
▁Etymology	-7748
▁Expanding	-7749
▁Geography	-7750
▁Gradually	-7751
▁Hyderabad	-7752
▁Important	-7753
▁Karnataka	-7754
▁Kshatriya	-7755
▁Malayalam	-7756
▁Migration	-7757
▁Ministers	-7758
▁Narasimha	-7759
▁Parcheesi	-7760
▁Pashupati	-7761
▁Ramanujan	-7762
▁Rebellion	-7763
▁September	-7764
▁Srinivasa	-7765
▁Suppliers	-7766
▁Territory	-7767
▁Thanjavur	-7768
▁Thousands	-7769
▁Virtually	-7770
▁abolished	-7771
▁adherents	-7772
▁adjoining	-7773
▁adversely	-7774
▁adversity	-7775
▁agreement	-7776
▁ambitions	-7777
▁amphibian	-7778
▁appellate	-7779
▁appointed	-7780
▁associate	-7781
▁authority	-7782
▁bandhgala	-7783
▁biosphere	-7784
▁bodyguard	-7785
▁breakdown	-7786
▁breakfast	-7787
▁caretaker	-7788
▁chartered	-7789
▁collision	-7790
▁committee	-7791
▁completed	-7792
▁composite	-7793
▁concealed	-7794
▁coriander	-7795
▁curtailed	-7796
▁decennial	-7797
▁decisions	-7798
▁declining	-7799
▁descended	-7800
▁describes	-7801
▁devadasis	-7802
▁direction	-7803
▁directors	-7804
▁disbanded	-7805
▁displaced	-7806
▁displayed	-7807
▁divisions	-7808
▁dominions	-7809
▁dynasties	-7810
▁economics	-7811
▁economies	-7812
▁emergence	-7813
▁emergency	-7814
▁employing	-7815
▁enlighten	-7816
▁enslaving	-7817
▁entrepren	-7818
▁equalling	-7819
▁ethically	-7820
▁ethnicity	-7821
▁exceeding	-7822
▁exchanged	-7823
▁exercised	-7824
▁exercises	-7825
▁exporting	-7826
▁extension	-7827
▁extensive	-7828
▁fastening	-7829
▁featuring	-7830
▁firepower	-7831
▁formulaic	-7832
▁functions	-7833
▁governing	-7834
▁gradients	-7835
▁groomsmen	-7836
▁groupings	-7837
▁hamstrung	-7838
▁histories	-7839
▁inclusive	-7840
▁infection	-7841
▁initially	-7842
▁instances	-7843
▁intervals	-7844
▁intervene	-7845
▁invention	-7846
▁judiciary	-7847
▁katabatic	-7848
▁landslide	-7849
▁latitudes	-7850
▁liberties	-7851
▁liquefied	-7852
▁localised	-7853
▁locations	-7854
▁longitude	-7855
▁luxuriant	-7856
▁maintains	-7857
▁mandating	-7858
▁medicines	-7859
▁mentioned	-7860
▁migrating	-7861
▁militants	-7862
▁miniature	-7863
▁mortality	-7864
▁movements	-7865
▁musicians	-7866
▁neolithic	-7867
▁nominated	-7868
▁northeast	-7869
▁obligated	-7870
▁obscuring	-7871
▁occupying	-7872
▁operation	-7873
▁organised	-7874
▁panchayat	-7875
▁patronage	-7876
▁peninsula	-7877
▁permanent	-7878
▁pervasive	-7879
▁petroleum	-7880
▁petticoat	-7881
▁pleasures	-7882
▁portfolio	-7883
▁portraits	-7884
▁possessed	-7885
▁preferred	-7886
▁processes	-7887
▁projected	-7888
▁prominent	-7889
▁promotion	-7890
▁pulmonary	-7891
▁recording	-7892
▁reference	-7893
▁referring	-7894
▁reflected	-7895
▁registers	-7896
▁rejecting	-7897
▁religiosa	-7898
▁rendering	-7899
▁repulsing	-7900
▁resources	-7901
▁scripture	-7902
▁sculpting	-7903
▁sculptors	-7904
▁separated	-7905
▁sherwanis	-7906
▁sixteenth	-7907
▁socialist	-7908
▁societies	-7909
▁southeast	-7910
▁strategic	-7911
▁structure	-7912
▁succeeded	-7913
▁supplying	-7914
▁surrounds	-7915
▁surviving	-7916
▁sustained	-7917
▁syncretic	-7918
▁taxpayers	-7919
▁teachings	-7920
▁technique	-7921
▁telegraph	-7922
▁temperate	-7923
▁territory	-7924
▁tolerance	-7925
▁treatment	-7926
▁typically	-7927
▁underwent	-7928
▁volcanism	-7929
▁waistline	-7930
▁weakening	-7931
▁worldwide	-7932
actionalism	-7933
description	-7934
downtrodden	-7935
ortionately	-7936
prostitutes	-7937
rigonometry	-7938
stitutional	-7939
traditional	-7940
▁1964–2014,	-7941
▁2008–2009.	-7942
▁2009–2010,	-7943
▁2012–2013,	-7944
▁Achaemenid	-7945
▁Andamanese	-7946
▁Aṣṭādhyāyī	-7947
▁Brahmanism	-7948
▁Chromosome	-7949
▁Convention	-7950
▁Critically	-7951
▁Deterrence	-7952
▁Devanagari	-7953
▁Dictionary	-7954
▁Identified	-7955
▁Increasing	-7956
▁Industries	-7957
▁Liberation	-7958
▁Moderately	-7959
▁Protection	-7960
▁Puducherry	-7961
▁Rakhigarhi	-7962
▁Revolution	-7963
▁Sanamahism	-7964
▁Sundarbans	-7965
▁Terukkuttu	-7966
▁Throughout	-7967
▁Widespread	-7968
▁accounting	-7969
▁administer	-7970
▁afterwards	-7971
▁agreements	-7972
▁amphibians	-7973
▁appearance	-7974
▁arithmetic	-7975
▁astringent	-7976
▁attracting	-7977
▁attractive	-7978
▁atypically	-7979
▁automotive	-7980
▁biological	-7981
▁capability	-7982
▁challenges	-7983
▁chaturaṅga	-7984
▁chikankari	-7985
▁cigarettes	-7986
▁collarless	-7987
▁committees	-7988
▁coniferous	-7989
▁considered	-7990
▁contravene	-7991
▁controlled	-7992
▁courtesans	-7993
▁critically	-7994
▁culturally	-7995
▁decisively	-7996
▁decoration	-7997
▁definition	-7998
▁deforested	-7999
▁deposition	-8000
▁determined	-8001
▁developing	-8002
▁devotional	-8003
▁diclofenac	-8004
▁directions	-8005
▁directives	-8006
▁discontent	-8007
▁disruptive	-8008
▁distinctly	-8009
▁drawstring	-8010
▁electrical	-8011
▁embodiment	-8012
▁employment	-8013
▁enterprise	-8014
▁entrenched	-8015
▁equivalent	-8016
▁estimating	-8017
▁everywhere	-8018
▁excursions	-8019
▁executives	-8020
▁expansions	-8021
▁expectancy	-8022
▁experience	-8023
▁expressing	-8024
▁extinction	-8025
▁flourished	-8026
▁formations	-8027
▁foundation	-8028
▁generation	-8029
▁grasslands	-8030
▁guidelines	-8031
▁implements	-8032
▁individual	-8033
▁infections	-8034
▁initiative	-8035
▁innovative	-8036
▁invalidate	-8037
▁investment	-8038
▁irrigation	-8039
▁landowners	-8040
▁liberalise	-8041
▁likelihood	-8042
▁linguistic	-8043
▁mainstream	-8044
▁maintained	-8045
▁management	-8046
▁meditation	-8047
▁neighbours	-8048
▁obstructed	-8049
▁officially	-8050
▁opposition	-8051
▁originated	-8052
▁patronised	-8053
▁performing	-8054
▁persistent	-8055
▁popularity	-8056
▁prevailing	-8057
▁priorities	-8058
▁production	-8059
▁prominence	-8060
▁pronounced	-8061
▁provincial	-8062
▁purchasing	-8063
▁quadrupled	-8064
▁recognised	-8065
▁recognises	-8066
▁reflecting	-8067
▁regionally	-8068
▁registered	-8069
▁regulation	-8070
▁repressive	-8071
▁resistance	-8072
▁resolution	-8073
▁respective	-8074
▁resurgence	-8075
▁sacrifices	-8076
▁seminaries	-8077
▁separatism	-8078
▁separatist	-8079
▁sojourning	-8080
▁statistics	-8081
▁statuettes	-8082
▁stretching	-8083
▁subduction	-8084
▁successful	-8085
▁suppressed	-8086
▁surpassing	-8087
▁suspending	-8088
▁systematic	-8089
▁techniques	-8090
▁terracotta	-8091
▁thickening	-8092
▁throughout	-8093
▁trigonomet	-8094
▁ubiquitous	-8095
▁underskirt	-8096
▁undisputed	-8097
▁unleavened	-8098
▁variations	-8099
▁vegetables	-8100
▁vegetarian	-8101
▁vulnerable	-8102
▁widespread	-8103
▁wilderness	-8104
generational	-8105
untouchables	-8106
▁Achaemenian	-8107
▁Afghanistan	-8108
▁Azadirachta	-8109
▁Babylonians	-8110
▁Balochistan	-8111
▁Brahmagupta	-8112
▁Chronicling	-8113
▁Constituted	-8114
▁Declaration	-8115
▁Ganweriwala	-8116
▁Hellenistic	-8117
▁Immediately	-8118
▁Mahābhārata	-8119
▁Mathematics	-8120
▁Persianised	-8121
▁Philippines	-8122
▁Proclaiming	-8123
▁Progressive	-8124
▁Pythagorean	-8125
▁Significant	-8126
▁Viswanathan	-8127
▁Westminster	-8128
▁accompanied	-8129
▁achievement	-8130
▁affirmative	-8131
▁alternately	-8132
▁appointment	-8133
▁backsliding	-8134
▁calendrical	-8135
▁centralised	-8136
▁coalescence	-8137
▁communities	-8138
▁complicated	-8139
▁consciously	-8140
▁considering	-8141
▁consolidate	-8142
▁conspicuous	-8143
▁constitutes	-8144
▁continental	-8145
▁contrasting	-8146
▁cooperation	-8147
▁crocodilian	-8148
▁definitions	-8149
▁demarcation	-8150
▁destruction	-8151
▁devastating	-8152
▁devastation	-8153
▁differences	-8154
▁distinctive	-8155
▁effectively	-8156
▁electricity	-8157
▁embroidered	-8158
▁emphasising	-8159
▁engineering	-8160
▁exclusively	-8161
▁expenditure	-8162
▁facilitated	-8163
▁flourishing	-8164
▁foundations	-8165
▁grammatical	-8166
▁ideological	-8167
▁implemented	-8168
▁improvement	-8169
▁incremental	-8170
▁infanticide	-8171
▁information	-8172
▁ingredients	-8173
▁initiatives	-8174
▁innovations	-8175
▁instruments	-8176
▁legislation	-8177
▁legislative	-8178
▁maintaining	-8179
▁manuscripts	-8180
▁merchandise	-8181
▁nationalism	-8182
▁obstructive	-8183
▁occupations	-8184
▁partitioned	-8185
▁patrilineal	-8186
▁perceptions	-8187
▁pluralistic	-8188
▁predominate	-8189
▁preexisting	-8190
▁proclaiming	-8191
▁projections	-8192
▁provisional	-8193
▁recognition	-8194
▁recommended	-8195
▁remittances	-8196
▁reorganised	-8197
▁resentments	-8198
▁responsible	-8199
▁sanctuaries	-8200
▁segregation	-8201
▁sponsorship	-8202
▁subordinate	-8203
▁subtropical	-8204
▁translating	-8205
▁tributaries	-8206
▁unanimously	-8207
▁underground	-8208
▁vegetarians	-8209
▁(1991–2001).	-8210
▁Bharatnatyam	-8211
▁Biodiversity	-8212
▁Concurrently	-8213
▁Conservation	-8214
▁Disaffection	-8215
▁Increasingly	-8216
▁Panchatantra	-8217
▁Temperatures	-8218
▁Trigonometry	-8219
▁Varāhamihira	-8220
▁accommodated	-8221
▁anatomically	-8222
▁archipelagos	-8223
▁articulating	-8224
▁civilisation	-8225
▁complemented	-8226
▁compositions	-8227
▁conditioning	-8228
▁consequently	-8229
▁conservative	-8230
▁considerable	-8231
▁consistently	-8232
▁consolidated	-8233
▁contemporary	-8234
▁contributing	-8235
▁contributors	-8236
▁cosmopolitan	-8237
▁derecognized	-8238
▁destinations	-8239
▁distinctions	-8240
▁ecologically	-8241
▁economically	-8242
▁encompassing	-8243
▁encroachment	-8244
▁geographical	-8245
▁geologically	-8246
▁grandmasters	-8247
▁horizontally	-8248
▁hydrographic	-8249
▁indefinitely	-8250
▁inscriptions	-8251
▁insurgencies	-8252
▁introduction	-8253
▁legislatures	-8254
▁malnutrition	-8255
▁manufactured	-8256
▁marriageable	-8257
▁multilingual	-8258
▁occupational	-8259
▁predominates	-8260
▁productivity	-8261
▁promulgation	-8262
▁proportional	-8263
▁protagonists	-8264
▁respectively	-8265
▁restrictions	-8266
▁specifically	-8267
▁storytelling	-8268
▁surveillance	-8269
▁transmission	-8270
▁universities	-8271
discriminatory	-8272
▁1,210,193,422	-8273
▁1,428,627,663	-8274
▁Balasaraswati	-8275
▁Bharatavarsha	-8276
▁Comprehensive	-8277
▁Domestication	-8278
▁International	-8279
▁Mitochondrial	-8280
▁Statistically	-8281
▁Technological	-8282
▁architectural	-8283
▁characterised	-8284
▁collaboration	-8285
▁commissioning	-8286
▁consolidation	-8287
▁disadvantaged	-8288
▁enlightenment	-8289
▁environmental	-8290
▁establishment	-8291
▁fragmentation	-8292
▁manufacturing	-8293
▁participation	-8294
▁petrochemical	-8295
▁predominantly	-8296
▁professionals	-8297
▁protectionist	-8298
▁rehabilitated	-8299
▁significantly	-8300
▁southwesterly	-8301
▁technological	-8302
▁trigonometric	-8303
▁unprecedented	-8304
▁zoogeographic	-8305
▁Administrative	-8306
▁Kalarippayattu	-8307
▁Reorganisation	-8308
▁Untouchability	-8309
▁administrative	-8310
▁administrators	-8311
▁agglomerations	-8312
▁consolidations	-8313
▁counterculture	-8314
▁decolonisation	-8315
▁discrimination	-8316
▁discriminatory	-8317
▁geographically	-8318
▁infrastructure	-8319
▁intermittently	-8320
▁irregularities	-8321
▁Ardhanarishvara	-8322
▁differentiation	-8323
▁entrepreneurial	-8324
▁improvisational	-8325
▁representatives	-8326
्ट	-8327
ज्ञ	-8328
▁तु	-8329
▁वृ	-8330
स्ला	-8331
ाधिक	-8332
▁उत्त	-8333
▁मार्	-8334
▁इस्ला	-8335
ल्प	-8336
ासा	-8337
्वे	-8338
▁शक	-8339
▁शत	-8340
धारण	-8341
यंती	-8342
्तित	-8343
्यान	-8344
▁सार	-8345
▁मंदि	-8346
वसायिक	-8347
ार्मिक	-8348
▁अस्तित	-8349
▁स्थापत्य	-8350
▁कई	-8351
▁कार	-8352
▁हुए	-8353
▁इसके	-8354
▁कारण	-8355
▁नहीं	-8356
▁एशिया	-8357
▁चुनाव	-8358
▁अंग्रे	-8359
▁अनुसार	-8360
ण्	-8361
ुक्त	-8362
मंत्री	-8363
▁नेतृत	-8364
▁विस्त	-8365
▁सैन्य	-8366
▁आद	-8367
ंह	-8368
तु	-8369
यास	-8370
▁जै	-8371
ठा	-8372
नाट	-8373
▁आर	-8374
▁मत	-8375
▁सीमा	-8376
%;	-8377
/1	-8378
गड	-8379
ूण	-8380
ంజ	-8381
కూ	-8382
గణ	-8383
చయ	-8384
జీ	-8385
టే	-8386
ఠభ	-8387
తల	-8388
నం	-8389
పం	-8390
బా	-8391
భవ	-8392
మద	-8393
మల	-8394
యమ	-8395
రీ	-8396
లీ	-8397
ళి	-8398
శీ	-8399
శ్	-8400
సన	-8401
సా	-8402
సే	-8403
హో	-8404
ాధ	-8405
ామ	-8406
ిర	-8407
ిళ	-8408
ీద	-8409
ుగ	-8410
ుర	-8411
ూమ	-8412
ెట	-8413
ోధ	-8414
ౌక	-8415
▁=	-8416
▁ఓ	-8417
▁థ	-8418
▁ధ	-8419
व्ह	-8420
ीया	-8421
ంకా	-8422
ంకే	-8423
ంటి	-8424
ండా	-8425
ండో	-8426
ండ్	-8427
కుల	-8428
గర్	-8429
జిక	-8430
జిత	-8431
టన్	-8432
టలు	-8433
టోర	-8434
డైన	-8435
ఢాక	-8436
తను	-8437
దరణ	-8438
దిన	-8439
ననీ	-8440
నలు	-8441
నాథ	-8442
నుమ	-8443
పరి	-8444
పావ	-8445
పుణ	-8446
పుత	-8447
ప్ర	-8448
బడత	-8449
భరత	-8450
భాష	-8451
మెర	-8452
యోజ	-8453
రాజ	-8454
ర్చ	-8455
ర్థ	-8456
ర్శ	-8457
లంక	-8458
లక్	-8459
లయా	-8460
ళలు	-8461
వతం	-8462
విం	-8463
వైన	-8464
శాఖ	-8465
శాన	-8466
శ్ర	-8467
సాయ	-8468
స్ర	-8469
ాంబ	-8470
ాకీ	-8471
ాడే	-8472
ాతం	-8473
ాతి	-8474
ానీ	-8475
ాయు	-8476
ాలే	-8477
ికా	-8478
ియా	-8479
ీఠభ	-8480
ీషు	-8481
ుతో	-8482
ుల్	-8483
ూపా	-8484
ూర్	-8485
ెట్	-8486
ెర్	-8487
ెస్	-8488
ేజి	-8489
్రై	-8490
్రో	-8491
▁खो	-8492
▁शे	-8493
▁అణ	-8494
▁అహ	-8495
▁ఆహ	-8496
▁ఎడ	-8497
▁ఏక	-8498
▁ఏప	-8499
▁కృ	-8500
▁గత	-8501
▁జల	-8502
▁జో	-8503
▁తె	-8504
▁తే	-8505
▁నె	-8506
▁ఫల	-8507
▁బౌ	-8508
▁మర	-8509
▁రి	-8510
▁లా	-8511
▁లె	-8512
▁వం	-8513
▁వె	-8514
▁శి	-8515
0%),	-8516
द्दल	-8517
द्या	-8518
पैकी	-8519
मारक	-8520
ळवंट	-8521
सागर	-8522
स्तन	-8523
ांना	-8524
िकाण	-8525
ेतात	-8526
క్కన	-8527
గుబా	-8528
చయిత	-8529
చ్చే	-8530
జ్యం	-8531
డివి	-8532
ఢాకా	-8533
ణించ	-8534
తంగా	-8535
త్యం	-8536
త్రీ	-8537
దరంగ	-8538
దుగా	-8539
దులు	-8540
నికి	-8541
న్నీ	-8542
న్నై	-8543
పడిన	-8544
పాటు	-8545
పాడు	-8546
పాల్	-8547
పుకో	-8548
మారు	-8549
ములు	-8550
యోగి	-8551
రిగా	-8552
రేడు	-8553
రోపా	-8554
ర్తి	-8555
ర్లు	-8556
ర్షణ	-8557
లాహో	-8558
లుగా	-8559
లేదు	-8560
లోమీ	-8561
వల్ల	-8562
వాదం	-8563
వారి	-8564
శ్మీ	-8565
స్ట్	-8566
ాతీయ	-8567
ార్త	-8568
ార్థ	-8569
ింగ్	-8570
ీకరణ	-8571
ీక్ష	-8572
ీదగా	-8573
ులకు	-8574
ులను	-8575
ూనది	-8576
ెట్ట	-8577
ెలకొ	-8578
ెలుచ	-8579
ౌకిక	-8580
ౌర్య	-8581
్రతీ	-8582
్రమే	-8583
్రామ	-8584
▁(0.	-8585
▁7/1	-8586
▁आली	-8587
▁आले	-8588
▁जेव	-8589
▁तरी	-8590
▁भवन	-8591
▁यात	-8592
▁रंग	-8593
▁वाघ	-8594
▁అంట	-8595
▁అంత	-8596
▁అంద	-8597
▁అవి	-8598
▁ఇటీ	-8599
▁కలు	-8600
▁ఖని	-8601
▁గంగ	-8602
▁చవి	-8603
▁చార	-8604
▁చూడ	-8605
▁పలు	-8606
▁పవి	-8607
▁బంగ	-8608
▁భూట	-8609
▁మరో	-8610
▁మాన	-8611
▁రూప	-8612
▁లకు	-8613
▁వలన	-8614
▁వలస	-8615
▁వాహ	-8616
▁విధ	-8617
▁విష	-8618
▁వేద	-8619
▁వేల	-8620
▁వ్య	-8621
त्त्व	-8622
स्पती	-8623
्याचे	-8624
కాహార	-8625
కుంటూ	-8626
క్కను	-8627
గినది	-8628
గోళిక	-8629
టోరల్	-8630
ట్లకు	-8631
తరాలు	-8632
తులతో	-8633
త్రిక	-8634
నుమలు	-8635
పెద్ద	-8636
బడ్డీ	-8637
మాజిక	-8638
ముఖ్య	-8639
యమించ	-8640
లయాళం	-8641
శాన్య	-8642
స్కరణ	-8643
స్లిం	-8644
స్వతం	-8645
ాత్మా	-8646
ాబాదు	-8647
ాబ్ది	-8648
ార్క్	-8649
ాసముద	-8650
ిత్రక	-8651
ీఠభూమ	-8652
ీర్ణం	-8653
ుకొని	-8654
ూపాంత	-8655
ూర్పు	-8656
ెట్రో	-8657
్రాన్	-8658
్రిల్	-8659
▁करून	-8660
▁गंगे	-8661
▁पदवी	-8662
▁समाव	-8663
▁साली	-8664
▁सुरू	-8665
▁सोयी	-8666
▁ह्या	-8667
▁అప్ప	-8668
▁అమెర	-8669
▁ఇండో	-8670
▁ఇక్క	-8671
▁ఇవిక	-8672
▁ఎలక్	-8673
▁ఒలంప	-8674
▁కంటే	-8675
▁కనుక	-8676
▁కళలు	-8677
▁కాతా	-8678
▁కూడి	-8679
▁కోల్	-8680
▁క్రి	-8681
▁గోదా	-8682
▁చెప్	-8683
▁జనగణ	-8684
▁జనతా	-8685
▁జాతి	-8686
▁టైటి	-8687
▁తత్వ	-8688
▁తమిళ	-8689
▁తర్వ	-8690
▁తిరు	-8691
▁నాయక	-8692
▁పతాక	-8693
▁పదవి	-8694
▁పర్వ	-8695
▁పల్ల	-8696
▁పార్	-8697
▁భాగా	-8698
▁భాషా	-8699
▁మహిళ	-8700
▁ముడి	-8701
▁వాయు	-8702
▁విలు	-8703
▁శాసన	-8704
▁సభను	-8705
▁సభ్య	-8706
▁సమరం	-8707
▁సమాజ	-8708
▁సిక్	-8709
▁స్వీ	-8710
▁హాకీ	-8711
▁హైదర	-8712
ंग्रजी	-8713
्यांचा	-8714
ంకేతిక	-8715
ంటున్న	-8716
గుబాటు	-8717
టర్లకు	-8718
ట్లాడే	-8719
త్రీలు	-8720
త్వంలో	-8721
దాయంలో	-8722
దేశాలు	-8723
పుణులు	-8724
బడతారు	-8725
ర్థ్యం	-8726
లాహోర్	-8727
వచ్చని	-8728
సిద్ధి	-8729
సియాలో	-8730
స్తులు	-8731
ించారు	-8732
ుకోవడం	-8733
ోయింది	-8734
్రివర్	-8735
▁करतात	-8736
▁जास्त	-8737
▁ठिकाण	-8738
▁त्यात	-8739
▁दख्खन	-8740
▁नाटके	-8741
▁मानवी	-8742
▁वेगळे	-8743
▁सस्तन	-8744
▁हिंदी	-8745
▁అన్ని	-8746
▁అయినా	-8747
▁ఆహారం	-8748
▁ఈస్ట్	-8749
▁ఉండటం	-8750
▁ఏర్పడ	-8751
▁ఐరోపా	-8752
▁గెలుచ	-8753
▁చదరంగ	-8754
▁జనవరి	-8755
▁జరిగే	-8756
▁దేశపు	-8757
▁నిర్మ	-8758
▁నెలకొ	-8759
▁పక్కన	-8760
▁పూర్వ	-8761
▁బౌద్ధ	-8762
▁భక్తి	-8763
▁మంత్ర	-8764
▁మీదగా	-8765
▁మొగలు	-8766
▁మౌర్య	-8767
▁రకాలు	-8768
▁రచయిత	-8769
▁రెండవ	-8770
▁రెండో	-8771
▁లక్షణ	-8772
▁లౌకిక	-8773
▁విమాన	-8774
▁విశ్వ	-8775
▁వెల్ల	-8776
▁సహస్ర	-8777
▁సార్వ	-8778
▁సైనిక	-8779
्याच्या	-8780
కుంటారు	-8781
ర్జాతీయ	-8782
వుతుంది	-8783
వ్యవస్థ	-8784
స్తున్న	-8785
్యాయాలు	-8786
▁अजूनही	-8787
▁उपसागर	-8788
▁गेल्या	-8789
▁पर्यंत	-8790
▁वर्षात	-8791
▁वाळवंट	-8792
▁स्मारक	-8793
▁ఇతరదేశ	-8794
▁ఈశాన్య	-8795
▁ఉపయోగి	-8796
▁కనుమలు	-8797
▁కబడ్డీ	-8798
▁కాపాడు	-8799
▁కాశ్మీ	-8800
▁కిందకు	-8801
▁కిలోమీ	-8802
▁కులాలు	-8803
▁క్రీడా	-8804
▁చూడండి	-8805
▁చెన్నై	-8806
▁చైనాను	-8807
▁జాతులు	-8808
▁తూర్పు	-8809
▁నిడివి	-8810
▁నేపాల్	-8811
▁పరీక్ష	-8812
▁పవిత్ర	-8813
▁పాలనలో	-8814
▁పీఠభూమ	-8815
▁పుట్టి	-8816
▁పేర్లు	-8817
▁ప్రజలు	-8818
▁ప్రతిప	-8819
▁ప్రత్య	-8820
▁ప్రదేశ	-8821
▁ప్రయోజ	-8822
▁బంగారు	-8823
▁బ్రిటీ	-8824
▁భాషలను	-8825
▁భూటాన్	-8826
▁మలయాళం	-8827
▁రూపాంత	-8828
▁స్థానం	-8829
▁హిమాలయ	-8830
ాసముద్రం	-8831
▁इत्यादी	-8832
▁धार्मिक	-8833
▁भारताची	-8834
▁वनस्पती	-8835
▁అధికారం	-8836
▁అమెరికా	-8837
▁ఉత్తరాన	-8838
▁ఎన్నుకో	-8839
▁ఏప్రిల్	-8840
▁ఒలంపిక్	-8841
▁కారణంగా	-8842
▁ఖనిజాలు	-8843
▁గణతంత్ర	-8844
▁చెందాయి	-8845
▁జనాభాతో	-8846
▁నియమించ	-8847
▁పరిపాలన	-8848
▁భౌగోళిక	-8849
▁మహాత్మా	-8850
▁మాత్రమే	-8851
▁ముస్లిం	-8852
▁విషయాలు	-8853
▁వ్యాపార	-8854
▁సంకీర్ణ	-8855
▁సంవత్సర	-8856
▁సంస్కరణ	-8857
▁సభ్యులు	-8858
▁సామాజిక	-8859
ప్పటికినీ	-8860
ించినట్లు	-8861
▁तमिळनाडू	-8862
▁प्रदेशात	-8863
▁అతిపెద్ద	-8864
▁అధికారిక	-8865
▁ఆధారపడిన	-8866
▁ఇంగ్లీషు	-8867
▁కూడుకుని	-8868
▁కూడుకొని	-8869
▁కోర్టులు	-8870
▁క్రీడలలో	-8871
▁చారిత్రక	-8872
▁చెప్పుకో	-8873
▁నిపుణులు	-8874
▁పశ్చిమాన	-8875
▁ప్రజాదరణ	-8876
▁ప్రాంతీయ	-8877
▁బ్రిటిషు	-8878
▁బ్రిటిష్	-8879
▁భాగాన్ని	-8880
▁మాట్లాడే	-8881
▁ముఖ్యంగా	-8882
▁మొదలైనవి	-8883
▁రాజ్యంగా	-8884
▁విద్యుత్	-8885
▁సముద్రతీ	-8886
▁సరిహద్దు	-8887
▁సాంకేతిక	-8888
▁సాధించిన	-8889
▁సారస్వతం	-8890
▁సింధూనది	-8891
▁స్త్రీలు	-8892
▁बंगालच्या	-8893
▁ఎన్నుకుంట	-8894
▁ఎలక్టోరల్	-8895
▁కాంగ్రెస్	-8896
▁పర్యాయాలు	-8897
▁పాలించారు	-8898
▁ప్రసిద్ధి	-8899
▁రాజ్యాంగం	-8900
▁రైల్వేశాఖ	-8901
▁వ్యవస్థకు	-8902
▁సామర్థ్యం	-8903
▁సామ్రాజ్య	-8904
▁సౌకర్యాలు	-8905
▁స్థానాలను	-8906
▁స్థావరాలు	-8907
▁अस्तित्त्व	-8908
▁प्रकारच्या	-8909
▁व्यावसायिक	-8910
▁అంతర్జాతీయ	-8911
▁అక్షరాస్యత	-8912
▁ఎన్నికల్లో	-8913
▁ఏర్పడ్డాయి	-8914
▁చెందుతున్న	-8915
▁తిరుగుబాటు	-8916
▁ప్రపంచములో	-8917
▁ప్రారంభించ	-8918
▁భావిస్తారు	-8919
▁మహాసముద్రం	-8920
▁రాజ్యాలుగా	-8921
▁సహస్రాబ్ది	-8922
▁సామ్రాజ్యం	-8923
▁సార్వత్రిక	-8924
▁సౌకర్యాలలో	-8925
▁स्वातंत्र्य	-8926
▁కాపాడుకుంటూ	-8927
▁గెలుచుకోవడం	-8928
▁ప్రతిపాదనకు	-8929
▁ప్రపంచంలోని	-8930
▁ప్రాంతాల్లో	-8931
▁శెలవుదినాలు	-8932
▁కార్యక్రమాలు	-8933
▁కిలోమీటర్లకు	-8934
▁జరుపుకుంటారు	-8935
▁న్యాయవ్యవస్థ	-8936
▁సూచించినట్లు	-8937
▁స్వాతంత్ర్యం	-8938
▁ఎన్నుకోబడతారు	-8939
▁నిర్వహించింది	-8940
▁ప్రభుత్వాన్ని	-8941
▁जल	-8942
▁दशक	-8943
▁द्व	-8944
राज्य	-8945
▁न्या	-8946
▁सेना	-8947
▁करोड़	-8948
▁भाषाओं	-8949
लय	-8950
ीस	-8951
तिक	-8952
्री	-8953
्ले	-8954
▁मिल	-8955
▁प्राप्त	-8956
शन	-8957
▁अव	-8958
▁२००	-8959
▁अमेर	-8960
▁प्रति	-8961
▁प्रभाव	-8962
ुष	-8963
ेड	-8964
५०	-8965
▁%	-8966
चना	-8967
▁आक	-8968
▁मे	-8969
▁सिंह	-8970
▁गुप्त	-8971
कू	-8972
पी	-8973
मण	-8974
ाक	-8975
पुर	-8976
वाह	-8977
▁पस	-8978
▁वर	-8979
▁२६	-8980
िद्ध	-8981
्राट	-8982
▁जंग	-8983
▁आक्र	-8984
▁दिवस	-8985
▁शैली	-8986
▁आधारित	-8987
▁सम्राट	-8988
▁स्वरूप	-8989
▁प्रसिद्ध	-8990
ियाँ	-8991
▁बीच	-8992
▁हिन्द	-8993
▁प्रधान	-8994
▁चुनावों	-8995
▁स्वतंत्र	-8996
ण्ड	-8997
ीरे	-8998
▁समाज	-8999
▁नेतृत्व	-9000
जर	-9001
्म	-9002
न्न	-9003
▁आग	-9004
ांधी	-9005
▁गंगा	-9006
▁गांधी	-9007
हि	-9008
ष्क	-9009
▁अश	-9010
▁बा	-9011
▁हर	-9012
▁१०	-9013
▁१५	-9014
ुष्क	-9015
▁मौर	-9016
▁उष्ण	-9017
▁राजा	-9018
फे	-9019
ंची	-9020
▁कल	-9021
▁१६	-9022
भारत	-9023
▁आर्	-9024
▁ऋषभ	-9025
▁ज्ञ	-9026
▁सात	-9027
कृष्ट	-9028
▁पक्ष	-9029
▁वन्य	-9030
▁जयंती	-9031
▁सर्वाधिक	-9032
▁1971	-9033
ज़	-9034
▁उन	-9035
ंग्रेस	-9036
▁जनजात	-9037
ॉंग्रेस	-9038
▁द्वारा	-9039
टे	-9040
मत	-9041
पाल	-9042
रिक	-9043
▁सक	-9044
▁साल	-9045
▁भूमिका	-9046
ंस	-9047
बर	-9048
मह	-9049
रु	-9050
सित	-9051
्यम	-9052
ोच्च	-9053
्योग	-9054
▁वर्त	-9055
▁अधिकार	-9056
▁उद्योग	-9057
ंश	-9058
ोन	-9059
▁९	-9060
▁दल	-9061
▁बि	-9062
द्वीप	-9063
ासागर	-9064
▁क्रम	-9065
▁जाने	-9066
▁प्रग	-9067
▁संख्या	-9068
▁महासागर	-9069
घल	-9070
डा	-9071
वव	-9072
ूड	-9073
ंबई	-9074
घात	-9075
णात	-9076
तील	-9077
पणे	-9078
पूर	-9079
मंच	-9080
मूह	-9081
वली	-9082
ातन	-9083
ामी	-9084
ूषा	-9085
ोबर	-9086
▁अल	-9087
▁कड	-9088
▁लु	-9089
ंग्ल	-9090
कल्प	-9091
णारे	-9092
लेले	-9093
वरून	-9094
विले	-9095
व्यु	-9096
समूह	-9097
ारचे	-9098
ालेय	-9099
िवूड	-9100
ेतील	-9101
▁अशी	-9102
▁आला	-9103
▁तिस	-9104
▁बॉल	-9105
▁भाव	-9106
▁वाढ	-9107
▁वाह	-9108
▁शतक	-9109
ण्यास	-9110
द्धती	-9111
शियाई	-9112
स्कार	-9113
ानंतर	-9114
ावरील	-9115
ावरून	-9116
्याची	-9117
▁कच्छ	-9118
▁केला	-9119
▁केवळ	-9120
▁कोटी	-9121
▁गणला	-9122
▁पडले	-9123
▁भूमी	-9124
▁मुघल	-9125
▁येते	-9126
▁येथे	-9127
▁राजक	-9128
▁लेणी	-9129
▁वाटा	-9130
▁विषय	-9131
▁वेषभ	-9132
▁शेती	-9133
क्षणिक	-9134
णाऱ्या	-9135
प्रकार	-9136
ांपैकी	-9137
्यांना	-9138
्याद्र	-9139
▁ओळखले	-9140
▁थारचे	-9141
▁नद्या	-9142
▁पुत्र	-9143
▁पुराण	-9144
▁मुंबई	-9145
▁येतात	-9146
▁लागले	-9147
▁शालेय	-9148
इंग्रजी	-9149
▁अशियाई	-9150
▁असलेली	-9151
▁असल्या	-9152
▁आढळतात	-9153
▁उत्तरे	-9154
▁जेवणात	-9155
▁नावाचा	-9156
▁नावाने	-9157
▁पदव्यु	-9158
▁पदार्थ	-9159
▁पुरातन	-9160
▁मंदिरे	-9161
▁मिळतात	-9162
▁रंगमंच	-9163
▁समावेश	-9164
पूर्वीचे	-9165
▁बॉलिवूड	-9166
▁भारताचा	-9167
▁भारताला	-9168
▁महत्त्व	-9169
▁यांच्या	-9170
▁चित्रपटस	-9171
▁त्यामुळे	-9172
▁निर्मिती	-9173
▁पुरस्कार	-9174
▁प्रमाणात	-9175
▁सह्याद्र	-9176
▁सुरुवाती	-9177
▁द्वीपसमूह	-9178
▁पारंपारिक	-9179
▁वैशिष्ट्य	-9180
▁पदव्युत्तर	-9181
▁राष्ट्रपती	-9182
▁वर्षांपूर्वी	-9183
▁सद	-9184
माणु	-9185
्यों	-9186
▁कार्य	-9187
▁जनजाति	-9188
▁न्याया	-9189
▁परमाणु	-9190
▁गणराज्य	-9191
▁कॉंग्रेस	-9192
मन	-9193
सभा	-9194
▁मन	-9195
▁उत्प	-9196
▁परंप	-9197
सम	-9198
ीक	-9199
मीर	-9200
स्ल	-9201
▁उभ	-9202
ंजाब	-9203
ध्यम	-9204
वर्ष	-9205
▁घोषणा	-9206
▁माध्यम	-9207
▁विकसित	-9208
जह	-9209
प्	-9210
ेख	-9211
ेस	-9212
जीव	-9213
र्श	-9214
▁गा	-9215
नाटक	-9216
ोनेश	-9217
▁कर्	-9218
▁तत्	-9219
▁राम	-9220
▁वार	-9221
▁संब	-9222
▁ज्या	-9223
▁प्रव	-9224
▁रचना	-9225
▁आकर्ष	-9226
▁कर्नाटक	-9227
▁तत्कालीन	-9228
▁केंद्रशासित	-9229
):	-9230
्तु	-9231
▁इन	-9232
▁ओर	-9233
▁गई	-9234
क्ति	-9235
ताब्	-9236
▁अरब	-9237
▁ईसा	-9238
न्द्र	-9239
▁अन्त	-9240
▁पहले	-9241
▁लिये	-9242
ताब्दी	-9243
▁विकास	-9244
▁जिसमें	-9245
▁वर्षों	-9246
▁शताब्दी	-9247
▁क्षेत्रीय	-9248
▁प्रधानमंत्री	-9249
हर	-9250
▁सभ	-9251
देशी	-9252
▁चार	-9253
▁पहा	-9254
▁युग	-9255
▁व्याप	-9256
िर	-9257
४७	-9258
त्न	-9259
शेष	-9260
०००	-9261
▁कट	-9262
▁नौ	-9263
▁अनु	-9264
▁नाग	-9265
▁शहर	-9266
▁सां	-9267
प्रिय	-9268
श्मीर	-9269
ेक्षा	-9270
▁गुजर	-9271
▁नागर	-9272
▁उपयोग	-9273
▁पुरुष	-9274
▁मौर्य	-9275
▁वास्त	-9276
्न	-9277
्स	-9278
ंदर	-9279
त्‍	-9280
ध्र	-9281
नाथ	-9282
वार	-9283
ीची	-9284
▁गर	-9285
▁धो	-9286
▁रु	-9287
प्पा	-9288
▁कोर	-9289
▁बाब	-9290
▁वेद	-9291
▁सेव	-9292
▁दिला	-9293
▁भूगोल	-9294
▁विधान	-9295
▁विभाग	-9296
▁ऋषभदेव	-9297
▁धर्मीय	-9298
▁मुख्यत	-9299
▁उत्कृष्ट	-9300
▁शास्त्रीय	-9301
50	-9302
▁2003	-9303
एँ	-9304
धि	-9305
फ़	-9306
भग	-9307
ड़े	-9308
म्भ	-9309
हाँ	-9310
ाना	-9311
ायु	-9312
ोलन	-9313
▁आय	-9314
▁गठ	-9315
▁जब	-9316
▁थे	-9317
बंधन	-9318
▁एवं	-9319
▁कुछ	-9320
▁लोग	-9321
▁सदस	-9322
▁जनसं	-9323
▁दोनों	-9324
▁रक्षा	-9325
▁राजनी	-9326
▁जनसंख्या	-9327
▁संस्कृति	-9328
▁स्वतंत्रता	-9329
तः	-9330
तर	-9331
ोप	-9332
ोह	-9333
म्ब	-9334
वरी	-9335
ांड	-9336
▁आप	-9337
▁कृ	-9338
ोगिक	-9339
्रिक	-9340
▁आदि	-9341
▁बार	-9342
▁भाज	-9343
▁हाल	-9344
▁१९६	-9345
स्त्र	-9346
िन्हे	-9347
▁प्रश	-9348
द्योगिक	-9349
▁स्थापना	-9350
▁सर्वोच्च	-9351
भर	-9352
▁।	-9353
ग्र	-9354
पास	-9355
भाग	-9356
ूची	-9357
ोंड	-9358
▁आम	-9359
▁रि	-9360
िश्र	-9361
▁दिस	-9362
▁नगर	-9363
▁गोंड	-9364
▁दर्ज	-9365
▁१९४७	-9366
▁१९५०	-9367
▁घोषित	-9368
▁शुष्क	-9369
▁इस्लाम	-9370
▁गुजरात	-9371
▁राजस्थान	-9372
ंभ	-9373
ऊन	-9374
खक	-9375
थे	-9376
ळा	-9377
शत	-9378
१३	-9379
▁ॲ	-9380
ंचा	-9381
ंवर	-9382
काळ	-9383
जार	-9384
पीठ	-9385
राण	-9386
ळून	-9387
ळूह	-9388
ववै	-9389
शान	-9390
श्न	-9391
समी	-9392
साम	-9393
हशत	-9394
ांक	-9395
ांद	-9396
ावि	-9397
ावे	-9398
ाशी	-9399
ेला	-9400
्नि	-9401
▁अण	-9402
▁दु	-9403
▁नै	-9404
▁यश	-9405
▁११	-9406
कडील	-9407
जहान	-9408
नंतर	-9409
मुने	-9410
लग्न	-9411
वतात	-9412
वारी	-9413
व्या	-9414
ामीण	-9415
ालया	-9416
ृतीय	-9417
ेकडे	-9418
▁अंद	-9419
▁जवळ	-9420
▁ज्व	-9421
▁ड्र	-9422
▁दगड	-9423
▁नवी	-9424
▁पाच	-9425
▁पाव	-9426
▁पुत	-9427
▁मैल	-9428
▁लाभ	-9429
▁शाह	-9430
▁साज	-9431
▁साद	-9432
▁१९२	-9433
त्‍नी	-9434
नुसार	-9435
ळूहळू	-9436
विध्य	-9437
स्वती	-9438
ांतात	-9439
ासाठी	-9440
ृष्टी	-9441
ेकडील	-9442
▁अरबी	-9443
▁असतो	-9444
▁असली	-9445
▁ईशान	-9446
▁एकूण	-9447
▁ओघात	-9448
▁कमान	-9449
▁गेले	-9450
▁दहशत	-9451
▁प्रे	-9452
▁बंदर	-9453
▁मसाल	-9454
▁मोठी	-9455
▁मोठे	-9456
▁रोजी	-9457
▁लेखक	-9458
▁वरील	-9459
▁वारे	-9460
▁शहरे	-9461
▁होतो	-9462
नाऱ्या	-9463
पद्धती	-9464
पर्यंत	-9465
पेक्षा	-9466
ांमुळे	-9467
ाबद्दल	-9468
ीयांनी	-9469
्निध्र	-9470
्यांचे	-9471
्यांनी	-9472
▁इंग्ल	-9473
▁जंगले	-9474
▁जैववै	-9475
▁ज्ञान	-9476
▁देखील	-9477
▁नमुने	-9478
▁पावली	-9479
▁मसाले	-9480
▁मिळते	-9481
▁मोसमी	-9482
▁म्यान	-9483
▁यांचा	-9484
▁यांना	-9485
▁यांनी	-9486
▁वृक्ष	-9487
कांच्या	-9488
देशातील	-9489
धारणपणे	-9490
▁अरावली	-9491
▁आरक्षण	-9492
▁आहारात	-9493
▁ठिकाणी	-9494
▁त्याला	-9495
▁पत्‍नी	-9496
▁प्रगती	-9497
▁प्रश्न	-9498
▁बनविले	-9499
▁मिळाले	-9500
▁यामुळे	-9501
▁राजकीय	-9502
▁राज्या	-9503
▁विद्या	-9504
▁संलग्न	-9505
▁हळूहळू	-9506
दृष्ट्या	-9507
▁आलेल्या	-9508
▁काळातील	-9509
▁ग्रामीण	-9510
▁घेण्यास	-9511
▁तिसऱ्या	-9512
▁दहशतवाद	-9513
▁धर्माचा	-9514
▁पृष्ठीय	-9515
▁म्हणतात	-9516
▁वेषभूषा	-9517
▁व्यवसाय	-9518
▁शाहजहान	-9519
▁सरस्वती	-9520
▁सारख्या	-9521
▁हिमालया	-9522
▁अग्निध्र	-9523
▁काळाच्या	-9524
▁किल्ल्या	-9525
▁गंगेच्या	-9526
▁जानेवारी	-9527
▁प्रकारचे	-9528
▁प्रांतात	-9529
▁म्यानमार	-9530
▁शैक्षणिक	-9531
▁उपसागराला	-9532
▁दख्खनच्या	-9533
▁द्वीपकल्प	-9534
▁मुख्यत्वे	-9535
▁सह्याद्री	-9536
▁साधारणपणे	-9537
▁साहित्यात	-9538
▁स्थापत्या	-9539
▁kilometers	-9540
▁पूर्वीच्या	-9541
▁भारतीयांनी	-9542
▁विद्यार्थी	-9543
▁सुरुवातीला	-9544
▁दक्षिणेकडील	-9545
▁अस्तित्त्वात	-9546
▁शिक्षणपद्धती	-9547
▁महाराष्ट्रातील	-9548
PI	-9549
▁(1	-9550
▁40	-9551
▁SI	-9552
▁1000	-9553
▁100,000	-9554
ूस	-9555
ँकि	-9556
ज़ी	-9557
थिय	-9558
न्द	-9559
भाई	-9560
भाष	-9561
▁दर	-9562
▁पै	-9563
ांति	-9564
्लेट	-9565
▁इसी	-9566
▁जिन	-9567
▁पड़	-9568
▁बनी	-9569
▁बने	-9570
▁यूर	-9571
▁रहे	-9572
▁संय	-9573
थियार	-9574
ारम्भ	-9575
▁अपनी	-9576
▁अपने	-9577
▁अप्र	-9578
▁करना	-9579
▁तमिल	-9580
▁बड़ा	-9581
▁लगभग	-9582
▁लिया	-9583
▁वर्ग	-9584
▁हाला	-9585
▁निभाई	-9586
▁प्लेट	-9587
धिकारिक	-9588
▁गठबंधन	-9589
▁पार्टी	-9590
▁हथियार	-9591
▁केन्द्र	-9592
▁संयुक्त	-9593
▁हालाँकि	-9594
▁न्यायालय	-9595
▁प्रारम्भ	-9596
तम	-9597
ीं	-9598
ेट	-9599
▁ढ	-9600
रपे	-9601
िसी	-9602
▁मू	-9603
▁रह	-9604
▁सल	-9605
▁१८	-9606
क्षर	-9607
ियां	-9608
ृतिक	-9609
▁घाट	-9610
▁जून	-9611
▁निव	-9612
▁बाह	-9613
स्लिम	-9614
▁निर्	-9615
रपेक्ष	-9616
▁पंजाब	-9617
▁प्रचल	-9618
▁अमेरिका	-9619
▁प्रशासन	-9620
▁विस्तार	-9621
गल	-9622
ाइ	-9623
चीन	-9624
द्व	-9625
शिय	-9626
ाही	-9627
िक्	-9628
▁खु	-9629
▁दि	-9630
▁१७	-9631
िवाज	-9632
▁चाल	-9633
▁चोल	-9634
▁दुस	-9635
▁लिख	-9636
▁स्र	-9637
पुत्र	-9638
लादेश	-9639
▁अशोक	-9640
▁बांग	-9641
▁पूर्ण	-9642
▁सैनिक	-9643
ोनेशिया	-9644
▁आक्रमण	-9645
▁आकर्षित	-9646
▁मध्यप्र	-9647
▁इंडोनेशिया	-9648
10	-9649
46	-9650
52	-9651
AL	-9652
ఋత	-9653
ఒక	-9654
కం	-9655
కల	-9656
ఖో	-9657
గమ	-9658
గృ	-9659
గే	-9660
చన	-9661
చీ	-9662
చూ	-9663
చ్	-9664
జా	-9665
టక	-9666
టె	-9667
ఠీ	-9668
డత	-9669
ణద	-9670
తే	-9671
థమ	-9672
థి	-9673
దీ	-9674
ధం	-9675
ధు	-9676
నత	-9677
నై	-9678
పక	-9679
పద	-9680
పర	-9681
పవ	-9682
బై	-9683
మర	-9684
మో	-9685
యి	-9686
యూ	-9687
రచ	-9688
రబ	-9689
లస	-9690
వీ	-9691
శో	-9692
షం	-9693
షే	-9694
సం	-9695
సర	-9696
హే	-9697
ాళ	-9698
ాహ	-9699
ఘు	-9700
డవ	-9701
నల	-9702
నూ	-9703
లహ	-9704
శై	-9705
ిజ	-9706
ిస	-9707
ుళ	-9708
ెబ	-9709
ేత	-9710
ేవ	-9711
ైక	-9712
ౌఖ	-9713
్ఘ	-9714
▁&	-9715
▁ఔ	-9716
2,1	-9717
2,8	-9718
46)	-9719
PIN	-9720
ండమ	-9721
ండయ	-9722
ంతు	-9723
ఇదే	-9724
ఋతు	-9725
కళి	-9726
క్న	-9727
క్య	-9728
క్ర	-9729
గలి	-9730
గుత	-9731
గృహ	-9732
చర్	-9733
చార	-9734
చ్ఛ	-9735
జన్	-9736
జ్ఞ	-9737
జ్ర	-9738
టండ	-9739
టస్	-9740
టిన	-9741
టెహ	-9742
డమ్	-9743
▁	-9744
e	-9745
a	-9746
n	-9747
i	-9748
t	-9749
o	-9750
r	-9751
s	-9752
d	-9753
h	-9754
l	-9755
c	-9756
u	-9757
m	-9758
g	-9759
,	-9760
f	-9761
p	-9762
y	-9763
ा	-9764
.	-9765
w	-9766
్	-9767
ా	-9768
b	-9769
ి	-9770
v	-9771
ర	-9772
्	-9773
I	-9774
र	-9775
ు	-9776
ల	-9777
ం	-9778
त	-9779
న	-9780
े	-9781
త	-9782
1	-9783
క	-9784
0	-9785
क	-9786
ी	-9787
य	-9788
ద	-9789
स	-9790
ప	-9791
k	-9792
ि	-9793
न	-9794
వ	-9795
2	-9796
म	-9797
व	-9798
ं	-9799
స	-9800
T	-9801
ल	-9802
ह	-9803
య	-9804
మ	-9805
प	-9806
9	-9807
A	-9808
-	-9809
C	-9810
ే	-9811
ో	-9812
గ	-9813
S	-9814
B	-9815
द	-9816
ట	-9817
च	-9818
చ	-9819
x	-9820
ీ	-9821
E	-9822
P	-9823
భ	-9824
5	-9825
డ	-9826
ो	-9827
ज	-9828
శ	-9829
4	-9830
भ	-9831
'	-9832
ु	-9833
M	-9834
6	-9835
%	-9836
7	-9837
ग	-9838
j	-9839
श	-9840
;	-9841
3	-9842
జ	-9843
)	-9844
(	-9845
आ	-9846
8	-9847
ण	-9848
D	-9849
ध	-9850
ब	-9851
ధ	-9852
ष	-9853
H	-9854
अ	-9855
ू	-9856
G	-9857
N	-9858
ె	-9859
అ	-9860
బ	-9861
ూ	-9862
ై	-9863
ट	-9864
ష	-9865
"	-9866
హ	-9867
थ	-9868
ణ	-9869
ै	-9870
ఉ	-9871
ड	-9872
U	-9873
J	-9874
ळ	-9875
W	-9876
:	-9877
R	-9878
ఇ	-9879
థ	-9880
ख	-9881
K	-9882
।	-9883
q	-9884
इ	-9885
V	-9886
ొ	-9887
–	-9888
z	-9889
ఆ	-9890
F	-9891
उ	-9892
ఖ	-9893
ृ	-9894
O	-9895
ళ	-9896
ठ	-9897
L	-9898
ए	-9899
१	-9900
—	-9901
ఎ	-9902
औ	-9903
$	-9904
घ	-9905
०	-9906
ృ	-9907
ఒ	-9908
ई	-9909
ఈ	-9910
९	-9911
़	-9912
झ	-9913
ā	-9914
फ	-9915
ౌ	-9916
२	-9917
ఏ	-9918
५	-9919
ौ	-9920
ढ	-9921
ओ	-9922
°	-9923
४	-9924
ఘ	-9925
६	-9926
७	-9927
ँ	-9928
ఫ	-9929
३	-9930
ॉ	-9931
छ	-9932
ఢ	-9933
८	-9934
Y	-9935
′	-9936
ऱ	-9937
ऊ	-9938
ऑ	-9939
Z	-9940
[	-9941
]	-9942
ɦ	-9943
ˈ	-9944
ː	-9945
δ	-9946
ν	-9947
ṇ	-9948
Ἰ	-9949
₹	-9950
ఐ	-9951
ऋ	-9952
ञ	-9953
/	-9954
ॅ	-9955
ఠ	-9956
ः	-9957
‍	-9958
Ö	-9959
á	-9960
â	-9961
í	-9962
ī	-9963
Ś	-9964
ū	-9965
ə	-9966
ɪ	-9967
ɾ	-9968
ʊ	-9969
ί	-9970
α	-9971
ς	-9972
ό	-9973
ṅ	-9974
ṣ	-9975
ṭ	-9976
=	-9977
ఓ	-9978
ॲ	-9979
&	-9980
ః	-9981
ఋ	-9982
ఔ	-9983
ఛ	-9984
ఞ	-9985
ऐ	-9986
ॠ	-9987
’	-9988
‘	-9989
|	-9990
“	-9991
”	-9992
+	-9993
॰	-9994
†	-9995
