{
  "version": "1.0",
  "truncation": null,
  "padding": null,
  "added_tokens": [
    {
      "id": 0,
      "content": "[PAD]",
      "single_word": false,
      "lstrip": false,
      "rstrip": false,
      "normalized": false,
      "special": true
    },
    {
      "id": 1,
      "content": "[UNK]",
      "single_word": false,
      "lstrip": false,
      "rstrip": false,
      "normalized": false,
      "special": true
    },
    {
      "id": 2,
      "content": "[CLS]",
      "single_word": false,
      "lstrip": false,
      "rstrip": false,
      "normalized": false,
      "special": true
    },
    {
      "id": 3,
      "content": "[SEP]",
      "single_word": false,
      "lstrip": false,
      "rstrip": false,
      "normalized": false,
      "special": true
    },
    {
      "id": 4,
      "content": "[MASK]",
      "single_word": false,
      "lstrip": false,
      "rstrip": false,
      "normalized": false,
      "special": true
    }
  ],
  "normalizer": {
    "type": "BertNormalizer",
    "clean_text": true,
    "handle_chinese_chars": true,
    "strip_accents": false,
    "lowercase": false
  },
  "pre_tokenizer": {
    "type": "BertPreTokenizer"
  },
  "post_processor": null,
  "decoder": {
    "type": "WordPiece",
    "prefix": "##",
    "cleanup": true
  },
  "model": {
    "type": "WordPiece",
    "unk_token": "[UNK]",
    "continuing_subword_prefix": "##",
    "max_input_chars_per_word": 100,
    "vocab": {
      "[PAD]": 0,
      "[UNK]": 1,
      "[CLS]": 2,
      "[SEP]": 3,
      "[MASK]": 4,
      "!": 5,
      "\"": 6,
      "#": 7,
      "$": 8,
      "%": 9,
      "&": 10,
      "'": 11,
      "(": 12,
      ")": 13,
      "*": 14,
      "+": 15,
      ",": 16,
      "-": 17,
      ".": 18,
      "/": 19,
      "0": 20,
      "1": 21,
      "2": 22,
      "3": 23,
      "4": 24,
      "5": 25,
      "6": 26,
      "7": 27,
      "8": 28,
      "9": 29,
      ":": 30,
      ";": 31,
      "<": 32,
      "=": 33,
      ">": 34,
      "?": 35,
      "@": 36,
      "A": 37,
      "B": 38,
      "C": 39,
      "D": 40,
      "E": 41,
      "F": 42,
      "G": 43,
      "H": 44,
      "I": 45,
      "J": 46,
      "K": 47,
      "L": 48,
      "M": 49,
      "N": 50,
      "O": 51,
      "P": 52,
      "Q": 53,
      "R": 54,
      "S": 55,
      "T": 56,
      "U": 57,
      "V": 58,
      "W": 59,
      "X": 60,
      "Y": 61,
      "Z": 62,
      "[": 63,
      "\\": 64,
      "]": 65,
      "^": 66,
      "_": 67,
      "`": 68,
      "a": 69,
      "b": 70,
      "c": 71,
      "d": 72,
      "e": 73,
      "f": 74,
      "g": 75,
      "h": 76,
      "i": 77,
      "j": 78,
      "k": 79,
      "l": 80,
      "m": 81,
      "n": 82,
      "o": 83,
      "p": 84,
      "q": 85,
      "r": 86,
      "s": 87,
      "t": 88,
      "u": 89,
      "v": 90,
      "w": 91,
      "x": 92,
      "y": 93,
      "z": 94,
      "{": 95,
      "|": 96,
      "}": 97,
      "~": 98,
      "¡": 99,
      "¢": 100,
      "£": 101,
      "¤": 102,
      "¥": 103,
      "§": 104,
      "¨": 105,
      "©": 106,
      "ª": 107,
      "«": 108,
      "¬": 109,
      "®": 110,
      "¯": 111,
      "°": 112,
      "±": 113,
      "²": 114,
      "³": 115,
      "´": 116,
      "µ": 117,
      "¶": 118,
      "·": 119,
      "¸": 120,
      "¹": 121,
      "º": 122,
      "»": 123,
      "¼": 124,
      "½": 125,
      "¿": 126,
      "À": 127,
      "Á": 128,
      "Â": 129,
      "Ã": 130,
      "Ä": 131,
      "Å": 132,
      "Æ": 133,
      "Ç": 134,
      "È": 135,
      "É": 136,
      "Í": 137,
      "Î": 138,
      "Ï": 139,
      "Ð": 140,
      "Ñ": 141,
      "Ò": 142,
      "Ó": 143,
      "Ô": 144,
      "Õ": 145,
      "Ö": 146,
      "×": 147,
      "Ø": 148,
      "Ú": 149,
      "Ü": 150,
      "Þ": 151,
      "ß": 152,
      "à": 153,
      "á": 154,
      "â": 155,
      "ã": 156,
      "ä": 157,
      "å": 158,
      "æ": 159,
      "ç": 160,
      "è": 161,
      "é": 162,
      "ê": 163,
      "ë": 164,
      "ì": 165,
      "í": 166,
      "ï": 167,
      "ð": 168,
      "ñ": 169,
      "ò": 170,
      "ó": 171,
      "ô": 172,
      "õ": 173,
      "ö": 174,
      "÷": 175,
      "ø": 176,
      "ù": 177,
      "ú": 178,
      "û": 179,
      "ü": 180,
      "ý": 181,
      "þ": 182,
      "ÿ": 183,
      "Ā": 184,
      "ā": 185,
      "ă": 186,
      "ą": 187,
      "Ć": 188,
      "ć": 189,
      "Č": 190,
      "č": 191,
      "Đ": 192,
      "Ē": 193,
      "ē": 194,
      "ė": 195,
      "ę": 196,
      "ě": 197,
      "ğ": 198,
      "ĩ": 199,
      "ī": 200,
      "İ": 201,
      "ı": 202,
      "ł": 203,
      "ń": 204,
      "ŋ": 205,
      "ō": 206,
      "ŏ": 207,
      "ő": 208,
      "œ": 209,
      "ř": 210,
      "Ś": 211,
      "ś": 212,
      "ŝ": 213,
      "Ş": 214,
      "ş": 215,
      "Š": 216,
      "š": 217,
      "ţ": 218,
      "ū": 219,
      "ŵ": 220,
      "Ż": 221,
      "ż": 222,
      "ž": 223,
      "Ɛ": 224,
      "ƒ": 225,
      "Ɵ": 226,
      "Ʃ": 227,
      "ǁ": 228,
      "Ș": 229,
      "ș": 230,
      "ț": 231,
      "ɕ": 232,
      "ɛ": 233,
      "ɜ": 234,
      "ɲ": 235,
      "ʂ": 236,
      "ʃ": 237,
      "ʹ": 238,
      "ʼ": 239,
      "ʾ": 240,
      "ʿ": 241,
      "˂": 242,
      "˃": 243,
      "ˇ": 244,
      "˙": 245,
      "˚": 246,
      "˜": 247,
      "˭": 248,
      "́": 249,
      "̂": 250,
      "̃": 251,
      "̄": 252,
      "̅": 253,
      "̇": 254,
      "̈": 255,
      "̊": 256,
      "̲": 257,
      "̸": 258,
      "ͻ": 259,
      "Α": 260,
      "Β": 261,
      "Γ": 262,
      "Δ": 263,
      "Ε": 264,
      "Ζ": 265,
      "Θ": 266,
      "Κ": 267,
      "Λ": 268,
      "Μ": 269,
      "Ν": 270,
      "Π": 271,
      "Σ": 272,
      "Τ": 273,
      "Υ": 274,
      "Φ": 275,
      "Χ": 276,
      "Ψ": 277,
      "Ω": 278,
      "ί": 279,
      "α": 280,
      "β": 281,
      "γ": 282,
      "δ": 283,
      "ε": 284,
      "ζ": 285,
      "η": 286,
      "θ": 287,
      "ι": 288,
      "κ": 289,
      "λ": 290,
      "μ": 291,
      "ν": 292,
      "ξ": 293,
      "π": 294,
      "ρ": 295,
      "ς": 296,
      "σ": 297,
      "τ": 298,
      "υ": 299,
      "φ": 300,
      "χ": 301,
      "ψ": 302,
      "ω": 303,
      "ϑ": 304,
      "ϕ": 305,
      "ϱ": 306,
      "ϵ": 307,
      "Ђ": 308,
      "Ѓ": 309,
      "Є": 310,
      "І": 311,
      "А": 312,
      "Б": 313,
      "В": 314,
      "Г": 315,
      "Е": 316,
      "И": 317,
      "К": 318,
      "Л": 319,
      "М": 320,
      "Н": 321,
      "О": 322,
      "П": 323,
      "Р": 324,
      "С": 325,
      "Т": 326,
      "Ф": 327,
      "Х": 328,
      "Э": 329,
      "Ю": 330,
      "а": 331,
      "б": 332,
      "в": 333,
      "г": 334,
      "д": 335,
      "е": 336,
      "з": 337,
      "и": 338,
      "й": 339,
      "к": 340,
      "л": 341,
      "м": 342,
      "н": 343,
      "о": 344,
      "п": 345,
      "р": 346,
      "с": 347,
      "т": 348,
      "у": 349,
      "х": 350,
      "ц": 351,
      "ч": 352,
      "щ": 353,
      "ы": 354,
      "ь": 355,
      "ю": 356,
      "я": 357,
      "ё": 358,
      "є": 359,
      "і": 360,
      "ў": 361,
      "ѱ": 362,
      "א": 363,
      "،": 364,
      "أ": 365,
      "ئ": 366,
      "ا": 367,
      "ب": 368,
      "ة": 369,
      "ت": 370,
      "ث": 371,
      "ج": 372,
      "ح": 373,
      "د": 374,
      "ر": 375,
      "ز": 376,
      "س": 377,
      "ش": 378,
      "ط": 379,
      "ع": 380,
      "ـ": 381,
      "ف": 382,
      "ق": 383,
      "ل": 384,
      "م": 385,
      "ن": 386,
      "ه": 387,
      "و": 388,
      "ى": 389,
      "ي": 390,
      "٠": 391,
      "پ": 392,
      "ک": 393,
      "ی": 394,
      "ᵓ": 395,
      "ᵣ": 396,
      "Ḟ": 397,
      "Ḥ": 398,
      "ḥ": 399,
      "Ṁ": 400,
      "ṃ": 401,
      "ṅ": 402,
      "ṇ": 403,
      "ṣ": 404,
      "ẓ": 405,
      "ạ": 406,
      "ệ": 407,
      "ἐ": 408,
      "ῆ": 409,
      "ῶ": 410,
      "‐": 411,
      "‑": 412,
      "‒": 413,
      "–": 414,
      "—": 415,
      "―": 416,
      "‖": 417,
      "‘": 418,
      "’": 419,
      "‚": 420,
      "‛": 421,
      "“": 422,
      "”": 423,
      "„": 424,
      "‟": 425,
      "†": 426,
      "‡": 427,
      "•": 428,
      "…": 429,
      "‰": 430,
      "′": 431,
      "″": 432,
      "‹": 433,
      "›": 434,
      "⁄": 435,
      "⁶": 436,
      "⁹": 437,
      "⁺": 438,
      "⁻": 439,
      "₀": 440,
      "₁": 441,
      "₂": 442,
      "₃": 443,
      "₄": 444,
      "₅": 445,
      "ₑ": 446,
      "€": 447,
      "⃑": 448,
      "⃝": 449,
      "⃞": 450,
      "℃": 451,
      "ℏ": 452,
      "ℓ": 453,
      "ℕ": 454,
      "№": 455,
      "ℚ": 456,
      "ℜ": 457,
      "ℝ": 458,
      "™": 459,
      "ℨ": 460,
      "ℬ": 461,
      "ℰ": 462,
      "ℱ": 463,
      "Ⅰ": 464,
      "Ⅱ": 465,
      "Ⅲ": 466,
      "Ⅵ": 467,
      "←": 468,
      "↑": 469,
      "→": 470,
      "↓": 471,
      "↔": 472,
      "↵": 473,
      "⇐": 474,
      "⇒": 475,
      "⇓": 476,
      "∀": 477,
      "∂": 478,
      "∃": 479,
      "∅": 480,
      "∆": 481,
      "∇": 482,
      "∈": 483,
      "∊": 484,
      "∑": 485,
      "−": 486,
      "∓": 487,
      "∕": 488,
      "∖": 489,
      "∗": 490,
      "∘": 491,
      "∙": 492,
      "√": 493,
      "∝": 494,
      "∞": 495,
      "∣": 496,
      "∥": 497,
      "∧": 498,
      "∨": 499,
      "∩": 500,
      "∪": 501,
      "∫": 502,
      "∶": 503,
      "∼": 504,
      "∽": 505,
      "≃": 506,
      "≅": 507,
      "≈": 508,
      "≒": 509,
      "≠": 510,
      "≡": 511,
      "≤": 512,
      "≥": 513,
      "≦": 514,
      "≧": 515,
      "≪": 516,
      "≫": 517,
      "≰": 518,
      "≲": 519,
      "≳": 520,
      "≺": 521,
      "⊂": 522,
      "⊆": 523,
      "⊕": 524,
      "⊗": 525,
      "⊘": 526,
      "⊙": 527,
      "⊢": 528,
      "⊥": 529,
      "⊿": 530,
      "⋅": 531,
      "⋆": 532,
      "⋊": 533,
      "⋯": 534,
      "①": 535,
      "②": 536,
      "─": 537,
      "═": 538,
      "║": 539,
      "▒": 540,
      "■": 541,
      "▪": 542,
      "▶": 543,
      "►": 544,
      "●": 545,
      "◦": 546,
      "☆": 547,
      "☉": 548,
      "♀": 549,
      "♂": 550,
      "♦": 551,
      "✓": 552,
      "✱": 553,
      "❏": 554,
      "❑": 555,
      "⟨": 556,
      "⟩": 557,
      "⟹": 558,
      "⩽": 559,
      "⩾": 560,
      "、": 561,
      "。": 562,
      "〈": 563,
      "〉": 564,
      "《": 565,
      "》": 566,
      "【": 567,
      "】": 568,
      "あ": 569,
      "い": 570,
      "う": 571,
      "え": 572,
      "お": 573,
      "か": 574,
      "が": 575,
      "き": 576,
      "く": 577,
      "け": 578,
      "こ": 579,
      "さ": 580,
      "し": 581,
      "じ": 582,
      "す": 583,
      "た": 584,
      "だ": 585,
      "っ": 586,
      "つ": 587,
      "て": 588,
      "で": 589,
      "と": 590,
      "ど": 591,
      "な": 592,
      "に": 593,
      "の": 594,
      "は": 595,
      "び": 596,
      "へ": 597,
      "ま": 598,
      "も": 599,
      "よ": 600,
      "ら": 601,
      "る": 602,
      "れ": 603,
      "わ": 604,
      "を": 605,
      "ア": 606,
      "イ": 607,
      "ゥ": 608,
      "エ": 609,
      "ケ": 610,
      "コ": 611,
      "サ": 612,
      "シ": 613,
      "ス": 614,
      "セ": 615,
      "ダ": 616,
      "ト": 617,
      "ニ": 618,
      "バ": 619,
      "ビ": 620,
      "ブ": 621,
      "ミ": 622,
      "ュ": 623,
      "ョ": 624,
      "ラ": 625,
      "リ": 626,
      "ル": 627,
      "ン": 628,
      "・": 629,
      "ー": 630,
      "㎎": 631,
      "㎏": 632,
      "一": 633,
      "七": 634,
      "上": 635,
      "下": 636,
      "不": 637,
      "丑": 638,
      "世": 639,
      "丘": 640,
      "个": 641,
      "中": 642,
      "为": 643,
      "主": 644,
      "丿": 645,
      "九": 646,
      "了": 647,
      "予": 648,
      "二": 649,
      "于": 650,
      "交": 651,
      "人": 652,
      "仍": 653,
      "代": 654,
      "以": 655,
      "件": 656,
      "会": 657,
      "传": 658,
      "伴": 659,
      "似": 660,
      "但": 661,
      "位": 662,
      "低": 663,
      "体": 664,
      "作": 665,
      "使": 666,
      "例": 667,
      "価": 668,
      "侧": 669,
      "俗": 670,
      "保": 671,
      "修": 672,
      "值": 673,
      "元": 674,
      "入": 675,
      "全": 676,
      "关": 677,
      "其": 678,
      "内": 679,
      "准": 680,
      "出": 681,
      "分": 682,
      "切": 683,
      "判": 684,
      "別": 685,
      "利": 686,
      "制": 687,
      "刻": 688,
      "力": 689,
      "加": 690,
      "動": 691,
      "勞": 692,
      "化": 693,
      "区": 694,
      "升": 695,
      "单": 696,
      "南": 697,
      "即": 698,
      "卵": 699,
      "历": 700,
      "压": 701,
      "及": 702,
      "发": 703,
      "受": 704,
      "古": 705,
      "可": 706,
      "合": 707,
      "同": 708,
      "名": 709,
      "后": 710,
      "呈": 711,
      "告": 712,
      "和": 713,
      "四": 714,
      "回": 715,
      "国": 716,
      "图": 717,
      "在": 718,
      "型": 719,
      "基": 720,
      "場": 721,
      "复": 722,
      "外": 723,
      "多": 724,
      "大": 725,
      "女": 726,
      "奴": 727,
      "子": 728,
      "存": 729,
      "季": 730,
      "学": 731,
      "學": 732,
      "安": 733,
      "完": 734,
      "定": 735,
      "实": 736,
      "実": 737,
      "宫": 738,
      "害": 739,
      "家": 740,
      "对": 741,
      "対": 742,
      "尊": 743,
      "小": 744,
      "尚": 745,
      "尹": 746,
      "居": 747,
      "屈": 748,
      "屋": 749,
      "属": 750,
      "屬": 751,
      "嵌": 752,
      "巢": 753,
      "工": 754,
      "差": 755,
      "巷": 756,
      "市": 757,
      "常": 758,
      "平": 759,
      "年": 760,
      "并": 761,
      "序": 762,
      "府": 763,
      "度": 764,
      "庸": 765,
      "建": 766,
      "开": 767,
      "引": 768,
      "弯": 769,
      "当": 770,
      "影": 771,
      "律": 772,
      "得": 773,
      "応": 774,
      "念": 775,
      "性": 776,
      "恶": 777,
      "患": 778,
      "愛": 779,
      "態": 780,
      "战": 781,
      "投": 782,
      "抗": 783,
      "护": 784,
      "报": 785,
      "拟": 786,
      "拱": 787,
      "挑": 788,
      "据": 789,
      "接": 790,
      "提": 791,
      "撑": 792,
      "擁": 793,
      "支": 794,
      "改": 795,
      "效": 796,
      "敏": 797,
      "数": 798,
      "整": 799,
      "文": 800,
      "新": 801,
      "方": 802,
      "於": 803,
      "无": 804,
      "时": 805,
      "明": 806,
      "是": 807,
      "時": 808,
      "暴": 809,
      "更": 810,
      "替": 811,
      "最": 812,
      "月": 813,
      "有": 814,
      "服": 815,
      "未": 816,
      "本": 817,
      "术": 818,
      "条": 819,
      "极": 820,
      "构": 821,
      "析": 822,
      "果": 823,
      "架": 824,
      "柚": 825,
      "样": 826,
      "根": 827,
      "案": 828,
      "梁": 829,
      "極": 830,
      "概": 831,
      "模": 832,
      "樣": 833,
      "次": 834,
      "正": 835,
      "步": 836,
      "比": 837,
      "民": 838,
      "水": 839,
      "汶": 840,
      "没": 841,
      "河": 842,
      "治": 843,
      "況": 844,
      "法": 845,
      "洛": 846,
      "流": 847,
      "演": 848,
      "灵": 849,
      "点": 850,
      "無": 851,
      "物": 852,
      "特": 853,
      "状": 854,
      "现": 855,
      "現": 856,
      "理": 857,
      "環": 858,
      "生": 859,
      "用": 860,
      "留": 861,
      "疗": 862,
      "病": 863,
      "症": 864,
      "瘤": 865,
      "発": 866,
      "白": 867,
      "的": 868,
      "目": 869,
      "相": 870,
      "知": 871,
      "矩": 872,
      "研": 873,
      "确": 874,
      "示": 875,
      "社": 876,
      "秋": 877,
      "移": 878,
      "程": 879,
      "稿": 880,
      "究": 881,
      "突": 882,
      "第": 883,
      "算": 884,
      "管": 885,
      "築": 886,
      "精": 887,
      "紀": 888,
      "索": 889,
      "結": 890,
      "经": 891,
      "结": 892,
      "编": 893,
      "缺": 894,
      "罕": 895,
      "者": 896,
      "育": 897,
      "肿": 898,
      "能": 899,
      "腔": 900,
      "自": 901,
      "般": 902,
      "船": 903,
      "荷": 904,
      "華": 905,
      "藏": 906,
      "蛋": 907,
      "蠅": 908,
      "行": 909,
      "術": 910,
      "表": 911,
      "被": 912,
      "要": 913,
      "见": 914,
      "解": 915,
      "言": 916,
      "記": 917,
      "評": 918,
      "該": 919,
      "課": 920,
      "論": 921,
      "講": 922,
      "議": 923,
      "计": 924,
      "论": 925,
      "设": 926,
      "访": 927,
      "证": 928,
      "语": 929,
      "象": 930,
      "資": 931,
      "路": 932,
      "身": 933,
      "較": 934,
      "輸": 935,
      "软": 936,
      "轻": 937,
      "较": 938,
      "输": 939,
      "过": 940,
      "近": 941,
      "这": 942,
      "进": 943,
      "送": 944,
      "這": 945,
      "通": 946,
      "速": 947,
      "道": 948,
      "違": 949,
      "遺": 950,
      "部": 951,
      "重": 952,
      "鉄": 953,
      "镜": 954,
      "閩": 955,
      "间": 956,
      "阳": 957,
      "限": 958,
      "除": 959,
      "陷": 960,
      "随": 961,
      "際": 962,
      "障": 963,
      "隸": 964,
      "集": 965,
      "靠": 966,
      "響": 967,
      "題": 968,
      "验": 969,
      "高": 970,
      "魅": 971,
      "齢": 972,
      "ꞌ": 973,
      "갑": 974,
      "개": 975,
      "막": 976,
      "자": 977,
      "ﬀ": 978,
      "ﬁ": 979,
      "ﬂ": 980,
      "ﬃ": 981,
      "︁": 982,
      "％": 983,
      "＇": 984,
      "（": 985,
      "）": 986,
      "＋": 987,
      "，": 988,
      "－": 989,
      "．": 990,
      "：": 991,
      "；": 992,
      "＜": 993,
      "＝": 994,
      "＞": 995,
      "［": 996,
      "］": 997,
      "～": 998,
      "･": 999,
      "𝒞": 1000,
      "𝒢": 1001,
      "𝓁": 1002,
      "𝜈": 1003,
      "𝜋": 1004,
      "##a": 1005,
      "##k": 1006,
      "##h": 1007,
      "##d": 1008,
      "##z": 1009,
      "##i": 1010,
      "##r": 1011,
      "##e": 1012,
      "##l": 1013,
      "##u": 1014,
      "##s": 1015,
      "##t": 1016,
      "##o": 1017,
      "##n": 1018,
      "##C": 1019,
      "##9": 1020,
      "##c": 1021,
      "##p": 1022,
      "##v": 1023,
      "##y": 1024,
      "##I": 1025,
      "##G": 1026,
      "##A": 1027,
      "##R": 1028,
      "##T": 1029,
      "##N": 1030,
      "##L": 1031,
      "##E": 1032,
      "##B": 1033,
      "##2": 1034,
      "##7": 1035,
      "##0": 1036,
      "##b": 1037,
      "##q": 1038,
      "##f": 1039,
      "##g": 1040,
      "##m": 1041,
      "##x": 1042,
      "##ﬁ": 1043,
      "##U": 1044,
      "##4": 1045,
      "##M": 1046,
      "##X": 1047,
      "##S": 1048,
      "##O": 1049,
      "##F": 1050,
      "##±": 1051,
      "##K": 1052,
      "##3": 1053,
      "##P": 1054,
      "##D": 1055,
      "##Z": 1056,
      "##5": 1057,
      "##H": 1058,
      "##V": 1059,
      "##8": 1060,
      "##β": 1061,
      "##1": 1062,
      "##J": 1063,
      "##w": 1064,
      "##j": 1065,
      "##ì": 1066,
      "##6": 1067,
      "##Y": 1068,
      "##W": 1069,
      "##−": 1070,
      "##½": 1071,
      "##Q": 1072,
      "##©": 1073,
      "##⁻": 1074,
      "##¹": 1075,
      "##°": 1076,
      "##™": 1077,
      "##ä": 1078,
      "##é": 1079,
      "##∶": 1080,
      "##×": 1081,
      "##á": 1082,
      "##®": 1083,
      "##∼": 1084,
      "##→": 1085,
      "##∞": 1086,
      "##ö": 1087,
      "##Å": 1088,
      "##Ɵ": 1089,
      "##€": 1090,
      "##œ": 1091,
      "##â": 1092,
      "##ś": 1093,
      "##О": 1094,
      "##˜": 1095,
      "##ë": 1096,
      "##о": 1097,
      "##Â": 1098,
      "##ó": 1099,
      "##≥": 1100,
      "##⊂": 1101,
      "##í": 1102,
      "##š": 1103,
      "##µ": 1104,
      "##ω": 1105,
      "##τ": 1106,
      "##る": 1107,
      "##æ": 1108,
      "##λ": 1109,
      "##е": 1110,
      "##а": 1111,
      "##و": 1112,
      "##ئ": 1113,
      "##س": 1114,
      "##م": 1115,
      "##α": 1116,
      "##～": 1117,
      "##℃": 1118,
      "##⋅": 1119,
      "##Γ": 1120,
      "##ü": 1121,
      "##²": 1122,
      "##⁺": 1123,
      "##∕": 1124,
      "##Ѓ": 1125,
      "##ł": 1126,
      "##т": 1127,
      "##ь": 1128,
      "##φ": 1129,
      "##∖": 1130,
      "##＝": 1131,
      "##₄": 1132,
      "##ˇ": 1133,
      "##č": 1134,
      "##ḥ": 1135,
      "##₂": 1136,
      "##ā": 1137,
      "##σ": 1138,
      "##р": 1139,
      "##д": 1140,
      "##с": 1141,
      "##в": 1142,
      "##л": 1143,
      "##н": 1144,
      "##è": 1145,
      "##ʾ": 1146,
      "##ī": 1147,
      "##ξ": 1148,
      "##₃": 1149,
      "##ل": 1150,
      "##ع": 1151,
      "##ي": 1152,
      "##ı": 1153,
      "##̂": 1154,
      "##ñ": 1155,
      "##ϕ": 1156,
      "##≤": 1157,
      "##ɛ": 1158,
      "##Õ": 1159,
      "##∈": 1160,
      "##μ": 1161,
      "##ş": 1162,
      "##ă": 1163,
      "##∗": 1164,
      "##и": 1165,
      "##я": 1166,
      "##¤": 1167,
      "##ε": 1168,
      "##ق": 1169,
      "##ا": 1170,
      "##ب": 1171,
      "##ن": 1172,
      "##∽": 1173,
      "##ï": 1174,
      "##ʂ": 1175,
      "##à": 1176,
      "##⊥": 1177,
      "##χ": 1178,
      "##も": 1179,
      "##の": 1180,
      "##で": 1181,
      "##あ": 1182,
      "##く": 1183,
      "##つ": 1184,
      "##か": 1185,
      "##コ": 1186,
      "##リ": 1187,
      "##ー": 1188,
      "##́": 1189,
      "##ø": 1190,
      "##ç": 1191,
      "##ﬂ": 1192,
      "##£": 1193,
      "##γ": 1194,
      "##π": 1195,
      "##ṣ": 1196,
      "##お": 1197,
      "##い": 1198,
      "##て": 1199,
      "##は": 1200,
      "##ė": 1201,
      "##ệ": 1202,
      "##É": 1203,
      "##☉": 1204,
      "##ℝ": 1205,
      "##ꞌ": 1206,
      "##þ": 1207,
      "##̃": 1208,
      "##⇓": 1209,
      "##ـ": 1210,
      "##ż": 1211,
      "##√": 1212,
      "##ú": 1213,
      "##¬": 1214,
      "##ʿ": 1215,
      "##Δ": 1216,
      "##ã": 1217,
      "##Ω": 1218,
      "##Μ": 1219,
      "##м": 1220,
      "##щ": 1221,
      "##й": 1222,
      "##´": 1223,
      "##د": 1224,
      "##ی": 1225,
      "##ê": 1226,
      "##₁": 1227,
      "##Ã": 1228,
      "##¥": 1229,
      "##С": 1230,
      "##∝": 1231,
      "##ﬀ": 1232,
      "##º": 1233,
      "##θ": 1234,
      "##≈": 1235,
      "##Æ": 1236,
      "##б": 1237,
      "##з": 1238,
      "##№": 1239,
      "##と": 1240,
      "##Ó": 1241,
      "##ô": 1242,
      "##к": 1243,
      "##∊": 1244,
      "##∘": 1245,
      "##ё": 1246,
      "##ğ": 1247,
      "##ν": 1248,
      "##⩾": 1249,
      "##ō": 1250,
      "##ṅ": 1251,
      "##ž": 1252,
      "##Α": 1253,
      "##ت": 1254,
      "##ز": 1255,
      "##ル": 1256,
      "##ア": 1257,
      "##ビ": 1258,
      "##ブ": 1259,
      "##▒": 1260,
      "##Ð": 1261,
      "##に": 1262,
      "##す": 1263,
      "##こ": 1264,
      "##⁹": 1265,
      "##ò": 1266,
      "##ṇ": 1267,
      "##̄": 1268,
      "##Τ": 1269,
      "##̲": 1270,
      "##ح": 1271,
      "##ف": 1272,
      "##п": 1273,
      "##г": 1274,
      "##ر": 1275,
      "##⊆": 1276,
      "##⊙": 1277,
      "##ß": 1278,
      "##う": 1279,
      "##ę": 1280,
      "##ک": 1281,
      "##ю": 1282,
      "##◦": 1283,
      "##υ": 1284,
      "##δ": 1285,
      "##Р": 1286,
      "##─": 1287,
      "##∅": 1288,
      "##ʼ": 1289,
      "##õ": 1290,
      "##た": 1291,
      "##ѱ": 1292,
      "##≠": 1293,
      "##κ": 1294,
      "##ρ": 1295,
      "##⃞": 1296,
      "##●": 1297,
      "##♂": 1298,
      "##ē": 1299,
      "##Í": 1300,
      "##≡": 1301,
      "##ć": 1302,
      "##¸": 1303,
      "##エ": 1304,
      "##イ": 1305,
      "##ラ": 1306,
      "##ト": 1307,
      "##を": 1308,
      "##な": 1309,
      "##˃": 1310,
      "##ط": 1311,
      "##ń": 1312,
      "##ψ": 1313,
      "##ạ": 1314,
      "##¢": 1315,
      "##ʹ": 1316,
      "##ج": 1317,
      "##ř": 1318,
      "##ŋ": 1319,
      "##å": 1320,
      "##ζ": 1321,
      "##Ç": 1322,
      "##∙": 1323,
      "##̇": 1324,
      "##Н": 1325,
      "##И": 1326,
      "##←": 1327,
      "##∑": 1328,
      "##Î": 1329,
      "##⋯": 1330,
      "##Υ": 1331,
      "##Ḥ": 1332,
      "##⁄": 1333,
      "##³": 1334,
      "##ℕ": 1335,
      "##Ʃ": 1336,
      "##ス": 1337,
      "##ţ": 1338,
      "##η": 1339,
      "##ί": 1340,
      "##Π": 1341,
      "##サ": 1342,
      "##Г": 1343,
      "##ĩ": 1344,
      "##∪": 1345,
      "##ū": 1346,
      "##Φ": 1347,
      "##Θ": 1348,
      "##Σ": 1349,
      "##ン": 1350,
      "##ы": 1351,
      "##х": 1352,
      "##¯": 1353,
      "##¨": 1354,
      "##ÿ": 1355,
      "##ه": 1356,
      "##ℓ": 1357,
      "##ą": 1358,
      "##≳": 1359,
      "##═": 1360,
      "##û": 1361,
      "##ﬃ": 1362,
      "##ῆ": 1363,
      "##ŏ": 1364,
      "##ͻ": 1365,
      "##˭": 1366,
      "##Ø": 1367,
      "##˚": 1368,
      "##⩽": 1369,
      "##＜": 1370,
      "##ч": 1371,
      "##Þ": 1372,
      "##ṃ": 1373,
      "##↔": 1374,
      "##ة": 1375,
      "##よ": 1376,
      "##び": 1377,
      "##ミ": 1378,
      "##ュ": 1379,
      "##ニ": 1380,
      "##ケ": 1381,
      "##シ": 1382,
      "##ョ": 1383,
      "##І": 1384,
      "##П": 1385,
      "##Х": 1386,
      "##∂": 1387,
      "##♀": 1388,
      "##っ": 1389,
      "##≒": 1390,
      "##ð": 1391,
      "##ő": 1392,
      "##ě": 1393,
      "##⁶": 1394,
      "##È": 1395,
      "##Ä": 1396,
      "##Λ": 1397,
      "##پ": 1398,
      "##М": 1399,
      "##Ђ": 1400,
      "##ў": 1401,
      "##⇒": 1402,
      "##ɕ": 1403,
      "##ɜ": 1404,
      "##↵": 1405,
      "##̅": 1406,
      "##Т": 1407,
      "##れ": 1408,
      "##≺": 1409,
      "##ῶ": 1410,
      "##ι": 1411,
      "##і": 1412,
      "##Е": 1413,
      "##∣": 1414,
      "##⋆": 1415,
      "##ý": 1416,
      "##が": 1417,
      "##わ": 1418,
      "##ら": 1419,
      "##ù": 1420,
      "##Ю": 1421,
      "##✱": 1422,
      "##ᵓ": 1423,
      "##け": 1424,
      "##し": 1425,
      "##バ": 1426,
      "##Á": 1427,
      "##ش": 1428,
      "##¼": 1429,
      "##ど": 1430,
      "##Ф": 1431,
      "##∆": 1432,
      "##ц": 1433,
      "##Ē": 1434,
      "##Ú": 1435,
      "##أ": 1436,
      "##ƒ": 1437,
      "##∥": 1438,
      "##⃑": 1439,
      "##Č": 1440,
      "##Ψ": 1441,
      "##ș": 1442,
      "##̈": 1443,
      "##ث": 1444,
      "##ª": 1445,
      "##ى": 1446,
      "##˂": 1447,
      "##■": 1448,
      "##÷": 1449,
      "##☆": 1450,
      "##ϵ": 1451,
      "##ま": 1452,
      "##⊕": 1453,
      "##у": 1454,
      "##∨": 1455,
      "##자": 1456,
      "##⊗": 1457,
      "##≧": 1458,
      "##ț": 1459,
      "##∩": 1460,
      "##Ö": 1461,
      "##Ï": 1462,
      "##∃": 1463,
      "##︁": 1464,
      "##ẓ": 1465,
      "##٠": 1466,
      "##˙": 1467,
      "##ᵣ": 1468,
      "##ₑ": 1469,
      "##₅": 1470,
      "##₀": 1471,
      "##ϱ": 1472,
      "##ti": 1473,
      "##he": 1474,
      "##on": 1475,
      "##er": 1476,
      "##en": 1477,
      "##es": 1478,
      "the": 1479,
      "##in": 1480,
      "##ed": 1481,
      "##al": 1482,
      "##or": 1483,
      "##nd": 1484,
      "of": 1485,
      "in": 1486,
      "##at": 1487,
      "##tion": 1488,
      "##ro": 1489,
      "##an": 1490,
      "##ar": 1491,
      "and": 1492,
      "##ic": 1493,
      "##it": 1494,
      "##is": 1495,
      "##re": 1496,
      "##as": 1497,
      "##ent": 1498,
      "##ing": 1499,
      "##ec": 1500,
      "##el": 1501,
      "##ation": 1502,
      "to": 1503,
      "##om": 1504,
      "##et": 1505,
      "##ac": 1506,
      "##ol": 1507,
      "##ur": 1508,
      "##ul": 1509,
      "th": 1510,
      "##st": 1511,
      "##le": 1512,
      "##ve": 1513,
      "##ith": 1514,
      "for": 1515,
      "##id": 1516,
      "pro": 1517,
      "con": 1518,
      "##ly": 1519,
      "st": 1520,
      "##ig": 1521,
      "##us": 1522,
      "with": 1523,
      "##os": 1524,
      "##ati": 1525,
      "##ce": 1526,
      "is": 1527,
      "##il": 1528,
      "##ter": 1529,
      "The": 1530,
      "##od": 1531,
      "##em": 1532,
      "##ts": 1533,
      "an": 1534,
      "##uc": 1535,
      "##ow": 1536,
      "##im": 1537,
      "##ut": 1538,
      "##am": 1539,
      "##ess": 1540,
      "re": 1541,
      "##ot": 1542,
      "on": 1543,
      "##tic": 1544,
      "##ity": 1545,
      "as": 1546,
      "##if": 1547,
      "ex": 1548,
      "##um": 1549,
      "##ir": 1550,
      "##ver": 1551,
      "that": 1552,
      "##ra": 1553,
      "com": 1554,
      "##ment": 1555,
      "##oc": 1556,
      "be": 1557,
      "##op": 1558,
      "res": 1559,
      "##ate": 1560,
      "##ab": 1561,
      "##ag": 1562,
      "##ion": 1563,
      "##ated": 1564,
      "##ri": 1565,
      "##ng": 1566,
      "##ud": 1567,
      "##ect": 1568,
      "##og": 1569,
      "##pl": 1570,
      "##per": 1571,
      "was": 1572,
      "by": 1573,
      "ac": 1574,
      "al": 1575,
      "##se": 1576,
      "de": 1577,
      "##ere": 1578,
      "##ical": 1579,
      "##ad": 1580,
      "are": 1581,
      "##rom": 1582,
      "##un": 1583,
      "##ure": 1584,
      "im": 1585,
      "were": 1586,
      "##ents": 1587,
      "##her": 1588,
      "##vel": 1589,
      "ch": 1590,
      "##ff": 1591,
      "##qu": 1592,
      "pr": 1593,
      "##ant": 1594,
      "##ain": 1595,
      "or": 1596,
      "##ay": 1597,
      "su": 1598,
      "##ers": 1599,
      "##th": 1600,
      "##ear": 1601,
      "##iz": 1602,
      "dis": 1603,
      "##ell": 1604,
      "comp": 1605,
      "wh": 1606,
      "at": 1607,
      "##orm": 1608,
      "##ations": 1609,
      "In": 1610,
      "##ch": 1611,
      "##ence": 1612,
      "##igh": 1613,
      "##pp": 1614,
      "us": 1615,
      "from": 1616,
      "##ine": 1617,
      "sp": 1618,
      "##ign": 1619,
      "##ase": 1620,
      "stud": 1621,
      "ad": 1622,
      "##ies": 1623,
      "##ting": 1624,
      "sh": 1625,
      "##ort": 1626,
      "inc": 1627,
      "##tive": 1628,
      "##ial": 1629,
      "cont": 1630,
      "##ph": 1631,
      "this": 1632,
      "sy": 1633,
      "##fer": 1634,
      "per": 1635,
      "##ge": 1636,
      "##ore": 1637,
      "##ous": 1638,
      "ne": 1639,
      "##ans": 1640,
      "##ou": 1641,
      "##and": 1642,
      "##ys": 1643,
      "en": 1644,
      "##ib": 1645,
      "##ens": 1646,
      "##rou": 1647,
      "##ance": 1648,
      "##form": 1649,
      "tr": 1650,
      "##act": 1651,
      "mod": 1652,
      "##est": 1653,
      "co": 1654,
      "##ition": 1655,
      "eff": 1656,
      "imp": 1657,
      "##iv": 1658,
      "int": 1659,
      "##ap": 1660,
      "##ist": 1661,
      "met": 1662,
      "par": 1663,
      "##ased": 1664,
      "ind": 1665,
      "pati": 1666,
      "##ific": 1667,
      "le": 1668,
      "##olog": 1669,
      "##ary": 1670,
      "##ich": 1671,
      "we": 1672,
      "##enti": 1673,
      "Th": 1674,
      "rec": 1675,
      "##ip": 1676,
      "can": 1677,
      "se": 1678,
      "inter": 1679,
      "cl": 1680,
      "##ual": 1681,
      "##ress": 1682,
      "rel": 1683,
      "##duc": 1684,
      "##enc": 1685,
      "##ave": 1686,
      "##tiv": 1687,
      "##etw": 1688,
      "##ors": 1689,
      "##stem": 1690,
      "##age": 1691,
      "##ia": 1692,
      "dif": 1693,
      "which": 1694,
      "ass": 1695,
      "##end": 1696,
      "##able": 1697,
      "##str": 1698,
      "##all": 1699,
      "di": 1700,
      "patients": 1701,
      "pre": 1702,
      "##ard": 1703,
      "##ep": 1704,
      "##ost": 1705,
      "anal": 1706,
      "sc": 1707,
      "resul": 1708,
      "##iti": 1709,
      "not": 1710,
      "##ular": 1711,
      "ob": 1712,
      "system": 1713,
      "##ork": 1714,
      "pl": 1715,
      "##ech": 1716,
      "cell": 1717,
      "study": 1718,
      "##ther": 1719,
      "have": 1720,
      "gen": 1721,
      "sign": 1722,
      "ev": 1723,
      "##tions": 1724,
      "##ative": 1725,
      "me": 1726,
      "trans": 1727,
      "##yp": 1728,
      "##our": 1729,
      "ab": 1730,
      "ar": 1731,
      "##ak": 1732,
      "##hod": 1733,
      "##ast": 1734,
      "##ong": 1735,
      "##ach": 1736,
      "##vi": 1737,
      "ph": 1738,
      "This": 1739,
      "##pos": 1740,
      "##ari": 1741,
      "differ": 1742,
      "str": 1743,
      "pres": 1744,
      "app": 1745,
      "un": 1746,
      "##cess": 1747,
      "##ory": 1748,
      "##erm": 1749,
      "##tim": 1750,
      "has": 1751,
      "##ide": 1752,
      "des": 1753,
      "##ue": 1754,
      "##ility": 1755,
      "##te": 1756,
      "##rol": 1757,
      "##reat": 1758,
      "det": 1759,
      "cons": 1760,
      "##ric": 1761,
      "model": 1762,
      "##ew": 1763,
      "show": 1764,
      "##erv": 1765,
      "sub": 1766,
      "##velop": 1767,
      "20": 1768,
      "##low": 1769,
      "##ally": 1770,
      "##ill": 1771,
      "##een": 1772,
      "inf": 1773,
      "##rib": 1774,
      "method": 1775,
      "We": 1776,
      "##etween": 1777,
      "##ata": 1778,
      "##gh": 1779,
      "reg": 1780,
      "resp": 1781,
      "between": 1782,
      "incre": 1783,
      "##ection": 1784,
      "##ates": 1785,
      "##ied": 1786,
      "##ass": 1787,
      "sur": 1788,
      "##ight": 1789,
      "##hen": 1790,
      "develop": 1791,
      "##ding": 1792,
      "##ound": 1793,
      "using": 1794,
      "rep": 1795,
      "high": 1796,
      "##ob": 1797,
      "it": 1798,
      "##dition": 1799,
      "##roup": 1800,
      "##ome": 1801,
      "##ating": 1802,
      "inv": 1803,
      "##nder": 1804,
      "##out": 1805,
      "tim": 1806,
      "their": 1807,
      "he": 1808,
      "been": 1809,
      "##ive": 1810,
      "##ects": 1811,
      "results": 1812,
      "##uct": 1813,
      "##are": 1814,
      "man": 1815,
      "##ace": 1816,
      "##unc": 1817,
      "based": 1818,
      "##wo": 1819,
      "##ang": 1820,
      "data": 1821,
      "##anc": 1822,
      "signific": 1823,
      "##ysis": 1824,
      "under": 1825,
      "##ution": 1826,
      "##so": 1827,
      "##ater": 1828,
      "##plic": 1829,
      "##ros": 1830,
      "used": 1831,
      "spec": 1832,
      "##ures": 1833,
      "am": 1834,
      "than": 1835,
      "##ulation": 1836,
      "el": 1837,
      "group": 1838,
      "##tical": 1839,
      "##oth": 1840,
      "##ose": 1841,
      "these": 1842,
      "##ub": 1843,
      "##ted": 1844,
      "control": 1845,
      "suc": 1846,
      "##oci": 1847,
      "##alu": 1848,
      "##ization": 1849,
      "##ree": 1850,
      "significant": 1851,
      "em": 1852,
      "##ack": 1853,
      "cor": 1854,
      "##ected": 1855,
      "sim": 1856,
      "pa": 1857,
      "##tin": 1858,
      "##lu": 1859,
      "##one": 1860,
      "also": 1861,
      "vari": 1862,
      "##cl": 1863,
      "no": 1864,
      "perform": 1865,
      "##ely": 1866,
      "appro": 1867,
      "pos": 1868,
      "##ized": 1869,
      "two": 1870,
      "ag": 1871,
      "##ath": 1872,
      "##ms": 1873,
      "pol": 1874,
      "##tr": 1875,
      "##mun": 1876,
      "exp": 1877,
      "##ood": 1878,
      "dec": 1879,
      "more": 1880,
      "prov": 1881,
      "##yl": 1882,
      "ap": 1883,
      "##echn": 1884,
      "##ons": 1885,
      "##ective": 1886,
      "out": 1887,
      "acc": 1888,
      "##uld": 1889,
      "all": 1890,
      "##ases": 1891,
      "op": 1892,
      "##uring": 1893,
      "time": 1894,
      "level": 1895,
      "##fter": 1896,
      "##ments": 1897,
      "##ile": 1898,
      "##ram": 1899,
      "col": 1900,
      "over": 1901,
      "##ult": 1902,
      "10": 1903,
      "##ym": 1904,
      "but": 1905,
      "##pt": 1906,
      "##ust": 1907,
      "##acter": 1908,
      "exper": 1909,
      "##tain": 1910,
      "low": 1911,
      "use": 1912,
      "##ici": 1913,
      "##tivity": 1914,
      "compar": 1915,
      "##ple": 1916,
      "##hem": 1917,
      "##ond": 1918,
      "present": 1919,
      "##rain": 1920,
      "##atic": 1921,
      "##iss": 1922,
      "##ex": 1923,
      "meas": 1924,
      "analysis": 1925,
      "##ron": 1926,
      "mic": 1927,
      "red": 1928,
      "19": 1929,
      "##ities": 1930,
      "techn": 1931,
      "##hes": 1932,
      "##ite": 1933,
      "med": 1934,
      "qu": 1935,
      "id": 1936,
      "its": 1937,
      "process": 1938,
      "##vely": 1939,
      "paper": 1940,
      "##ven": 1941,
      "##ression": 1942,
      "##ency": 1943,
      "treat": 1944,
      "##urr": 1945,
      "##agn": 1946,
      "##der": 1947,
      "##ail": 1948,
      "year": 1949,
      "other": 1950,
      "##ature": 1951,
      "##ability": 1952,
      "##ational": 1953,
      "##unction": 1954,
      "##ology": 1955,
      "cells": 1956,
      "##aus": 1957,
      "incl": 1958,
      "##ry": 1959,
      "##earch": 1960,
      "##tern": 1961,
      "form": 1962,
      "##als": 1963,
      "gener": 1964,
      "one": 1965,
      "##ions": 1966,
      "prob": 1967,
      "##erg": 1968,
      "##ological": 1969,
      "fact": 1970,
      "##rec": 1971,
      "both": 1972,
      "hy": 1973,
      "new": 1974,
      "different": 1975,
      "sam": 1976,
      "##tig": 1977,
      "##cer": 1978,
      "after": 1979,
      "fin": 1980,
      "##ined": 1981,
      "##ever": 1982,
      "sol": 1983,
      "es": 1984,
      "disc": 1985,
      "##ulti": 1986,
      "char": 1987,
      "such": 1988,
      "may": 1989,
      "##iqu": 1990,
      "bl": 1991,
      "includ": 1992,
      "propos": 1993,
      "work": 1994,
      "##res": 1995,
      "##rap": 1996,
      "mon": 1997,
      "produc": 1998,
      "##ber": 1999,
      "treatment": 2000,
      "##raph": 2001,
      "associ": 2002,
      "##av": 2003,
      "up": 2004,
      "non": 2005,
      "##ural": 2006,
      "typ": 2007,
      "##ential": 2008,
      "##ange": 2009,
      "##entif": 2010,
      "##alth": 2011,
      "##iver": 2012,
      "##row": 2013,
      "St": 2014,
      "##ning": 2015,
      "##ene": 2016,
      "into": 2017,
      "##ement": 2018,
      "dep": 2019,
      "car": 2020,
      "struct": 2021,
      "##ved": 2022,
      "partic": 2023,
      "##rough": 2024,
      "##ild": 2025,
      "whe": 2026,
      "##hed": 2027,
      "##tein": 2028,
      "##tit": 2029,
      "exam": 2030,
      "dist": 2031,
      "supp": 2032,
      "dem": 2033,
      "##cent": 2034,
      "bi": 2035,
      "num": 2036,
      "An": 2037,
      "##ox": 2038,
      "##formation": 2039,
      "##action": 2040,
      "##ration": 2041,
      "during": 2042,
      "well": 2043,
      "impro": 2044,
      "##yn": 2045,
      "##ark": 2046,
      "##ays": 2047,
      "elect": 2048,
      "Al": 2049,
      "fol": 2050,
      "##ole": 2051,
      "##ences": 2052,
      "design": 2053,
      "function": 2054,
      "##now": 2055,
      "##ism": 2056,
      "##osis": 2057,
      "sel": 2058,
      "##gg": 2059,
      "##ease": 2060,
      "##ord": 2061,
      "##ie": 2062,
      "prog": 2063,
      "had": 2064,
      "sec": 2065,
      "##eld": 2066,
      "##ium": 2067,
      "##ten": 2068,
      "obs": 2069,
      "fe": 2070,
      "##ru": 2071,
      "evalu": 2072,
      "##owever": 2073,
      "most": 2074,
      "ma": 2075,
      "It": 2076,
      "ins": 2077,
      "##eg": 2078,
      "##istic": 2079,
      "aut": 2080,
      "character": 2081,
      "##ible": 2082,
      "Ch": 2083,
      "##rop": 2084,
      "##over": 2085,
      "fir": 2086,
      "##NA": 2087,
      "multi": 2088,
      "##itive": 2089,
      "##ice": 2090,
      "##estig": 2091,
      "##les": 2092,
      "def": 2093,
      "import": 2094,
      "found": 2095,
      "##rad": 2096,
      "##00": 2097,
      "clin": 2098,
      "##eng": 2099,
      "loc": 2100,
      "##ants": 2101,
      "ris": 2102,
      "Con": 2103,
      "determ": 2104,
      "##ON": 2105,
      "through": 2106,
      "##ov": 2107,
      "##ield": 2108,
      "##uced": 2109,
      "##edic": 2110,
      "##til": 2111,
      "min": 2112,
      "##ental": 2113,
      "##ian": 2114,
      "##par": 2115,
      "##ok": 2116,
      "gl": 2117,
      "##ould": 2118,
      "##oin": 2119,
      "investig": 2120,
      "##led": 2121,
      "there": 2122,
      "so": 2123,
      "##ane": 2124,
      "##ines": 2125,
      "##arg": 2126,
      "##ider": 2127,
      "##ption": 2128,
      "##ize": 2129,
      "sm": 2130,
      "##ination": 2131,
      "observ": 2132,
      "protein": 2133,
      "##ery": 2134,
      "##mon": 2135,
      "identif": 2136,
      "sens": 2137,
      "##etwork": 2138,
      "anti": 2139,
      "research": 2140,
      "##ik": 2141,
      "##onstr": 2142,
      "hum": 2143,
      "cy": 2144,
      "##ently": 2145,
      "##ital": 2146,
      "##ix": 2147,
      "##lex": 2148,
      "##gor": 2149,
      "##cc": 2150,
      "ser": 2151,
      "only": 2152,
      "##ale": 2153,
      "##hib": 2154,
      "development": 2155,
      "effect": 2156,
      "end": 2157,
      "proble": 2158,
      "health": 2159,
      "sugg": 2160,
      "##ograph": 2161,
      "hig": 2162,
      "pot": 2163,
      "##its": 2164,
      "##ited": 2165,
      "##ful": 2166,
      "cap": 2167,
      "Res": 2168,
      "requ": 2169,
      "when": 2170,
      "experim": 2171,
      "associated": 2172,
      "indic": 2173,
      "##view": 2174,
      "val": 2175,
      "compared": 2176,
      "##ral": 2177,
      "rem": 2178,
      "follow": 2179,
      "test": 2180,
      "##ages": 2181,
      "studies": 2182,
      "term": 2183,
      "years": 2184,
      "performance": 2185,
      "##rel": 2186,
      "first": 2187,
      "applic": 2188,
      "##ough": 2189,
      "##echan": 2190,
      "##usion": 2191,
      "##ne": 2192,
      "##ower": 2193,
      "know": 2194,
      "##amet": 2195,
      "##lement": 2196,
      "##ren": 2197,
      "clinical": 2198,
      "desc": 2199,
      "risk": 2200,
      "condition": 2201,
      "ext": 2202,
      "##gan": 2203,
      "##atory": 2204,
      "proposed": 2205,
      "##uction": 2206,
      "effects": 2207,
      "As": 2208,
      "our": 2209,
      "three": 2210,
      "##tively": 2211,
      "will": 2212,
      "tra": 2213,
      "##hip": 2214,
      "approach": 2215,
      "disease": 2216,
      "##uss": 2217,
      "main": 2218,
      "fre": 2219,
      "##arge": 2220,
      "increased": 2221,
      "##ft": 2222,
      "class": 2223,
      "information": 2224,
      "consider": 2225,
      "##oun": 2226,
      "##ness": 2227,
      "coll": 2228,
      "##ise": 2229,
      "assess": 2230,
      "##por": 2231,
      "network": 2232,
      "##ute": 2233,
      "##gorith": 2234,
      "##oid": 2235,
      "activity": 2236,
      "##idence": 2237,
      "rate": 2238,
      "##ha": 2239,
      "report": 2240,
      "conf": 2241,
      "Com": 2242,
      "##xim": 2243,
      "rad": 2244,
      "some": 2245,
      "##inal": 2246,
      "number": 2247,
      "specific": 2248,
      "expl": 2249,
      "bec": 2250,
      "mechan": 2251,
      "need": 2252,
      "techniqu": 2253,
      "significantly": 2254,
      "human": 2255,
      "analy": 2256,
      "sever": 2257,
      "##ured": 2258,
      "##vir": 2259,
      "##ks": 2260,
      "##ish": 2261,
      "important": 2262,
      "systems": 2263,
      "tem": 2264,
      "##etic": 2265,
      "To": 2266,
      "grow": 2267,
      "higher": 2268,
      "provid": 2269,
      "However": 2270,
      "##ectively": 2271,
      "obtain": 2272,
      "##urther": 2273,
      "These": 2274,
      "levels": 2275,
      "chang": 2276,
      "about": 2277,
      "cal": 2278,
      "demonstr": 2279,
      "##ties": 2280,
      "post": 2281,
      "##fore": 2282,
      "##ake": 2283,
      "##amic": 2284,
      "showed": 2285,
      "they": 2286,
      "child": 2287,
      "oper": 2288,
      "set": 2289,
      "##rog": 2290,
      "##tal": 2291,
      "path": 2292,
      "cr": 2293,
      "##face": 2294,
      "frequ": 2295,
      "algorith": 2296,
      "power": 2297,
      "201": 2298,
      "##acy": 2299,
      "##iter": 2300,
      "##rapy": 2301,
      "where": 2302,
      "who": 2303,
      "qual": 2304,
      "##ire": 2305,
      "##ication": 2306,
      "12": 2307,
      "curr": 2308,
      "caus": 2309,
      "occ": 2310,
      "##ivid": 2311,
      "equ": 2312,
      "predic": 2313,
      "each": 2314,
      "##ues": 2315,
      "cent": 2316,
      "diagn": 2317,
      "##viron": 2318,
      "##ES": 2319,
      "mat": 2320,
      "related": 2321,
      "##emb": 2322,
      "##ormal": 2323,
      "aff": 2324,
      "##ld": 2325,
      "commun": 2326,
      "##havi": 2327,
      "##cop": 2328,
      "measure": 2329,
      "##ergy": 2330,
      "care": 2331,
      "lin": 2332,
      "##round": 2333,
      "##ubl": 2334,
      "bas": 2335,
      "comb": 2336,
      "##CT": 2337,
      "##iod": 2338,
      "##omen": 2339,
      "##ty": 2340,
      "200": 2341,
      "prac": 2342,
      "within": 2343,
      "concent": 2344,
      "##vers": 2345,
      "syn": 2346,
      "##ulated": 2347,
      "mo": 2348,
      "optim": 2349,
      "activ": 2350,
      "##rect": 2351,
      "lim": 2352,
      "##ves": 2353,
      "vol": 2354,
      "##osp": 2355,
      "lik": 2356,
      "methods": 2357,
      "##ma": 2358,
      "age": 2359,
      "cases": 2360,
      "##ogen": 2361,
      "##ision": 2362,
      "##ically": 2363,
      "ear": 2364,
      "describ": 2365,
      "long": 2366,
      "poss": 2367,
      "##onse": 2368,
      "those": 2369,
      "do": 2370,
      "case": 2371,
      "##oph": 2372,
      "type": 2373,
      "field": 2374,
      "expression": 2375,
      "##ults": 2376,
      "##atis": 2377,
      "##ices": 2378,
      "prot": 2379,
      "complex": 2380,
      "##ross": 2381,
      "##oy": 2382,
      "##con": 2383,
      "factors": 2384,
      "depend": 2385,
      "order": 2386,
      "among": 2387,
      "phys": 2388,
      "##ety": 2389,
      "pers": 2390,
      "paramet": 2391,
      "del": 2392,
      "##ily": 2393,
      "##ocial": 2394,
      "##ived": 2395,
      "##agement": 2396,
      "pop": 2397,
      "decre": 2398,
      "immun": 2399,
      "addition": 2400,
      "pe": 2401,
      "tum": 2402,
      "proper": 2403,
      "Ex": 2404,
      "observed": 2405,
      "behavi": 2406,
      "inhib": 2407,
      "cancer": 2408,
      "increase": 2409,
      "##ind": 2410,
      "discuss": 2411,
      "organ": 2412,
      "##ples": 2413,
      "##ject": 2414,
      "groups": 2415,
      "There": 2416,
      "estim": 2417,
      "##ynamic": 2418,
      "environ": 2419,
      "hist": 2420,
      "Un": 2421,
      "##omet": 2422,
      "improve": 2423,
      "role": 2424,
      "##ator": 2425,
      "coun": 2426,
      "how": 2427,
      "response": 2428,
      "distrib": 2429,
      "effici": 2430,
      "av": 2431,
      "artic": 2432,
      "##ension": 2433,
      "Pro": 2434,
      "ep": 2435,
      "##olec": 2436,
      "mark": 2437,
      "##ilar": 2438,
      "potential": 2439,
      "period": 2440,
      "##ock": 2441,
      "while": 2442,
      "micro": 2443,
      "att": 2444,
      "##sy": 2445,
      "energy": 2446,
      "could": 2447,
      "##aterial": 2448,
      "##ateg": 2449,
      "large": 2450,
      "real": 2451,
      "patient": 2452,
      "##ired": 2453,
      "lo": 2454,
      "##ann": 2455,
      "pat": 2456,
      "rat": 2457,
      "ret": 2458,
      "##vention": 2459,
      "prim": 2460,
      "review": 2461,
      "changes": 2462,
      "lead": 2463,
      "##omic": 2464,
      "mean": 2465,
      "##ets": 2466,
      "15": 2467,
      "developed": 2468,
      "structure": 2469,
      "lear": 2470,
      "serv": 2471,
      "##olution": 2472,
      "conditions": 2473,
      "due": 2474,
      "influ": 2475,
      "##ission": 2476,
      "small": 2477,
      "quality": 2478,
      "##tor": 2479,
      "bet": 2480,
      "including": 2481,
      "adv": 2482,
      "##ogn": 2483,
      "##ividual": 2484,
      "spect": 2485,
      "##itor": 2486,
      "sing": 2487,
      "##ocy": 2488,
      "##ET": 2489,
      "relations": 2490,
      "calc": 2491,
      "##ength": 2492,
      "total": 2493,
      "##uce": 2494,
      "##omes": 2495,
      "prof": 2496,
      "obtained": 2497,
      "radi": 2498,
      "hyd": 2499,
      "ox": 2500,
      "##oint": 2501,
      "##ade": 2502,
      "invol": 2503,
      "publ": 2504,
      "##omy": 2505,
      "less": 2506,
      "##oma": 2507,
      "acid": 2508,
      "##ience": 2509,
      "should": 2510,
      "analyz": 2511,
      "##vious": 2512,
      "correl": 2513,
      "ach": 2514,
      "11": 2515,
      "current": 2516,
      "##rug": 2517,
      "##hel": 2518,
      "ref": 2519,
      "state": 2520,
      "est": 2521,
      "achie": 2522,
      "program": 2523,
      "problem": 2524,
      "##val": 2525,
      "models": 2526,
      "##old": 2527,
      "##tis": 2528,
      "surg": 2529,
      "support": 2530,
      "lif": 2531,
      "##cept": 2532,
      "For": 2533,
      "suggest": 2534,
      "##ext": 2535,
      "fil": 2536,
      "induced": 2537,
      "children": 2538,
      "prom": 2539,
      "lower": 2540,
      "##dings": 2541,
      "##ified": 2542,
      "individual": 2543,
      "second": 2544,
      "##ward": 2545,
      "growth": 2546,
      "temper": 2547,
      "##und": 2548,
      "great": 2549,
      "conduc": 2550,
      "##roduc": 2551,
      "sym": 2552,
      "fl": 2553,
      "##ION": 2554,
      "surface": 2555,
      "provide": 2556,
      "many": 2557,
      "##AT": 2558,
      "##fic": 2559,
      "vis": 2560,
      "##lear": 2561,
      "##ests": 2562,
      "##ores": 2563,
      "##asing": 2564,
      "##art": 2565,
      "##asc": 2566,
      "##urs": 2567,
      "without": 2568,
      "valu": 2569,
      "##irc": 2570,
      "integ": 2571,
      "algorithm": 2572,
      "flu": 2573,
      "characteristic": 2574,
      "##atures": 2575,
      "social": 2576,
      "##ving": 2577,
      "##ality": 2578,
      "range": 2579,
      "aim": 2580,
      "respectively": 2581,
      "##ody": 2582,
      "stand": 2583,
      "##oss": 2584,
      "environment": 2585,
      "##jor": 2586,
      "foc": 2587,
      "tri": 2588,
      "single": 2589,
      "##stand": 2590,
      "##ced": 2591,
      "##pec": 2592,
      "blood": 2593,
      "inj": 2594,
      "##rid": 2595,
      "similar": 2596,
      "##reated": 2597,
      "performed": 2598,
      "##ished": 2599,
      "##ces": 2600,
      "te": 2601,
      "common": 2602,
      "Am": 2603,
      "##ification": 2604,
      "##rin": 2605,
      "##ey": 2606,
      "local": 2607,
      "##put": 2608,
      "adm": 2609,
      "extr": 2610,
      "deg": 2611,
      "strateg": 2612,
      "material": 2613,
      "major": 2614,
      "##jects": 2615,
      "presented": 2616,
      "Met": 2617,
      "repres": 2618,
      "##roph": 2619,
      "##ists": 2620,
      "management": 2621,
      "normal": 2622,
      "add": 2623,
      "vir": 2624,
      "various": 2625,
      "##ax": 2626,
      "##esting": 2627,
      "molec": 2628,
      "month": 2629,
      "##ause": 2630,
      "vi": 2631,
      "factor": 2632,
      "##af": 2633,
      "##aging": 2634,
      "reve": 2635,
      "water": 2636,
      "##ulations": 2637,
      "sk": 2638,
      "##TS": 2639,
      "##ronic": 2640,
      "chem": 2641,
      "##abl": 2642,
      "relationship": 2643,
      "##ick": 2644,
      "flow": 2645,
      "cult": 2646,
      "initi": 2647,
      "##plet": 2648,
      "Re": 2649,
      "drug": 2650,
      "18": 2651,
      "phase": 2652,
      "part": 2653,
      "general": 2654,
      "accur": 2655,
      "educ": 2656,
      "Im": 2657,
      "positive": 2658,
      "same": 2659,
      "##ately": 2660,
      "##tics": 2661,
      "enh": 2662,
      "##orph": 2663,
      "sequ": 2664,
      "article": 2665,
      "pattern": 2666,
      "them": 2667,
      "any": 2668,
      "dom": 2669,
      "dim": 2670,
      "hyper": 2671,
      "Ad": 2672,
      "fac": 2673,
      "dev": 2674,
      "cost": 2675,
      "tiss": 2676,
      "life": 2677,
      "giv": 2678,
      "##ensity": 2679,
      "focus": 2680,
      "outc": 2681,
      "sit": 2682,
      "##ains": 2683,
      "parameters": 2684,
      "sour": 2685,
      "##DS": 2686,
      "##ploy": 2687,
      "cat": 2688,
      "##amm": 2689,
      "##arm": 2690,
      "##aw": 2691,
      "plas": 2692,
      "##ardi": 2693,
      "neg": 2694,
      "hyp": 2695,
      "particular": 2696,
      "##utions": 2697,
      "properties": 2698,
      "##CL": 2699,
      "II": 2700,
      "rece": 2701,
      "frequency": 2702,
      "learning": 2703,
      "lab": 2704,
      "my": 2705,
      "very": 2706,
      "##ool": 2707,
      "14": 2708,
      "pur": 2709,
      "##ivers": 2710,
      "contrib": 2711,
      "##uted": 2712,
      "Ind": 2713,
      "##ior": 2714,
      "auth": 2715,
      "##erc": 2716,
      "respons": 2717,
      "value": 2718,
      "allow": 2719,
      "reported": 2720,
      "press": 2721,
      "##ledge": 2722,
      "change": 2723,
      "therapy": 2724,
      "effective": 2725,
      "13": 2726,
      "##ography": 2727,
      "fam": 2728,
      "women": 2729,
      "##air": 2730,
      "##oper": 2731,
      "standard": 2732,
      "hel": 2733,
      "particip": 2734,
      "region": 2735,
      "##hesis": 2736,
      "fib": 2737,
      "previous": 2738,
      "##ival": 2739,
      "contr": 2740,
      "implement": 2741,
      "four": 2742,
      "##cle": 2743,
      "gu": 2744,
      "##eness": 2745,
      "##IV": 2746,
      "rati": 2747,
      "abs": 2748,
      "compon": 2749,
      "##med": 2750,
      "iss": 2751,
      "30": 2752,
      "Results": 2753,
      "##AR": 2754,
      "##onal": 2755,
      "##uch": 2756,
      "##ER": 2757,
      "contin": 2758,
      "understand": 2759,
      "temperature": 2760,
      "values": 2761,
      "der": 2762,
      "early": 2763,
      "impact": 2764,
      "##ances": 2765,
      "gene": 2766,
      "multiple": 2767,
      "##osph": 2768,
      "##cin": 2769,
      "00": 2770,
      "then": 2771,
      "studied": 2772,
      "several": 2773,
      "dynamic": 2774,
      "##tice": 2775,
      "magn": 2776,
      "##ude": 2777,
      "result": 2778,
      "##ference": 2779,
      "Ab": 2780,
      "reveal": 2781,
      "further": 2782,
      "##ier": 2783,
      "circ": 2784,
      "area": 2785,
      "##anced": 2786,
      "##ators": 2787,
      "##sych": 2788,
      "species": 2789,
      "targ": 2790,
      "25": 2791,
      "students": 2792,
      "##though": 2793,
      "##de": 2794,
      "199": 2795,
      "ques": 2796,
      "##ST": 2797,
      "##ings": 2798,
      "measured": 2799,
      "size": 2800,
      "avail": 2801,
      "##aking": 2802,
      "synt": 2803,
      "##oles": 2804,
      "findings": 2805,
      "##roscop": 2806,
      "nan": 2807,
      "phot": 2808,
      "##lin": 2809,
      "At": 2810,
      "##ffici": 2811,
      "appl": 2812,
      "##tes": 2813,
      "memb": 2814,
      "##rr": 2815,
      "signal": 2816,
      "sch": 2817,
      "##ev": 2818,
      "technique": 2819,
      "characteristics": 2820,
      "##ode": 2821,
      "recep": 2822,
      "##ran": 2823,
      "being": 2824,
      "mus": 2825,
      "CO": 2826,
      "He": 2827,
      "bu": 2828,
      "##sequ": 2829,
      "##ount": 2830,
      "##otyp": 2831,
      "##aining": 2832,
      "differences": 2833,
      "possible": 2834,
      "##els": 2835,
      "##ware": 2836,
      "Sc": 2837,
      "shown": 2838,
      "application": 2839,
      "##emic": 2840,
      "nec": 2841,
      "##oh": 2842,
      "evidence": 2843,
      "Our": 2844,
      "##nal": 2845,
      "##US": 2846,
      "increasing": 2847,
      "stim": 2848,
      "wor": 2849,
      "knowledge": 2850,
      "On": 2851,
      "##anti": 2852,
      "success": 2853,
      "chall": 2854,
      "##ands": 2855,
      "bre": 2856,
      "##plications": 2857,
      "identified": 2858,
      "16": 2859,
      "expos": 2860,
      "tool": 2861,
      "##ptom": 2862,
      "fram": 2863,
      "mut": 2864,
      "##isms": 2865,
      "did": 2866,
      "liter": 2867,
      "##ospital": 2868,
      "direct": 2869,
      "##ening": 2870,
      "##las": 2871,
      "##otic": 2872,
      "Ac": 2873,
      "Ph": 2874,
      "if": 2875,
      "better": 2876,
      "et": 2877,
      "##RA": 2878,
      "phen": 2879,
      "##ung": 2880,
      "##ained": 2881,
      "behavior": 2882,
      "lay": 2883,
      "##eed": 2884,
      "resist": 2885,
      "##king": 2886,
      "constr": 2887,
      "pri": 2888,
      "##ised": 2889,
      "tumor": 2890,
      "wee": 2891,
      "reduced": 2892,
      "again": 2893,
      "population": 2894,
      "##inc": 2895,
      "50": 2896,
      "##actions": 2897,
      "loss": 2898,
      "##orts": 2899,
      "experimental": 2900,
      "features": 2901,
      "##cep": 2902,
      "self": 2903,
      "detection": 2904,
      "days": 2905,
      "ul": 2906,
      "##ince": 2907,
      "econ": 2908,
      "super": 2909,
      "applications": 2910,
      "##ND": 2911,
      "investigated": 2912,
      "CD": 2913,
      "establ": 2914,
      "##mit": 2915,
      "##ins": 2916,
      "##ules": 2917,
      "cri": 2918,
      "would": 2919,
      "##ascular": 2920,
      "Tr": 2921,
      "like": 2922,
      "fail": 2923,
      "##izing": 2924,
      "##ler": 2925,
      "##eter": 2926,
      "##verage": 2927,
      "production": 2928,
      "primary": 2929,
      "presence": 2930,
      "##line": 2931,
      "mass": 2932,
      "##up": 2933,
      "mal": 2934,
      "antib": 2935,
      "pul": 2936,
      "const": 2937,
      "novel": 2938,
      "##ressed": 2939,
      "fem": 2940,
      "95": 2941,
      "ver": 2942,
      "##eric": 2943,
      "##ither": 2944,
      "treated": 2945,
      "known": 2946,
      "cyt": 2947,
      "distribution": 2948,
      "il": 2949,
      "compos": 2950,
      "ele": 2951,
      "applied": 2952,
      "complet": 2953,
      "Wh": 2954,
      "strong": 2955,
      "proced": 2956,
      "pressure": 2957,
      "##ering": 2958,
      "##aneous": 2959,
      "because": 2960,
      "##uture": 2961,
      "represent": 2962,
      "##ient": 2963,
      "samples": 2964,
      "off": 2965,
      "##ording": 2966,
      "##ibility": 2967,
      "##olic": 2968,
      "problems": 2969,
      "day": 2970,
      "bin": 2971,
      "##ually": 2972,
      "Sp": 2973,
      "eng": 2974,
      "##epend": 2975,
      "diagnosis": 2976,
      "free": 2977,
      "##andom": 2978,
      "techniques": 2979,
      "stress": 2980,
      "##UL": 2981,
      "##itation": 2982,
      "given": 2983,
      "train": 2984,
      "##HO": 2985,
      "##rm": 2986,
      "##AC": 2987,
      "Us": 2988,
      "considered": 2989,
      "DNA": 2990,
      "determine": 2991,
      "##abil": 2992,
      "appear": 2993,
      "##ople": 2994,
      "fr": 2995,
      "enc": 2996,
      "##ended": 2997,
      "##atively": 2998,
      "##ury": 2999,
      "image": 3000,
      "months": 3001,
      "good": 3002,
      "##red": 3003,
      "24": 3004,
      "##ters": 3005,
      "##urn": 3006,
      "CON": 3007,
      "sl": 3008,
      "##isting": 3009,
      "##ug": 3010,
      "util": 3011,
      "nuc": 3012,
      "##rogen": 3013,
      "##pective": 3014,
      "17": 3015,
      "before": 3016,
      "ge": 3017,
      "##verse": 3018,
      "neu": 3019,
      "##eu": 3020,
      "##uration": 3021,
      "following": 3022,
      "concentration": 3023,
      "##ison": 3024,
      "made": 3025,
      "concl": 3026,
      "mg": 3027,
      "##hers": 3028,
      "weight": 3029,
      "help": 3030,
      "##ially": 3031,
      "cardi": 3032,
      "ratio": 3033,
      "ang": 3034,
      "require": 3035,
      "##ics": 3036,
      "against": 3037,
      "maxim": 3038,
      "bene": 3039,
      "bel": 3040,
      "exc": 3041,
      "rates": 3042,
      "bo": 3043,
      "##ner": 3044,
      "##IC": 3045,
      "available": 3046,
      "ful": 3047,
      "100": 3048,
      "employ": 3049,
      "identify": 3050,
      "top": 3051,
      "target": 3052,
      "grad": 3053,
      "body": 3054,
      "statis": 3055,
      "carri": 3056,
      "admin": 3057,
      "##ectiv": 3058,
      "Method": 3059,
      "read": 3060,
      "symptom": 3061,
      "psych": 3062,
      "dri": 3063,
      "medical": 3064,
      "carb": 3065,
      "key": 3066,
      "ro": 3067,
      "short": 3068,
      "public": 3069,
      "vit": 3070,
      "influence": 3071,
      "whether": 3072,
      "##ume": 3073,
      "RES": 3074,
      "demonstrated": 3075,
      "##ble": 3076,
      "##ector": 3077,
      "##ste": 3078,
      "reduction": 3079,
      "hem": 3080,
      "##ymph": 3081,
      "determined": 3082,
      "isol": 3083,
      "##az": 3084,
      "PC": 3085,
      "Stud": 3086,
      "Rec": 3087,
      "included": 3088,
      "light": 3089,
      "##jective": 3090,
      "tissue": 3091,
      "technology": 3092,
      "diagnos": 3093,
      "linear": 3094,
      "Further": 3095,
      "cre": 3096,
      "functional": 3097,
      "With": 3098,
      "random": 3099,
      "infection": 3100,
      "adap": 3101,
      "hand": 3102,
      "##reg": 3103,
      "##ystem": 3104,
      "CI": 3105,
      "recom": 3106,
      "concentr": 3107,
      "minim": 3108,
      "##of": 3109,
      "analys": 3110,
      "regard": 3111,
      "##aly": 3112,
      "##gen": 3113,
      "provides": 3114,
      "##ides": 3115,
      "consum": 3116,
      "##ries": 3117,
      "theory": 3118,
      "consist": 3119,
      "people": 3120,
      "05": 3121,
      "##tered": 3122,
      "often": 3123,
      "##own": 3124,
      "##atus": 3125,
      "content": 3126,
      "##ables": 3127,
      "valid": 3128,
      "rob": 3129,
      "prec": 3130,
      "Fin": 3131,
      "revealed": 3132,
      "even": 3133,
      "solution": 3134,
      "polic": 3135,
      "##ework": 3136,
      "types": 3137,
      "physical": 3138,
      "En": 3139,
      "sw": 3140,
      "##rial": 3141,
      "surv": 3142,
      "negative": 3143,
      "point": 3144,
      "formation": 3145,
      "soft": 3146,
      "evaluated": 3147,
      "evaluation": 3148,
      "##yd": 3149,
      "##OS": 3150,
      "##ections": 3151,
      "polym": 3152,
      "chann": 3153,
      "##ule": 3154,
      "##tically": 3155,
      "##cri": 3156,
      "##oor": 3157,
      "##obal": 3158,
      "his": 3159,
      "literature": 3160,
      "Based": 3161,
      "introduc": 3162,
      "phosph": 3163,
      "recogn": 3164,
      "##USION": 3165,
      "##pose": 3166,
      "##itivity": 3167,
      "occurr": 3168,
      "##olar": 3169,
      "##plant": 3170,
      "dependent": 3171,
      "line": 3172,
      "mice": 3173,
      "continu": 3174,
      "conducted": 3175,
      "##active": 3176,
      "##na": 3177,
      "##CLUSION": 3178,
      "go": 3179,
      "##IN": 3180,
      "analyzed": 3181,
      "##aches": 3182,
      "capac": 3183,
      "world": 3184,
      "CONCLUSION": 3185,
      "orig": 3186,
      "difference": 3187,
      "##mission": 3188,
      "##ising": 3189,
      "future": 3190,
      "##ensive": 3191,
      "err": 3192,
      "RESUL": 3193,
      "adj": 3194,
      "scale": 3195,
      "education": 3196,
      "infl": 3197,
      "cross": 3198,
      "##uter": 3199,
      "##eth": 3200,
      "back": 3201,
      "##och": 3202,
      "space": 3203,
      "position": 3204,
      "##zym": 3205,
      "examined": 3206,
      "Using": 3207,
      "##stract": 3208,
      "moder": 3209,
      "##way": 3210,
      "tas": 3211,
      "mm": 3212,
      "RESULTS": 3213,
      "load": 3214,
      "##IS": 3215,
      "cur": 3216,
      "resour": 3217,
      "mechanism": 3218,
      "efficiency": 3219,
      "De": 3220,
      "independ": 3221,
      "##amin": 3222,
      "MET": 3223,
      "plasma": 3224,
      "either": 3225,
      "##ret": 3226,
      "terms": 3227,
      "integr": 3228,
      "Mod": 3229,
      "lymph": 3230,
      "simulation": 3231,
      "##ling": 3232,
      "surgery": 3233,
      "surve": 3234,
      "Des": 3235,
      "active": 3236,
      "##ographic": 3237,
      "access": 3238,
      "her": 3239,
      "schem": 3240,
      "recent": 3241,
      "brain": 3242,
      "hear": 3243,
      "processes": 3244,
      "All": 3245,
      "##ae": 3246,
      "Ar": 3247,
      "required": 3248,
      "40": 3249,
      "dose": 3250,
      "confir": 3251,
      "monitor": 3252,
      "##othe": 3253,
      "##roc": 3254,
      "decreased": 3255,
      "##ason": 3256,
      "via": 3257,
      "resid": 3258,
      "##MP": 3259,
      "##ogene": 3260,
      "##orb": 3261,
      "##ument": 3262,
      "##ining": 3263,
      "improved": 3264,
      "cer": 3265,
      "medi": 3266,
      "refl": 3267,
      "##AL": 3268,
      "hospital": 3269,
      "##eration": 3270,
      "doc": 3271,
      "##ably": 3272,
      "arter": 3273,
      "greater": 3274,
      "##ious": 3275,
      "larg": 3276,
      "evaluate": 3277,
      "asp": 3278,
      "##till": 3279,
      "view": 3280,
      "##ecting": 3281,
      "sample": 3282,
      "areas": 3283,
      "##fact": 3284,
      "described": 3285,
      "you": 3286,
      "##AS": 3287,
      "##vement": 3288,
      "question": 3289,
      "bound": 3290,
      "##RO": 3291,
      "molecular": 3292,
      "##ean": 3293,
      "therm": 3294,
      "atten": 3295,
      "Concl": 3296,
      "framework": 3297,
      "eth": 3298,
      "##eh": 3299,
      "vers": 3300,
      "strain": 3301,
      "##port": 3302,
      "##ights": 3303,
      "ed": 3304,
      "pain": 3305,
      "##itis": 3306,
      "subjects": 3307,
      "saf": 3308,
      "plan": 3309,
      "##angu": 3310,
      "METHO": 3311,
      "anim": 3312,
      "dig": 3313,
      "emerg": 3314,
      "source": 3315,
      "act": 3316,
      "count": 3317,
      "les": 3318,
      "binding": 3319,
      "##urb": 3320,
      "##amp": 3321,
      "density": 3322,
      "serum": 3323,
      "##rane": 3324,
      "##aces": 3325,
      "##unctions": 3326,
      "step": 3327,
      "##read": 3328,
      "way": 3329,
      "No": 3330,
      "approxim": 3331,
      "critical": 3332,
      "however": 3333,
      "##ession": 3334,
      "play": 3335,
      "stage": 3336,
      "practice": 3337,
      "##atter": 3338,
      "##operative": 3339,
      "average": 3340,
      "##iat": 3341,
      "men": 3342,
      "experiments": 3343,
      "dat": 3344,
      "##iversity": 3345,
      "##vent": 3346,
      "direc": 3347,
      "discussed": 3348,
      "family": 3349,
      "arg": 3350,
      "record": 3351,
      "emb": 3352,
      "dimension": 3353,
      "understanding": 3354,
      "conn": 3355,
      "##apid": 3356,
      "##ustr": 3357,
      "visual": 3358,
      "ess": 3359,
      "benef": 3360,
      "feed": 3361,
      "##odes": 3362,
      "##wn": 3363,
      "##ground": 3364,
      "##eral": 3365,
      "##ulate": 3366,
      "measurements": 3367,
      "challeng": 3368,
      "designed": 3369,
      "length": 3370,
      "metab": 3371,
      "acute": 3372,
      "index": 3373,
      "##ones": 3374,
      "Although": 3375,
      "subs": 3376,
      "structures": 3377,
      "context": 3378,
      "Par": 3379,
      "nat": 3380,
      "Cl": 3381,
      "clear": 3382,
      "##RNA": 3383,
      "##ct": 3384,
      "##tional": 3385,
      "prepar": 3386,
      "21": 3387,
      "##aps": 3388,
      "##pr": 3389,
      "concept": 3390,
      "tradition": 3391,
      "60": 3392,
      "highly": 3393,
      "##tle": 3394,
      "Abstract": 3395,
      "useful": 3396,
      "sex": 3397,
      "proteins": 3398,
      "diffic": 3399,
      "investigate": 3400,
      "scre": 3401,
      "accuracy": 3402,
      "air": 3403,
      "demonstrate": 3404,
      "lip": 3405,
      "times": 3406,
      "find": 3407,
      "school": 3408,
      "concentrations": 3409,
      "##ching": 3410,
      "Co": 3411,
      "therap": 3412,
      "assessment": 3413,
      "old": 3414,
      "##pecially": 3415,
      "22": 3416,
      "##resp": 3417,
      "receptor": 3418,
      "##ulin": 3419,
      "inflamm": 3420,
      "concer": 3421,
      "mix": 3422,
      "history": 3423,
      "resistance": 3424,
      "training": 3425,
      "transfer": 3426,
      "situ": 3427,
      "call": 3428,
      "separ": 3429,
      "toward": 3430,
      "Dis": 3431,
      "mob": 3432,
      "ability": 3433,
      "##overn": 3434,
      "##lation": 3435,
      "necess": 3436,
      "##ense": 3437,
      "##fficient": 3438,
      "##ID": 3439,
      "##EN": 3440,
      "##other": 3441,
      "arch": 3442,
      "System": 3443,
      "kg": 3444,
      "Americ": 3445,
      "##GF": 3446,
      "shows": 3447,
      "outcomes": 3448,
      "genetic": 3449,
      "reli": 3450,
      "volume": 3451,
      "mechanisms": 3452,
      "More": 3453,
      "##rim": 3454,
      "##iving": 3455,
      "networks": 3456,
      "log": 3457,
      "##ame": 3458,
      "does": 3459,
      "hep": 3460,
      "##lying": 3461,
      "rats": 3462,
      "chronic": 3463,
      "indicate": 3464,
      "interaction": 3465,
      "link": 3466,
      "##ying": 3467,
      "##ancy": 3468,
      "##antit": 3469,
      "genes": 3470,
      "mem": 3471,
      "##ryst": 3472,
      "wave": 3473,
      "##EM": 3474,
      "##usions": 3475,
      "##tors": 3476,
      "##PS": 3477,
      "imaging": 3478,
      "##rac": 3479,
      "las": 3480,
      "cycl": 3481,
      "meth": 3482,
      "images": 3483,
      "survival": 3484,
      "poly": 3485,
      "##eti": 3486,
      "global": 3487,
      "01": 3488,
      "relative": 3489,
      "##ours": 3490,
      "communication": 3491,
      "approaches": 3492,
      "enzym": 3493,
      "deliver": 3494,
      "authors": 3495,
      "economic": 3496,
      "across": 3497,
      "experience": 3498,
      "especially": 3499,
      "prol": 3500,
      "correlation": 3501,
      "reduc": 3502,
      "layer": 3503,
      "##rome": 3504,
      "rest": 3505,
      "five": 3506,
      "much": 3507,
      "activities": 3508,
      "gluc": 3509,
      "near": 3510,
      "METHODS": 3511,
      "soci": 3512,
      "diab": 3513,
      "involved": 3514,
      "few": 3515,
      "components": 3516,
      "opp": 3517,
      "ur": 3518,
      "what": 3519,
      "##ologies": 3520,
      "000": 3521,
      "services": 3522,
      "reduce": 3523,
      "##urity": 3524,
      "initial": 3525,
      "symptoms": 3526,
      "liver": 3527,
      "rapid": 3528,
      "bro": 3529,
      "sal": 3530,
      "derived": 3531,
      "functions": 3532,
      "bacter": 3533,
      "Eff": 3534,
      "##inant": 3535,
      "still": 3536,
      "##ture": 3537,
      "shap": 3538,
      "caused": 3539,
      "ren": 3540,
      "New": 3541,
      "##akes": 3542,
      "ide": 3543,
      "basis": 3544,
      "limited": 3545,
      "sensitivity": 3546,
      "interest": 3547,
      "combination": 3548,
      "##esis": 3549,
      "##aken": 3550,
      "##ina": 3551,
      "bone": 3552,
      "Inter": 3553,
      "status": 3554,
      "##oints": 3555,
      "band": 3556,
      "percent": 3557,
      "##pha": 3558,
      "provided": 3559,
      "##ventional": 3560,
      "##ored": 3561,
      "special": 3562,
      "##io": 3563,
      "##emia": 3564,
      "reaction": 3565,
      "propose": 3566,
      "Man": 3567,
      "leg": 3568,
      "patterns": 3569,
      "Per": 3570,
      "##OR": 3571,
      "##otherapy": 3572,
      "subst": 3573,
      "princ": 3574,
      "ol": 3575,
      "means": 3576,
      "##roscopy": 3577,
      "presents": 3578,
      "gra": 3579,
      "least": 3580,
      "##oupl": 3581,
      "processing": 3582,
      "Ass": 3583,
      "##ocytes": 3584,
      "optical": 3585,
      "##lor": 3586,
      "relev": 3587,
      "community": 3588,
      "responses": 3589,
      "##ateral": 3590,
      "purpose": 3591,
      "exposure": 3592,
      "##fusion": 3593,
      "##rem": 3594,
      "simple": 3595,
      "##ilit": 3596,
      "mul": 3597,
      "##gment": 3598,
      "open": 3599,
      "##acc": 3600,
      "##AP": 3601,
      "tested": 3602,
      "successful": 3603,
      "After": 3604,
      "##gn": 3605,
      "sil": 3606,
      "##rient": 3607,
      "altern": 3608,
      "vs": 3609,
      "overall": 3610,
      "##app": 3611,
      "recomm": 3612,
      "##utes": 3613,
      "##ocol": 3614,
      "synd": 3615,
      "##acts": 3616,
      "clos": 3617,
      "##alysis": 3618,
      "experi": 3619,
      "clust": 3620,
      "198": 3621,
      "##hemical": 3622,
      "issues": 3623,
      "Ca": 3624,
      "##icity": 3625,
      "AB": 3626,
      "death": 3627,
      "hydro": 3628,
      "Di": 3629,
      "compound": 3630,
      "detail": 3631,
      "##outh": 3632,
      "contrast": 3633,
      "##istration": 3634,
      "optimal": 3635,
      "Eu": 3636,
      "make": 3637,
      "##asis": 3638,
      "service": 3639,
      "##ites": 3640,
      "##onding": 3641,
      "##ird": 3642,
      "prior": 3643,
      "Ob": 3644,
      "wid": 3645,
      "sus": 3646,
      "efficient": 3647,
      "langu": 3648,
      "numer": 3649,
      "materials": 3650,
      "best": 3651,
      "heter": 3652,
      "intra": 3653,
      "##ove": 3654,
      "Is": 3655,
      "dam": 3656,
      "##atin": 3657,
      "corresp": 3658,
      "according": 3659,
      "yield": 3660,
      "mort": 3661,
      "Methods": 3662,
      "Trans": 3663,
      "##more": 3664,
      "central": 3665,
      "##hest": 3666,
      "exhib": 3667,
      "comparison": 3668,
      "##duce": 3669,
      "##abor": 3670,
      "produced": 3671,
      "followed": 3672,
      "experiment": 3673,
      "strategy": 3674,
      "sem": 3675,
      "poli": 3676,
      "##helial": 3677,
      "spati": 3678,
      "she": 3679,
      "##overy": 3680,
      "site": 3681,
      "detected": 3682,
      "nucle": 3683,
      "cour": 3684,
      "carried": 3685,
      "Sim": 3686,
      "series": 3687,
      "##umm": 3688,
      "##aching": 3689,
      "whereas": 3690,
      "weeks": 3691,
      "El": 3692,
      "##orption": 3693,
      "ever": 3694,
      "##iting": 3695,
      "##ales": 3696,
      "cause": 3697,
      "##aving": 3698,
      "capacity": 3699,
      "##20": 3700,
      "23": 3701,
      "##land": 3702,
      "##pri": 3703,
      "software": 3704,
      "lack": 3705,
      "##encies": 3706,
      "IL": 3707,
      "measurement": 3708,
      "decrease": 3709,
      "ST": 3710,
      "##equ": 3711,
      "##uk": 3712,
      "conver": 3713,
      "virus": 3714,
      "mac": 3715,
      "displ": 3716,
      "##onic": 3717,
      "##brid": 3718,
      "hom": 3719,
      "parti": 3720,
      "defined": 3721,
      "comm": 3722,
      "interp": 3723,
      "generation": 3724,
      "measures": 3725,
      "failure": 3726,
      "tests": 3727,
      "guid": 3728,
      "##ECT": 3729,
      "##epti": 3730,
      "##iatric": 3731,
      "br": 3732,
      "##ressive": 3733,
      "##ellular": 3734,
      "quantit": 3735,
      "##met": 3736,
      "autom": 3737,
      "By": 3738,
      "Pati": 3739,
      "domain": 3740,
      "chrom": 3741,
      "electron": 3742,
      "importance": 3743,
      "strategies": 3744,
      "poor": 3745,
      "##enting": 3746,
      "##iness": 3747,
      "##opath": 3748,
      "individuals": 3749,
      "include": 3750,
      "natural": 3751,
      "collected": 3752,
      "likely": 3753,
      "plat": 3754,
      "events": 3755,
      "##etes": 3756,
      "buil": 3757,
      "001": 3758,
      "##for": 3759,
      "received": 3760,
      "down": 3761,
      "since": 3762,
      "instr": 3763,
      "##otor": 3764,
      "participants": 3765,
      "address": 3766,
      "criter": 3767,
      "##ectiveness": 3768,
      "text": 3769,
      "testing": 3770,
      "##ether": 3771,
      "sci": 3772,
      "activation": 3773,
      "must": 3774,
      "existing": 3775,
      "theore": 3776,
      "##ray": 3777,
      "##AN": 3778,
      "dise": 3779,
      "carbon": 3780,
      "speed": 3781,
      "surgical": 3782,
      "devices": 3783,
      "Furthermore": 3784,
      "##pir": 3785,
      "implementation": 3786,
      "One": 3787,
      "Pre": 3788,
      "##ulating": 3789,
      "##went": 3790,
      "##ouse": 3791,
      "##enced": 3792,
      "vitro": 3793,
      "CT": 3794,
      "diss": 3795,
      "analyses": 3796,
      "govern": 3797,
      "inhibit": 3798,
      "established": 3799,
      "might": 3800,
      "along": 3801,
      "##resh": 3802,
      "selected": 3803,
      "improvement": 3804,
      "heart": 3805,
      "##ways": 3806,
      "place": 3807,
      "tub": 3808,
      "wide": 3809,
      "##iological": 3810,
      "thus": 3811,
      "independent": 3812,
      "OF": 3813,
      "chemical": 3814,
      "operation": 3815,
      "mortality": 3816,
      "fund": 3817,
      "morph": 3818,
      "Col": 3819,
      "mid": 3820,
      "labor": 3821,
      "achieved": 3822,
      "six": 3823,
      "increases": 3824,
      "##SA": 3825,
      "##ote": 3826,
      "dys": 3827,
      "##hetic": 3828,
      "##elf": 3829,
      "resolution": 3830,
      "##ends": 3831,
      "##omp": 3832,
      "##sc": 3833,
      "##ots": 3834,
      "containing": 3835,
      "##titution": 3836,
      "severe": 3837,
      "muscle": 3838,
      "preval": 3839,
      "conventional": 3840,
      "comput": 3841,
      "##rical": 3842,
      "association": 3843,
      "procedure": 3844,
      "food": 3845,
      "law": 3846,
      "##RI": 3847,
      "##ED": 3848,
      "maximum": 3849,
      "countries": 3850,
      "transition": 3851,
      "ste": 3852,
      "breast": 3853,
      "pass": 3854,
      "##atal": 3855,
      "IN": 3856,
      "Sur": 3857,
      "##tage": 3858,
      "appropri": 3859,
      "previously": 3860,
      "hypot": 3861,
      "cop": 3862,
      "##rob": 3863,
      "##ologic": 3864,
      "transform": 3865,
      "block": 3866,
      "Ev": 3867,
      "##ender": 3868,
      "laser": 3869,
      "membrane": 3870,
      "policy": 3871,
      "traditional": 3872,
      "##ibr": 3873,
      "channel": 3874,
      "young": 3875,
      "diseases": 3876,
      "##erve": 3877,
      "28": 3878,
      "Europ": 3879,
      "assessed": 3880,
      "IC": 3881,
      "##inary": 3882,
      "differenti": 3883,
      "##earc": 3884,
      "algorithms": 3885,
      "Here": 3886,
      "##ke": 3887,
      "electro": 3888,
      "##au": 3889,
      "##MS": 3890,
      "coupl": 3891,
      "see": 3892,
      "combined": 3893,
      "cho": 3894,
      "Med": 3895,
      "##aling": 3896,
      "transport": 3897,
      "scheme": 3898,
      "synthesis": 3899,
      "certain": 3900,
      "##odies": 3901,
      "evolution": 3902,
      "##otype": 3903,
      "When": 3904,
      "lung": 3905,
      "##rie": 3906,
      "difficult": 3907,
      "##medi": 3908,
      "##ared": 3909,
      "become": 3910,
      "##Cs": 3911,
      "##uit": 3912,
      "##ream": 3913,
      "nit": 3914,
      "magnetic": 3915,
      "##eutic": 3916,
      "##icacy": 3917,
      "##astic": 3918,
      "Sh": 3919,
      "eas": 3920,
      "effectiveness": 3921,
      "Thus": 3922,
      "35": 3923,
      "agg": 3924,
      "##etal": 3925,
      "syndrome": 3926,
      "ax": 3927,
      "##aff": 3928,
      "##rix": 3929,
      "##ficial": 3930,
      "outcome": 3931,
      "dimensional": 3932,
      "left": 3933,
      "head": 3934,
      "sequence": 3935,
      "Cont": 3936,
      "##ortun": 3937,
      "##ges": 3938,
      "example": 3939,
      "satis": 3940,
      "transmission": 3941,
      "survey": 3942,
      "thin": 3943,
      "ampl": 3944,
      "Intern": 3945,
      "carcin": 3946,
      "protocol": 3947,
      "Therefore": 3948,
      "cryst": 3949,
      "##itect": 3950,
      "regions": 3951,
      "##eline": 3952,
      "HIV": 3953,
      "Pl": 3954,
      "80": 3955,
      "Two": 3956,
      "ir": 3957,
      "profession": 3958,
      "inst": 3959,
      "extract": 3960,
      "##order": 3961,
      "user": 3962,
      "Or": 3963,
      "TH": 3964,
      "##go": 3965,
      "able": 3966,
      "mach": 3967,
      "making": 3968,
      "##izes": 3969,
      "Health": 3970,
      "star": 3971,
      "structural": 3972,
      "describe": 3973,
      "##arri": 3974,
      "monitoring": 3975,
      "##man": 3976,
      "enhance": 3977,
      "##atives": 3978,
      "requir": 3979,
      "advant": 3980,
      "oxid": 3981,
      "##ank": 3982,
      "Analysis": 3983,
      "Eng": 3984,
      "MS": 3985,
      "shif": 3986,
      "controlled": 3987,
      "search": 3988,
      "maintain": 3989,
      "mode": 3990,
      "controls": 3991,
      "achieve": 3992,
      "neur": 3993,
      "output": 3994,
      "users": 3995,
      "author": 3996,
      "attention": 3997,
      "error": 3998,
      "seen": 3999,
      "right": 4000,
      "decision": 4001,
      "Exper": 4002,
      "male": 4003,
      "conc": 4004,
      "products": 4005,
      "##ump": 4006,
      "affected": 4007,
      "##IT": 4008,
      "##ems": 4009,
      "alpha": 4010,
      "##arr": 4011,
      "culture": 4012,
      "##orn": 4013,
      "solutions": 4014,
      "side": 4015,
      "sensor": 4016,
      "intern": 4017,
      "resulting": 4018,
      "necessary": 4019,
      "own": 4020,
      "##ogenic": 4021,
      "engine": 4022,
      "##plication": 4023,
      "broad": 4024,
      "##MA": 4025,
      "strength": 4026,
      "injury": 4027,
      "nature": 4028,
      "##arc": 4029,
      "incidence": 4030,
      "hal": 4031,
      "adop": 4032,
      "section": 4033,
      "##lo": 4034,
      "prop": 4035,
      "language": 4036,
      "characterized": 4037,
      "spatial": 4038,
      "##hood": 4039,
      "##tinal": 4040,
      "bus": 4041,
      "cm": 4042,
      "gas": 4043,
      "##aged": 4044,
      "##ometric": 4045,
      "fluid": 4046,
      "fa": 4047,
      "acqu": 4048,
      "sites": 4049,
      "##ygen": 4050,
      "##ehic": 4051,
      "AT": 4052,
      "Data": 4053,
      "ion": 4054,
      "##ique": 4055,
      "resources": 4056,
      "composition": 4057,
      "Research": 4058,
      "hard": 4059,
      "optimization": 4060,
      "variables": 4061,
      "##uting": 4062,
      "Finally": 4063,
      "degree": 4064,
      "Af": 4065,
      "additional": 4066,
      "soil": 4067,
      "University": 4068,
      "##position": 4069,
      "##orpor": 4070,
      "26": 4071,
      "AD": 4072,
      "##tices": 4073,
      "exist": 4074,
      "##umin": 4075,
      "enhanced": 4076,
      "##pite": 4077,
      "stability": 4078,
      "##strate": 4079,
      "environmental": 4080,
      "indicated": 4081,
      "Le": 4082,
      "##ognitive": 4083,
      "##10": 4084,
      "Patients": 4085,
      "course": 4086,
      "transcri": 4087,
      "Moreover": 4088,
      "developing": 4089,
      "account": 4090,
      "efficacy": 4091,
      "component": 4092,
      "constrain": 4093,
      "PD": 4094,
      "##cence": 4095,
      "27": 4096,
      "past": 4097,
      "Inc": 4098,
      "perce": 4099,
      "book": 4100,
      "states": 4101,
      "Comp": 4102,
      "##CC": 4103,
      "though": 4104,
      "female": 4105,
      "45": 4106,
      "##enz": 4107,
      "##arb": 4108,
      "##aries": 4109,
      "##ino": 4110,
      "gly": 4111,
      "plant": 4112,
      "suggests": 4113,
      "matrix": 4114,
      "peak": 4115,
      "task": 4116,
      "computer": 4117,
      "project": 4118,
      "##amine": 4119,
      "##ope": 4120,
      "##here": 4121,
      "digital": 4122,
      "complete": 4123,
      "objective": 4124,
      "tox": 4125,
      "voltage": 4126,
      "product": 4127,
      "##orders": 4128,
      "action": 4129,
      "##certain": 4130,
      "points": 4131,
      "regression": 4132,
      "gast": 4133,
      "Study": 4134,
      "appropriate": 4135,
      "dynamics": 4136,
      "ter": 4137,
      "release": 4138,
      "needed": 4139,
      "isolated": 4140,
      "##itude": 4141,
      "##rum": 4142,
      "lit": 4143,
      "detect": 4144,
      "issue": 4145,
      "theoretical": 4146,
      "##acement": 4147,
      "90": 4148,
      "setting": 4149,
      "skin": 4150,
      "##bo": 4151,
      "##tif": 4152,
      "##oplas": 4153,
      "limit": 4154,
      "interactions": 4155,
      "allows": 4156,
      "glucose": 4157,
      "Op": 4158,
      "noise": 4159,
      "needs": 4160,
      "amount": 4161,
      "ill": 4162,
      "biological": 4163,
      "ens": 4164,
      "##ivo": 4165,
      "essential": 4166,
      "##ars": 4167,
      "sources": 4168,
      "hypert": 4169,
      "market": 4170,
      "input": 4171,
      "pregn": 4172,
      "concern": 4173,
      "OB": 4174,
      "##iquid": 4175,
      "particularly": 4176,
      "safety": 4177,
      "relevant": 4178,
      "AND": 4179,
      "device": 4180,
      "media": 4181,
      "healthy": 4182,
      "##less": 4183,
      "cycle": 4184,
      "continuous": 4185,
      "##que": 4186,
      "##hens": 4187,
      "Int": 4188,
      "diet": 4189,
      "##elect": 4190,
      "elements": 4191,
      "fix": 4192,
      "inn": 4193,
      "classification": 4194,
      "calculated": 4195,
      "orient": 4196,
      "##monary": 4197,
      "##ered": 4198,
      "fat": 4199,
      "epit": 4200,
      "architect": 4201,
      "Multi": 4202,
      "rather": 4203,
      "##back": 4204,
      "selection": 4205,
      "Compar": 4206,
      "agents": 4207,
      "beta": 4208,
      "CS": 4209,
      "challenges": 4210,
      "Reg": 4211,
      "affect": 4212,
      "American": 4213,
      "criteria": 4214,
      "last": 4215,
      "Str": 4216,
      "dou": 4217,
      "pharm": 4218,
      "quanti": 4219,
      "##pers": 4220,
      "ec": 4221,
      "##ify": 4222,
      "now": 4223,
      "coe": 4224,
      "variation": 4225,
      "lesions": 4226,
      "vivo": 4227,
      "antig": 4228,
      "delay": 4229,
      "generated": 4230,
      "Fe": 4231,
      "##elling": 4232,
      "sensitive": 4233,
      "wa": 4234,
      "radiation": 4235,
      "##ime": 4236,
      "offer": 4237,
      "drugs": 4238,
      "thermal": 4239,
      "Ag": 4240,
      "hybrid": 4241,
      "neut": 4242,
      "mig": 4243,
      "##yro": 4244,
      "dos": 4245,
      "thick": 4246,
      "beam": 4247,
      "secondary": 4248,
      "pred": 4249,
      "internal": 4250,
      "subsequ": 4251,
      "therapeutic": 4252,
      "Bl": 4253,
      "summ": 4254,
      "##ili": 4255,
      "##entially": 4256,
      "upon": 4257,
      "tempor": 4258,
      "metabol": 4259,
      "Pol": 4260,
      "medic": 4261,
      "##ometry": 4262,
      "refer": 4263,
      "##ulf": 4264,
      "therefore": 4265,
      "administration": 4266,
      "tumors": 4267,
      "inflammatory": 4268,
      "CONCLUSIONS": 4269,
      "##allel": 4270,
      "fer": 4271,
      "##ending": 4272,
      "ultr": 4273,
      "aspects": 4274,
      "32": 4275,
      "run": 4276,
      "examine": 4277,
      "Em": 4278,
      "prost": 4279,
      "##AD": 4280,
      "Si": 4281,
      "##uts": 4282,
      "da": 4283,
      "intervention": 4284,
      "prevalence": 4285,
      "Sec": 4286,
      "adult": 4287,
      "##ises": 4288,
      "above": 4289,
      "consumption": 4290,
      "full": 4291,
      "estimated": 4292,
      "adjust": 4293,
      "complications": 4294,
      "heat": 4295,
      "descri": 4296,
      "tools": 4297,
      "mediated": 4298,
      "##ustry": 4299,
      "##oding": 4300,
      "Me": 4301,
      "around": 4302,
      "##not": 4303,
      "##normal": 4304,
      "##RP": 4305,
      "reference": 4306,
      "reson": 4307,
      "chain": 4308,
      "distin": 4309,
      "memory": 4310,
      "regulation": 4311,
      "Afric": 4312,
      "fu": 4313,
      "pros": 4314,
      "##eloc": 4315,
      "##ict": 4316,
      "##itable": 4317,
      "respond": 4318,
      "##omer": 4319,
      "expressed": 4320,
      "security": 4321,
      "polymer": 4322,
      "called": 4323,
      "graph": 4324,
      "propor": 4325,
      "suggested": 4326,
      "teac": 4327,
      "renal": 4328,
      "element": 4329,
      "examination": 4330,
      "consistent": 4331,
      "36": 4332,
      "##ton": 4333,
      "construct": 4334,
      "##aring": 4335,
      "immune": 4336,
      "dra": 4337,
      "Acc": 4338,
      "##ritis": 4339,
      "neural": 4340,
      "##omal": 4341,
      "coron": 4342,
      "High": 4343,
      "forms": 4344,
      "##O2": 4345,
      "##ereb": 4346,
      "correlated": 4347,
      "damage": 4348,
      "31": 4349,
      "Gen": 4350,
      "Sub": 4351,
      "national": 4352,
      "##inated": 4353,
      "relatively": 4354,
      "elev": 4355,
      "3D": 4356,
      "##LA": 4357,
      "##JECT": 4358,
      "programm": 4359,
      "track": 4360,
      "confirmed": 4361,
      "##ills": 4362,
      "Imp": 4363,
      "While": 4364,
      "33": 4365,
      "Cent": 4366,
      "vehic": 4367,
      "Ins": 4368,
      "regarding": 4369,
      "29": 4370,
      "pack": 4371,
      "rang": 4372,
      "whole": 4373,
      "kin": 4374,
      "taken": 4375,
      "polar": 4376,
      "##ident": 4377,
      "medium": 4378,
      "feature": 4379,
      "From": 4380,
      "##rehens": 4381,
      "core": 4382,
      "sust": 4383,
      "colon": 4384,
      "##urrent": 4385,
      "liquid": 4386,
      "motion": 4387,
      "Back": 4388,
      "##try": 4389,
      "requirements": 4390,
      "alternative": 4391,
      "Cons": 4392,
      "animals": 4393,
      "Ne": 4394,
      "##ulatory": 4395,
      "here": 4396,
      "nm": 4397,
      "score": 4398,
      "##linear": 4399,
      "stable": 4400,
      "They": 4401,
      "disorders": 4402,
      "oxygen": 4403,
      "tog": 4404,
      "political": 4405,
      "spe": 4406,
      "prolif": 4407,
      "together": 4408,
      "AC": 4409,
      "corresponding": 4410,
      "##ash": 4411,
      "##eling": 4412,
      "exerc": 4413,
      "##ochemical": 4414,
      "biom": 4415,
      "resulted": 4416,
      "oral": 4417,
      "identification": 4418,
      "flex": 4419,
      "##rete": 4420,
      "##tine": 4421,
      "person": 4422,
      "phenomen": 4423,
      "duration": 4424,
      "wall": 4425,
      "##hy": 4426,
      "deep": 4427,
      "filter": 4428,
      "epid": 4429,
      "Rel": 4430,
      "##radi": 4431,
      "United": 4432,
      "Ap": 4433,
      "adults": 4434,
      "recognition": 4435,
      "70": 4436,
      "##ban": 4437,
      "highl": 4438,
      "compounds": 4439,
      "##use": 4440,
      "veloc": 4441,
      "##entific": 4442,
      "##ont": 4443,
      "ey": 4444,
      "cardiac": 4445,
      "belie": 4446,
      "##pping": 4447,
      "##RACT": 4448,
      "prevent": 4449,
      "recently": 4450,
      "##ogenesis": 4451,
      "diabetes": 4452,
      "OBJECT": 4453,
      "oil": 4454,
      "metast": 4455,
      "vent": 4456,
      "##50": 4457,
      "distributed": 4458,
      "variety": 4459,
      "week": 4460,
      "Be": 4461,
      "Su": 4462,
      "histor": 4463,
      "Over": 4464,
      "China": 4465,
      "satisf": 4466,
      "metal": 4467,
      "##arch": 4468,
      "reason": 4469,
      "mechanical": 4470,
      "48": 4471,
      "attem": 4472,
      "diagnostic": 4473,
      "##den": 4474,
      "incorpor": 4475,
      "##rade": 4476,
      "daily": 4477,
      "##isions": 4478,
      "lines": 4479,
      "##II": 4480,
      "##oring": 4481,
      "Inf": 4482,
      "organization": 4483,
      "force": 4484,
      "##oscop": 4485,
      "OBJECTIV": 4486,
      "SP": 4487,
      "##istry": 4488,
      "illu": 4489,
      "abnormal": 4490,
      "##set": 4491,
      "##IM": 4492,
      "##orting": 4493,
      "US": 4494,
      "##yr": 4495,
      "consequ": 4496,
      "extrem": 4497,
      "approximately": 4498,
      "establish": 4499,
      "solid": 4500,
      "occurred": 4501,
      "having": 4502,
      "##udes": 4503,
      "cognitive": 4504,
      "##rees": 4505,
      "researc": 4506,
      "modern": 4507,
      "datab": 4508,
      "modeling": 4509,
      "mainly": 4510,
      "##isation": 4511,
      "versus": 4512,
      "Sch": 4513,
      "fra": 4514,
      "##oti": 4515,
      "enzyme": 4516,
      "trials": 4517,
      "wind": 4518,
      "##ternal": 4519,
      "every": 4520,
      "home": 4521,
      "##oral": 4522,
      "avoid": 4523,
      "ground": 4524,
      "directly": 4525,
      "little": 4526,
      "rou": 4527,
      "##sts": 4528,
      "swit": 4529,
      "##rit": 4530,
      "imm": 4531,
      "integrated": 4532,
      "robust": 4533,
      "mobile": 4534,
      "base": 4535,
      "##zy": 4536,
      "remains": 4537,
      "inhibition": 4538,
      "opportun": 4539,
      "ray": 4540,
      "attrib": 4541,
      "bal": 4542,
      "industry": 4543,
      "depth": 4544,
      "##know": 4545,
      "##aced": 4546,
      "##ucture": 4547,
      "##aster": 4548,
      "anten": 4549,
      "although": 4550,
      "signals": 4551,
      "fast": 4552,
      "working": 4553,
      "EC": 4554,
      "##AM": 4555,
      "##coh": 4556,
      "constant": 4557,
      "delivery": 4558,
      "intensity": 4559,
      "##arily": 4560,
      "RNA": 4561,
      "facilit": 4562,
      "distance": 4563,
      "fit": 4564,
      "nurs": 4565,
      "##ta": 4566,
      "recovery": 4567,
      "transplant": 4568,
      "defin": 4569,
      "##version": 4570,
      "##ership": 4571,
      "coh": 4572,
      "parallel": 4573,
      "##to": 4574,
      "##ancial": 4575,
      "estimation": 4576,
      "princip": 4577,
      "Experim": 4578,
      "pepti": 4579,
      "cataly": 4580,
      "hours": 4581,
      "##aves": 4582,
      "ha": 4583,
      "modified": 4584,
      "systematic": 4585,
      "uncertain": 4586,
      "##ney": 4587,
      "larger": 4588,
      "Conclusions": 4589,
      "##hyd": 4590,
      "##ilities": 4591,
      "unit": 4592,
      "trial": 4593,
      "Design": 4594,
      "ped": 4595,
      "subject": 4596,
      "implications": 4597,
      "introduced": 4598,
      "PS": 4599,
      "repl": 4600,
      "197": 4601,
      "vascular": 4602,
      "##ultaneous": 4603,
      "mit": 4604,
      "simulations": 4605,
      "Mic": 4606,
      "##isc": 4607,
      "third": 4608,
      "Rep": 4609,
      "pH": 4610,
      "leading": 4611,
      "AS": 4612,
      "##ention": 4613,
      "##omas": 4614,
      "restric": 4615,
      "Ig": 4616,
      "ml": 4617,
      "toler": 4618,
      "infr": 4619,
      "expected": 4620,
      "programs": 4621,
      "##uded": 4622,
      "Both": 4623,
      "##ula": 4624,
      "endot": 4625,
      "promo": 4626,
      "international": 4627,
      "lat": 4628,
      "highest": 4629,
      "spectrum": 4630,
      "ABST": 4631,
      "CH": 4632,
      "##idity": 4633,
      "##abric": 4634,
      "published": 4635,
      "##dom": 4636,
      "reconstr": 4637,
      "document": 4638,
      "Fir": 4639,
      "mel": 4640,
      "uses": 4641,
      "ABSTRACT": 4642,
      "cover": 4643,
      "relation": 4644,
      "unique": 4645,
      "towards": 4646,
      "##romb": 4647,
      "compare": 4648,
      "##ipher": 4649,
      "nonlinear": 4650,
      "practical": 4651,
      "##EC": 4652,
      "cellular": 4653,
      "smok": 4654,
      "##des": 4655,
      "unc": 4656,
      "origin": 4657,
      "Background": 4658,
      "##eting": 4659,
      "relationships": 4660,
      "75": 4661,
      "Na": 4662,
      "squ": 4663,
      "widely": 4664,
      "nam": 4665,
      "progn": 4666,
      "investigation": 4667,
      "practices": 4668,
      "accurate": 4669,
      "assist": 4670,
      "lig": 4671,
      "mental": 4672,
      "comprehens": 4673,
      "scores": 4674,
      "##itiz": 4675,
      "sat": 4676,
      "##EL": 4677,
      "indust": 4678,
      "III": 4679,
      "OR": 4680,
      "##retion": 4681,
      "screening": 4682,
      "States": 4683,
      "##ufact": 4684,
      "##faces": 4685,
      "populations": 4686,
      "##ull": 4687,
      "implemented": 4688,
      "##mic": 4689,
      "So": 4690,
      "##encing": 4691,
      "enter": 4692,
      "fraction": 4693,
      "event": 4694,
      "defici": 4695,
      "recorded": 4696,
      "contact": 4697,
      "providing": 4698,
      "##ovascular": 4699,
      "requires": 4700,
      "##Ps": 4701,
      "##ectomy": 4702,
      "Bi": 4703,
      "Dif": 4704,
      "later": 4705,
      "mes": 4706,
      "mRNA": 4707,
      "##Hz": 4708,
      "##rolog": 4709,
      "procedures": 4710,
      "##reshold": 4711,
      "Network": 4712,
      "quantitative": 4713,
      "stor": 4714,
      "##ifically": 4715,
      "segment": 4716,
      "host": 4717,
      "emph": 4718,
      "turn": 4719,
      "Se": 4720,
      "##tual": 4721,
      "explore": 4722,
      "fract": 4723,
      "business": 4724,
      "Dec": 4725,
      "technologies": 4726,
      "substanti": 4727,
      "##uments": 4728,
      "predict": 4729,
      "##hern": 4730,
      "enti": 4731,
      "intell": 4732,
      "injection": 4733,
      "silic": 4734,
      "location": 4735,
      "don": 4736,
      "analyze": 4737,
      "color": 4738,
      "basic": 4739,
      "tissues": 4740,
      "cut": 4741,
      "nut": 4742,
      "statistical": 4743,
      "##eding": 4744,
      "assay": 4745,
      "parameter": 4746,
      "App": 4747,
      "##sis": 4748,
      "diff": 4749,
      "##abilities": 4750,
      "far": 4751,
      "take": 4752,
      "##ched": 4753,
      "Of": 4754,
      "vide": 4755,
      "respir": 4756,
      "produce": 4757,
      "sup": 4758,
      "disorder": 4759,
      "behaviour": 4760,
      "har": 4761,
      "##opt": 4762,
      "Elect": 4763,
      "vary": 4764,
      "##ocard": 4765,
      "invas": 4766,
      "34": 4767,
      "prediction": 4768,
      "Clin": 4769,
      "##irth": 4770,
      "variable": 4771,
      "motor": 4772,
      "##orth": 4773,
      "##occ": 4774,
      "others": 4775,
      "extent": 4776,
      "pathway": 4777,
      "gam": 4778,
      "older": 4779,
      "aden": 4780,
      "stimulation": 4781,
      "fluores": 4782,
      "teaching": 4783,
      "alter": 4784,
      "compan": 4785,
      "amino": 4786,
      "carcinoma": 4787,
      "tw": 4788,
      "exch": 4789,
      "innov": 4790,
      "describes": 4791,
      "scientific": 4792,
      "mar": 4793,
      "asym": 4794,
      "advanced": 4795,
      "half": 4796,
      "coord": 4797,
      "costs": 4798,
      "oste": 4799,
      "object": 4800,
      "word": 4801,
      "##enge": 4802,
      "##iles": 4803,
      "accum": 4804,
      "coronary": 4805,
      "scan": 4806,
      "platform": 4807,
      "During": 4808,
      "##istered": 4809,
      "external": 4810,
      "horm": 4811,
      "##opro": 4812,
      "pulmonary": 4813,
      "bur": 4814,
      "Conclusion": 4815,
      "online": 4816,
      "##hematic": 4817,
      "por": 4818,
      "rot": 4819,
      "inform": 4820,
      "excl": 4821,
      "tel": 4822,
      "usually": 4823,
      "AP": 4824,
      "done": 4825,
      "##most": 4826,
      "##izations": 4827,
      "scen": 4828,
      "Develop": 4829,
      "First": 4830,
      "demand": 4831,
      "cultural": 4832,
      "methodology": 4833,
      "questions": 4834,
      "prefer": 4835,
      "sampl": 4836,
      "recommend": 4837,
      "face": 4838,
      "estimate": 4839,
      "vacc": 4840,
      "##irel": 4841,
      "rev": 4842,
      "exercise": 4843,
      "Gl": 4844,
      "##iform": 4845,
      "cereb": 4846,
      "empir": 4847,
      "pair": 4848,
      "SO": 4849,
      "##last": 4850,
      "##bit": 4851,
      "median": 4852,
      "observations": 4853,
      "##artment": 4854,
      "weak": 4855,
      "electronic": 4856,
      "insulin": 4857,
      "Spec": 4858,
      "spl": 4859,
      "respect": 4860,
      "another": 4861,
      "European": 4862,
      "complexity": 4863,
      "##ipl": 4864,
      "##bers": 4865,
      "underwent": 4866,
      "molecules": 4867,
      "benefits": 4868,
      "velocity": 4869,
      "alcoh": 4870,
      "##ively": 4871,
      "methyl": 4872,
      "causes": 4873,
      "goal": 4874,
      "38": 4875,
      "PA": 4876,
      "numerical": 4877,
      "transcription": 4878,
      "reports": 4879,
      "underlying": 4880,
      "##EG": 4881,
      "##ireless": 4882,
      "norm": 4883,
      "##reatment": 4884,
      "##going": 4885,
      "yet": 4886,
      "agre": 4887,
      "sequences": 4888,
      "deb": 4889,
      "National": 4890,
      "##estern": 4891,
      "threshold": 4892,
      "simultaneous": 4893,
      "baseline": 4894,
      "##ocyte": 4895,
      "##atitis": 4896,
      "ent": 4897,
      "aims": 4898,
      "collabor": 4899,
      "integration": 4900,
      "Among": 4901,
      "37": 4902,
      "gender": 4903,
      "led": 4904,
      "temporal": 4905,
      "financial": 4906,
      "reducing": 4907,
      "interface": 4908,
      "artery": 4909,
      "##dle": 4910,
      "adaptive": 4911,
      "gain": 4912,
      "##ese": 4913,
      "suitable": 4914,
      "interview": 4915,
      "aged": 4916,
      "##ademic": 4917,
      "##ocal": 4918,
      "manufact": 4919,
      "CM": 4920,
      "employed": 4921,
      "strains": 4922,
      "shape": 4923,
      "government": 4924,
      "Control": 4925,
      "pharmac": 4926,
      "42": 4927,
      "##tib": 4928,
      "alone": 4929,
      "##oxid": 4930,
      "antigen": 4931,
      "Dep": 4932,
      "occur": 4933,
      "##roke": 4934,
      "SC": 4935,
      "tun": 4936,
      "##irus": 4937,
      "##ategor": 4938,
      "clim": 4939,
      "divers": 4940,
      "supply": 4941,
      "contribute": 4942,
      "fabric": 4943,
      "laboratory": 4944,
      "suggesting": 4945,
      "malign": 4946,
      "generally": 4947,
      "machine": 4948,
      "##jection": 4949,
      "operating": 4950,
      "aimed": 4951,
      "##ench": 4952,
      "HC": 4953,
      "land": 4954,
      "##ventions": 4955,
      "priv": 4956,
      "##rand": 4957,
      "competi": 4958,
      "mouse": 4959,
      "##oud": 4960,
      "che": 4961,
      "challenge": 4962,
      "adapt": 4963,
      "##ING": 4964,
      "##mediate": 4965,
      "ways": 4966,
      "absence": 4967,
      "reliability": 4968,
      "##ocation": 4969,
      "CR": 4970,
      "DC": 4971,
      "late": 4972,
      "##yroid": 4973,
      "Det": 4974,
      "##reen": 4975,
      "##naire": 4976,
      "CP": 4977,
      "accept": 4978,
      "##icians": 4979,
      "antibodies": 4980,
      "urban": 4981,
      "interpret": 4982,
      "##erior": 4983,
      "attack": 4984,
      "prepared": 4985,
      "BAC": 4986,
      "cust": 4987,
      "##21": 4988,
      "repe": 4989,
      "degrad": 4990,
      "ann": 4991,
      "agent": 4992,
      "dop": 4993,
      "stages": 4994,
      "##issions": 4995,
      "fold": 4996,
      "43": 4997,
      "electric": 4998,
      "##rogram": 4999,
      "leads": 5000,
      "divid": 5001,
      "personal": 5002,
      "SD": 5003,
      "und": 5004,
      "diamet": 5005,
      "planning": 5006,
      "peripher": 5007,
      "interval": 5008,
      "members": 5009,
      "double": 5010,
      "##yt": 5011,
      "profile": 5012,
      "direction": 5013,
      "display": 5014,
      "Qu": 5015,
      "gr": 5016,
      "slow": 5017,
      "famil": 5018,
      "##imens": 5019,
      "film": 5020,
      "##ricular": 5021,
      "remov": 5022,
      "PR": 5023,
      "##KG": 5024,
      "##MI": 5025,
      "appar": 5026,
      "probability": 5027,
      "##ethyl": 5028,
      "##ROU": 5029,
      "##ocks": 5030,
      "acet": 5031,
      "##andid": 5032,
      "science": 5033,
      "PP": 5034,
      "Can": 5035,
      "ca": 5036,
      "susp": 5037,
      "AR": 5038,
      "joint": 5039,
      "ov": 5040,
      "##ynt": 5041,
      "upper": 5042,
      "statistically": 5043,
      "Ser": 5044,
      "antibody": 5045,
      "IV": 5046,
      "assemb": 5047,
      "benefit": 5048,
      "neuro": 5049,
      "intrac": 5050,
      "Since": 5051,
      "##ats": 5052,
      "induc": 5053,
      "##arian": 5054,
      "aud": 5055,
      "##aph": 5056,
      "##otrop": 5057,
      "config": 5058,
      "Techn": 5059,
      "##xt": 5060,
      "arr": 5061,
      "##rosis": 5062,
      "beg": 5063,
      "conserv": 5064,
      "constit": 5065,
      "accel": 5066,
      "##artic": 5067,
      "architecture": 5068,
      "rare": 5069,
      "65": 5070,
      "fed": 5071,
      "electrical": 5072,
      "fields": 5073,
      "Some": 5074,
      "##by": 5075,
      "trig": 5076,
      "final": 5077,
      "original": 5078,
      "lipid": 5079,
      "##ffic": 5080,
      "IS": 5081,
      "##agnetic": 5082,
      "hydrox": 5083,
      "categor": 5084,
      "kid": 5085,
      "Sm": 5086,
      "cannot": 5087,
      "##tivation": 5088,
      "nuclear": 5089,
      "##ogeneous": 5090,
      "##ember": 5091,
      "differential": 5092,
      "##orr": 5093,
      "disch": 5094,
      "distinct": 5095,
      "CA": 5096,
      "Aut": 5097,
      "##otox": 5098,
      "progress": 5099,
      "mill": 5100,
      "##tra": 5101,
      "##EP": 5102,
      "feedback": 5103,
      "Three": 5104,
      "sched": 5105,
      "##xi": 5106,
      "kind": 5107,
      "##function": 5108,
      "signaling": 5109,
      "##IR": 5110,
      "implant": 5111,
      "plants": 5112,
      "fully": 5113,
      "organic": 5114,
      "angi": 5115,
      "makes": 5116,
      "##ancer": 5117,
      "##olester": 5118,
      "fundam": 5119,
      "tax": 5120,
      "##odium": 5121,
      "commerc": 5122,
      "mixed": 5123,
      "Mon": 5124,
      "formed": 5125,
      "##leep": 5126,
      "infections": 5127,
      "invest": 5128,
      "scenari": 5129,
      "fo": 5130,
      "##inity": 5131,
      "educational": 5132,
      "successfully": 5133,
      "ra": 5134,
      "##ulator": 5135,
      "##osa": 5136,
      "apopt": 5137,
      "marked": 5138,
      "skills": 5139,
      "##bs": 5140,
      "circuit": 5141,
      "##ROUND": 5142,
      "Group": 5143,
      "reproduc": 5144,
      "infected": 5145,
      "correc": 5146,
      "receptors": 5147,
      "construction": 5148,
      "##electric": 5149,
      "BACKG": 5150,
      "storage": 5151,
      "##ensions": 5152,
      "learn": 5153,
      "##inate": 5154,
      "effectively": 5155,
      "significance": 5156,
      "team": 5157,
      "alcohol": 5158,
      "BACKGROUND": 5159,
      "And": 5160,
      "##ades": 5161,
      "subsequent": 5162,
      "predicted": 5163,
      "experiences": 5164,
      "chlor": 5165,
      "fiber": 5166,
      "partial": 5167,
      "eight": 5168,
      "##ients": 5169,
      "works": 5170,
      "thickness": 5171,
      "Under": 5172,
      "##oster": 5173,
      "treatments": 5174,
      "growing": 5175,
      "linked": 5176,
      "Cor": 5177,
      "cohort": 5178,
      "Hum": 5179,
      "correct": 5180,
      "accoun": 5181,
      "##roscopic": 5182,
      "angle": 5183,
      "nodes": 5184,
      "##ged": 5185,
      "adoles": 5186,
      "##ibration": 5187,
      "##ancre": 5188,
      "##oids": 5189,
      "appears": 5190,
      "quantif": 5191,
      "reac": 5192,
      "##rospective": 5193,
      "hypothesis": 5194,
      "Most": 5195,
      "strongly": 5196,
      "films": 5197,
      "birth": 5198,
      "##agen": 5199,
      "assum": 5200,
      "emo": 5201,
      "feas": 5202,
      "computational": 5203,
      "##12": 5204,
      "focused": 5205,
      "tasks": 5206,
      "leuk": 5207,
      "analog": 5208,
      "perspective": 5209,
      "THE": 5210,
      "OBJECTIVE": 5211,
      "HP": 5212,
      "transformation": 5213,
      "substrate": 5214,
      "living": 5215,
      "return": 5216,
      "sets": 5217,
      "Mo": 5218,
      "##chem": 5219,
      "##NF": 5220,
      "##elines": 5221,
      "choice": 5222,
      "##etry": 5223,
      "02": 5224,
      "MP": 5225,
      "cle": 5226,
      "##amer": 5227,
      "comprehensive": 5228,
      "fav": 5229,
      "aer": 5230,
      "frequently": 5231,
      "respiratory": 5232,
      "##VID": 5233,
      "##tile": 5234,
      "##olesterol": 5235,
      "give": 5236,
      "activated": 5237,
      "onset": 5238,
      "##gments": 5239,
      "##itative": 5240,
      "array": 5241,
      "majority": 5242,
      "viol": 5243,
      "thromb": 5244,
      "stroke": 5245,
      "units": 5246,
      "exposed": 5247,
      "contribution": 5248,
      "regional": 5249,
      "barri": 5250,
      "almost": 5251,
      "aggreg": 5252,
      "MC": 5253,
      "NO": 5254,
      "academic": 5255,
      "##hesized": 5256,
      "longer": 5257,
      "proliferation": 5258,
      "##ogenous": 5259,
      "stimul": 5260,
      "movement": 5261,
      "##apan": 5262,
      "mathematic": 5263,
      "##lob": 5264,
      "tom": 5265,
      "HR": 5266,
      "muc": 5267,
      "##nel": 5268,
      "prevention": 5269,
      "MR": 5270,
      "pen": 5271,
      "stem": 5272,
      "##chron": 5273,
      "##ards": 5274,
      "datas": 5275,
      "whose": 5276,
      "deriv": 5277,
      "diagnosed": 5278,
      "gran": 5279,
      "##uls": 5280,
      "improving": 5281,
      "Cal": 5282,
      "South": 5283,
      "pig": 5284,
      "particles": 5285,
      "resource": 5286,
      "professional": 5287,
      "wavel": 5288,
      "Four": 5289,
      "close": 5290,
      "extraction": 5291,
      "vector": 5292,
      "##ened": 5293,
      "institution": 5294,
      "39": 5295,
      "Ear": 5296,
      "engineering": 5297,
      "##tives": 5298,
      "particle": 5299,
      "##bal": 5300,
      "##alian": 5301,
      "emission": 5302,
      "oxide": 5303,
      "building": 5304,
      "##ee": 5305,
      "##IP": 5306,
      "##OL": 5307,
      "interventions": 5308,
      "teachers": 5309,
      "##rine": 5310,
      "##olved": 5311,
      "amb": 5312,
      "finding": 5313,
      "commonly": 5314,
      "PCR": 5315,
      "Model": 5316,
      "induction": 5317,
      "Japan": 5318,
      "occup": 5319,
      "chemotherapy": 5320,
      "##known": 5321,
      "peripheral": 5322,
      "HS": 5323,
      "oc": 5324,
      "##ooth": 5325,
      "##raz": 5326,
      "##ophil": 5327,
      "industrial": 5328,
      "##phal": 5329,
      "extended": 5330,
      "inhibitor": 5331,
      "sin": 5332,
      "includes": 5333,
      "video": 5334,
      "exchange": 5335,
      "##ging": 5336,
      "MD": 5337,
      "orth": 5338,
      "biop": 5339,
      "##ike": 5340,
      "##utive": 5341,
      "##neum": 5342,
      "differentiation": 5343,
      "entire": 5344,
      "CN": 5345,
      "protection": 5346,
      "automatic": 5347,
      "fixed": 5348,
      "background": 5349,
      "database": 5350,
      "conj": 5351,
      "progression": 5352,
      "acids": 5353,
      "##IG": 5354,
      "##ather": 5355,
      "##erman": 5356,
      "loop": 5357,
      "##otypes": 5358,
      "44": 5359,
      "##ancing": 5360,
      "microscopy": 5361,
      "46": 5362,
      "##rate": 5363,
      "postoperative": 5364,
      "minimum": 5365,
      "##11": 5366,
      "##rium": 5367,
      "arti": 5368,
      "reviewed": 5369,
      "99": 5370,
      "ast": 5371,
      "nanop": 5372,
      "##apter": 5373,
      "##ories": 5374,
      "seven": 5375,
      "finite": 5376,
      "currently": 5377,
      "embed": 5378,
      "Engl": 5379,
      "bio": 5380,
      "traum": 5381,
      "##ectives": 5382,
      "moderate": 5383,
      "attit": 5384,
      "##astr": 5385,
      "calcium": 5386,
      "antenna": 5387,
      "##asting": 5388,
      "identi": 5389,
      "grade": 5390,
      "located": 5391,
      "Development": 5392,
      "spectral": 5393,
      "suscep": 5394,
      "alk": 5395,
      "##exp": 5396,
      "throughout": 5397,
      "pregnancy": 5398,
      "AL": 5399,
      "IP": 5400,
      "##ape": 5401,
      "Non": 5402,
      "##hing": 5403,
      "##MD": 5404,
      "transmit": 5405,
      "equations": 5406,
      "markers": 5407,
      "absorption": 5408,
      "shift": 5409,
      "irradi": 5410,
      "AI": 5411,
      "promising": 5412,
      "cardiovascular": 5413,
      "glyc": 5414,
      "##OC": 5415,
      "##ortic": 5416,
      "##plicated": 5417,
      "numbers": 5418,
      "diameter": 5419,
      "selective": 5420,
      "empirical": 5421,
      "##iology": 5422,
      "##ert": 5423,
      "unknown": 5424,
      "consists": 5425,
      "Second": 5426,
      "55": 5427,
      "transl": 5428,
      "##zzy": 5429,
      "##empor": 5430,
      "art": 5431,
      "COVID": 5432,
      "proportion": 5433,
      "English": 5434,
      "hypertension": 5435,
      "researchers": 5436,
      "ES": 5437,
      "Ge": 5438,
      "Sever": 5439,
      "##ipp": 5440,
      "##ycl": 5441,
      "equival": 5442,
      "center": 5443,
      "iron": 5444,
      "manif": 5445,
      "driven": 5446,
      "AN": 5447,
      "questionnaire": 5448,
      "47": 5449,
      "detailed": 5450,
      "Car": 5451,
      "nerve": 5452,
      "confirm": 5453,
      "suff": 5454,
      "channels": 5455,
      "percentage": 5456,
      "fault": 5457,
      "sleep": 5458,
      "infer": 5459,
      "##ptake": 5460,
      "##cepts": 5461,
      "PT": 5462,
      "tend": 5463,
      "##ectivity": 5464,
      "56": 5465,
      "dry": 5466,
      "pancre": 5467,
      "counter": 5468,
      "hydrogen": 5469,
      "##inations": 5470,
      "ster": 5471,
      "41": 5472,
      "CC": 5473,
      "environments": 5474,
      "administered": 5475,
      "##odynamic": 5476,
      "##antum": 5477,
      "##xiety": 5478,
      "wireless": 5479,
      "assign": 5480,
      "migration": 5481,
      "##BP": 5482,
      "##oms": 5483,
      "##illary": 5484,
      "charge": 5485,
      "traffic": 5486,
      "rich": 5487,
      "ant": 5488,
      "##seud": 5489,
      "objects": 5490,
      "neurons": 5491,
      "myocard": 5492,
      "resonance": 5493,
      "Differ": 5494,
      "##ostic": 5495,
      "##ements": 5496,
      "adequ": 5497,
      "microb": 5498,
      "root": 5499,
      "families": 5500,
      "code": 5501,
      "##asons": 5502,
      "adverse": 5503,
      "remain": 5504,
      "collection": 5505,
      "systemic": 5506,
      "depression": 5507,
      "arth": 5508,
      "look": 5509,
      "sampling": 5510,
      "##anol": 5511,
      "confl": 5512,
      "##ATION": 5513,
      "excell": 5514,
      "##pts": 5515,
      "##ceed": 5516,
      "student": 5517,
      "doses": 5518,
      "diversity": 5519,
      "##antic": 5520,
      "communic": 5521,
      "fundamental": 5522,
      "pan": 5523,
      "##ster": 5524,
      "expans": 5525,
      "##me": 5526,
      "##jectives": 5527,
      "variability": 5528,
      "advantages": 5529,
      "Addition": 5530,
      "errors": 5531,
      "##ai": 5532,
      "##ococc": 5533,
      "Clinical": 5534,
      "fill": 5535,
      "divided": 5536,
      "port": 5537,
      "##iotic": 5538,
      "bond": 5539,
      "superior": 5540,
      "##elet": 5541,
      "compens": 5542,
      "responsible": 5543,
      "sulf": 5544,
      "##crib": 5545,
      "uniform": 5546,
      "cruc": 5547,
      "##uation": 5548,
      "##war": 5549,
      "variations": 5550,
      "vehicle": 5551,
      "sed": 5552,
      "computing": 5553,
      "supported": 5554,
      "occurs": 5555,
      "virtual": 5556,
      "bacterial": 5557,
      "##iples": 5558,
      "equation": 5559,
      "Human": 5560,
      "If": 5561,
      "mil": 5562,
      "##ives": 5563,
      "##time": 5564,
      "supplement": 5565,
      "country": 5566,
      "reliable": 5567,
      "Then": 5568,
      "attr": 5569,
      "03": 5570,
      "Pr": 5571,
      "mutations": 5572,
      "middle": 5573,
      "Austr": 5574,
      "Fig": 5575,
      "##LC": 5576,
      "##alk": 5577,
      "workers": 5578,
      "confidence": 5579,
      "century": 5580,
      "move": 5581,
      "coefficient": 5582,
      "definition": 5583,
      "degradation": 5584,
      "##fl": 5585,
      "express": 5586,
      "females": 5587,
      "climate": 5588,
      "52": 5589,
      "mamm": 5590,
      "##herent": 5591,
      "ads": 5592,
      "discussion": 5593,
      "mom": 5594,
      "technical": 5595,
      "males": 5596,
      "RF": 5597,
      "node": 5598,
      "##ultural": 5599,
      "indicating": 5600,
      "persist": 5601,
      "Child": 5602,
      "##inese": 5603,
      "RA": 5604,
      "TC": 5605,
      "hous": 5606,
      "##IF": 5607,
      "##agon": 5608,
      "coupled": 5609,
      "Cell": 5610,
      "My": 5611,
      "49": 5612,
      "##ring": 5613,
      "##lim": 5614,
      "ischem": 5615,
      "white": 5616,
      "propag": 5617,
      "72": 5618,
      "kine": 5619,
      "degrees": 5620,
      "##rief": 5621,
      "##ps": 5622,
      "animal": 5623,
      "agreement": 5624,
      "kidney": 5625,
      "But": 5626,
      "impair": 5627,
      "involving": 5628,
      "pulse": 5629,
      "Min": 5630,
      "taking": 5631,
      "##ded": 5632,
      "regular": 5633,
      "inhibited": 5634,
      "radio": 5635,
      "sexual": 5636,
      "53": 5637,
      "Chinese": 5638,
      "pathways": 5639,
      "psychological": 5640,
      "cav": 5641,
      "##As": 5642,
      "##ariate": 5643,
      "##ergic": 5644,
      "solar": 5645,
      "severity": 5646,
      "sustain": 5647,
      "CF": 5648,
      "reactions": 5649,
      "Cu": 5650,
      "fall": 5651,
      "##UR": 5652,
      "##aternal": 5653,
      "instit": 5654,
      "observation": 5655,
      "profiles": 5656,
      "situation": 5657,
      "Bec": 5658,
      "##raft": 5659,
      "randomized": 5660,
      "marg": 5661,
      "typical": 5662,
      "Char": 5663,
      "Effect": 5664,
      "BP": 5665,
      "IF": 5666,
      "spread": 5667,
      "##ournal": 5668,
      "candid": 5669,
      "##OP": 5670,
      "##ero": 5671,
      "##ils": 5672,
      "Rad": 5673,
      "##ache": 5674,
      "characterization": 5675,
      "earl": 5676,
      "intellig": 5677,
      "##ds": 5678,
      "nutri": 5679,
      "MA": 5680,
      "##idth": 5681,
      "formal": 5682,
      "od": 5683,
      "##DL": 5684,
      "resistant": 5685,
      "##asound": 5686,
      "##oglob": 5687,
      "##ochond": 5688,
      "examples": 5689,
      "estimates": 5690,
      "conclusion": 5691,
      "Ma": 5692,
      "##care": 5693,
      "##osed": 5694,
      "compl": 5695,
      "##ested": 5696,
      "ER": 5697,
      "SS": 5698,
      "rein": 5699,
      "parts": 5700,
      "Evalu": 5701,
      "seed": 5702,
      "elim": 5703,
      "discrim": 5704,
      "Phys": 5705,
      "commercial": 5706,
      "excellent": 5707,
      "Cr": 5708,
      "preserv": 5709,
      "##ilateral": 5710,
      "spectra": 5711,
      "##IL": 5712,
      "##eli": 5713,
      "anter": 5714,
      "expand": 5715,
      "terminal": 5716,
      "operations": 5717,
      "Despite": 5718,
      "Dist": 5719,
      "TB": 5720,
      "##inning": 5721,
      "alb": 5722,
      "PM": 5723,
      "war": 5724,
      "##yle": 5725,
      "spectroscopy": 5726,
      "below": 5727,
      "create": 5728,
      "57": 5729,
      "Such": 5730,
      "##stead": 5731,
      "legal": 5732,
      "elevated": 5733,
      "surfaces": 5734,
      "generate": 5735,
      "possibility": 5736,
      "ethn": 5737,
      "Associ": 5738,
      "64": 5739,
      "##okine": 5740,
      "##onia": 5741,
      "196": 5742,
      "##tenance": 5743,
      "wild": 5744,
      "smooth": 5745,
      "considering": 5746,
      "constraints": 5747,
      "diffusion": 5748,
      "potentially": 5749,
      "removal": 5750,
      "##aim": 5751,
      "medicine": 5752,
      "list": 5753,
      "##come": 5754,
      "cholesterol": 5755,
      "trade": 5756,
      "antic": 5757,
      "manner": 5758,
      "turb": 5759,
      "cloud": 5760,
      "bacteria": 5761,
      "According": 5762,
      "Hospital": 5763,
      "Ti": 5764,
      "smaller": 5765,
      "##EE": 5766,
      "##width": 5767,
      "explain": 5768,
      "analytical": 5769,
      "GP": 5770,
      "uptake": 5771,
      "##oming": 5772,
      "society": 5773,
      "rapidly": 5774,
      "ke": 5775,
      "dispers": 5776,
      "metabolic": 5777,
      "##eal": 5778,
      "specifically": 5779,
      "rise": 5780,
      "##mark": 5781,
      "##ilib": 5782,
      "kinase": 5783,
      "peptide": 5784,
      "efforts": 5785,
      "repair": 5786,
      "policies": 5787,
      "Meas": 5788,
      "##oly": 5789,
      "extensive": 5790,
      "meaning": 5791,
      "reflect": 5792,
      "advantage": 5793,
      "metabolism": 5794,
      "##vant": 5795,
      "simulated": 5796,
      "Commun": 5797,
      "58": 5798,
      "Hy": 5799,
      "cluster": 5800,
      "inhibitors": 5801,
      "African": 5802,
      "ventricular": 5803,
      "##sw": 5804,
      "concepts": 5805,
      "stri": 5806,
      "##ella": 5807,
      "compr": 5808,
      "serious": 5809,
      "physiological": 5810,
      "receiving": 5811,
      "boundary": 5812,
      "dysfunction": 5813,
      "##scill": 5814,
      "py": 5815,
      "glut": 5816,
      "popular": 5817,
      "##oman": 5818,
      "threat": 5819,
      "controller": 5820,
      "proposes": 5821,
      "added": 5822,
      "Sign": 5823,
      "prote": 5824,
      "actual": 5825,
      "Partic": 5826,
      "Medic": 5827,
      "staff": 5828,
      "secretion": 5829,
      "indicates": 5830,
      "ven": 5831,
      "##urg": 5832,
      "fore": 5833,
      "exec": 5834,
      "##plicit": 5835,
      "Internet": 5836,
      "##ii": 5837,
      "equal": 5838,
      "possib": 5839,
      "extrac": 5840,
      "balance": 5841,
      "expect": 5842,
      "lateral": 5843,
      "decisions": 5844,
      "##oxide": 5845,
      "guidelines": 5846,
      "endothelial": 5847,
      "varying": 5848,
      "crucial": 5849,
      "54": 5850,
      "put": 5851,
      "infants": 5852,
      "determination": 5853,
      "matter": 5854,
      "Effects": 5855,
      "chromos": 5856,
      "constructed": 5857,
      "apoptosis": 5858,
      "dog": 5859,
      "recurr": 5860,
      "disturb": 5861,
      "specificity": 5862,
      "completed": 5863,
      "highlight": 5864,
      "ET": 5865,
      "Gu": 5866,
      "##MR": 5867,
      "until": 5868,
      "Sw": 5869,
      "poll": 5870,
      "involvement": 5871,
      "ensure": 5872,
      "epithelial": 5873,
      "height": 5874,
      "sensors": 5875,
      "perceived": 5876,
      "##ontaneous": 5877,
      "Bo": 5878,
      "aid": 5879,
      "div": 5880,
      "mess": 5881,
      "radical": 5882,
      "predictive": 5883,
      "intes": 5884,
      "##ches": 5885,
      "##overed": 5886,
      "exhibited": 5887,
      "85": 5888,
      "just": 5889,
      "libr": 5890,
      "##oll": 5891,
      "capital": 5892,
      "principles": 5893,
      "historical": 5894,
      "illustr": 5895,
      "mis": 5896,
      "tracking": 5897,
      "gap": 5898,
      "##ectal": 5899,
      "increasingly": 5900,
      "phenomenon": 5901,
      "##articles": 5902,
      "##olds": 5903,
      "acceler": 5904,
      "Lear": 5905,
      "fron": 5906,
      "##ck": 5907,
      "offers": 5908,
      "steps": 5909,
      "solub": 5910,
      "property": 5911,
      "next": 5912,
      "colle": 5913,
      "minor": 5914,
      "diabetic": 5915,
      "mL": 5916,
      "mild": 5917,
      "interfer": 5918,
      "despite": 5919,
      "showing": 5920,
      "retrie": 5921,
      "67": 5922,
      "Tra": 5923,
      "ble": 5924,
      "sodium": 5925,
      "##OM": 5926,
      "##ectors": 5927,
      "##oxy": 5928,
      "representation": 5929,
      "expansion": 5930,
      "##acial": 5931,
      "explo": 5932,
      "##isition": 5933,
      "plays": 5934,
      "viral": 5935,
      "coupling": 5936,
      "##let": 5937,
      "anxiety": 5938,
      "quantum": 5939,
      "qualitative": 5940,
      "uns": 5941,
      "polymorph": 5942,
      "macroph": 5943,
      "Russ": 5944,
      "sense": 5945,
      "##ception": 5946,
      "##ogram": 5947,
      "recip": 5948,
      "2000": 5949,
      "temperatures": 5950,
      "analysed": 5951,
      "mi": 5952,
      "##13": 5953,
      "##ruit": 5954,
      "sensing": 5955,
      "What": 5956,
      "arterial": 5957,
      "jud": 5958,
      "##roduce": 5959,
      "stream": 5960,
      "##used": 5961,
      "paras": 5962,
      "inflammation": 5963,
      "pneum": 5964,
      "##rot": 5965,
      "##uctive": 5966,
      "puls": 5967,
      "##orbidity": 5968,
      "experienced": 5969,
      "devi": 5970,
      "hormone": 5971,
      "Out": 5972,
      "dy": 5973,
      "complement": 5974,
      "adhes": 5975,
      "##derly": 5976,
      "International": 5977,
      "bul": 5978,
      "roles": 5979,
      "phosphory": 5980,
      "vess": 5981,
      "##ucle": 5982,
      "##rosp": 5983,
      "gamma": 5984,
      "68": 5985,
      "##zo": 5986,
      "##jected": 5987,
      "presentation": 5988,
      "magnitude": 5989,
      "prospective": 5990,
      "dual": 5991,
      "##ighb": 5992,
      "solve": 5993,
      "capable": 5994,
      "primarily": 5995,
      "contains": 5996,
      "behaviors": 5997,
      "04": 5998,
      "tet": 5999,
      "##wing": 6000,
      "##forms": 6001,
      "modulation": 6002,
      "seems": 6003,
      "reconstruction": 6004,
      "59": 6005,
      "wound": 6006,
      "##ah": 6007,
      "##zed": 6008,
      "##acing": 6009,
      "##ENT": 6010,
      "crystal": 6011,
      "po": 6012,
      "seem": 6013,
      "Vari": 6014,
      "##ervical": 6015,
      "dominant": 6016,
      "gest": 6017,
      "tit": 6018,
      "reactive": 6019,
      "layers": 6020,
      "recomb": 6021,
      "edge": 6022,
      "lesion": 6023,
      "eye": 6024,
      "##oprotein": 6025,
      "camer": 6026,
      "forward": 6027,
      "maintenance": 6028,
      "Hist": 6029,
      "66": 6030,
      "##ypt": 6031,
      "examines": 6032,
      "articles": 6033,
      "occurrence": 6034,
      "discharge": 6035,
      "always": 6036,
      "##exts": 6037,
      "##mosp": 6038,
      "plane": 6039,
      "slight": 6040,
      "preparation": 6041,
      "thought": 6042,
      "Mean": 6043,
      "date": 6044,
      "##onomic": 6045,
      "conversion": 6046,
      "neon": 6047,
      "noted": 6048,
      "##ype": 6049,
      "dependence": 6050,
      "Many": 6051,
      "Es": 6052,
      "grid": 6053,
      "impl": 6054,
      "vitamin": 6055,
      "hemat": 6056,
      "extracted": 6057,
      "haem": 6058,
      "##orrh": 6059,
      "ED": 6060,
      "ery": 6061,
      "##aired": 6062,
      "##cents": 6063,
      "##AB": 6064,
      "waste": 6065,
      "intake": 6066,
      "sector": 6067,
      "##2O": 6068,
      "scatter": 6069,
      "Class": 6070,
      "##opathy": 6071,
      "accumulation": 6072,
      "German": 6073,
      "created": 6074,
      "amplitude": 6075,
      "limitations": 6076,
      "AF": 6077,
      "job": 6078,
      "nor": 6079,
      "##ians": 6080,
      "##ester": 6081,
      "##riting": 6082,
      "##ept": 6083,
      "speech": 6084,
      "MRI": 6085,
      "##ott": 6086,
      "break": 6087,
      "easily": 6088,
      "rab": 6089,
      "##umn": 6090,
      "Exp": 6091,
      "Educ": 6092,
      "brief": 6093,
      "##ptive": 6094,
      "##herence": 6095,
      "communities": 6096,
      "satisfaction": 6097,
      "EL": 6098,
      "label": 6099,
      "ratios": 6100,
      "##ilibrium": 6101,
      "##igen": 6102,
      "trend": 6103,
      "conclude": 6104,
      "pediatric": 6105,
      "earlier": 6106,
      "vul": 6107,
      "##CA": 6108,
      "mutation": 6109,
      "IR": 6110,
      "##SS": 6111,
      "smoking": 6112,
      "Serv": 6113,
      "Wor": 6114,
      "oscill": 6115,
      "rig": 6116,
      "##mental": 6117,
      "scal": 6118,
      "latter": 6119,
      "trends": 6120,
      "targets": 6121,
      "transplantation": 6122,
      "fluorescence": 6123,
      "Mark": 6124,
      "State": 6125,
      "embry": 6126,
      "Systems": 6127,
      "myocardial": 6128,
      "##53": 6129,
      "##iction": 6130,
      "excess": 6131,
      "commit": 6132,
      "scholar": 6133,
      "Cancer": 6134,
      "dial": 6135,
      "##ele": 6136,
      "prem": 6137,
      "63": 6138,
      "get": 6139,
      "vac": 6140,
      "##−1": 6141,
      "##udinal": 6142,
      "##avy": 6143,
      "determining": 6144,
      "##tility": 6145,
      "##ublic": 6146,
      "symmet": 6147,
      "completely": 6148,
      "reading": 6149,
      "Ca2": 6150,
      "Objective": 6151,
      "##min": 6152,
      "##asal": 6153,
      "thor": 6154,
      "diverse": 6155,
      "AM": 6156,
      "rules": 6157,
      "##uate": 6158,
      "sufficient": 6159,
      "parad": 6160,
      "parents": 6161,
      "risks": 6162,
      "changing": 6163,
      "##ierarch": 6164,
      "Social": 6165,
      "##°C": 6166,
      "##oration": 6167,
      "reserv": 6168,
      "defects": 6169,
      "etc": 6170,
      "98": 6171,
      "PV": 6172,
      "specimens": 6173,
      "##venous": 6174,
      "domains": 6175,
      "##ready": 6176,
      "##ada": 6177,
      "remained": 6178,
      "classical": 6179,
      "institutions": 6180,
      "pay": 6181,
      "##gence": 6182,
      "##ows": 6183,
      "contain": 6184,
      "##oustic": 6185,
      "complexes": 6186,
      "identity": 6187,
      "SN": 6188,
      "##gue": 6189,
      "Also": 6190,
      "humans": 6191,
      "##wenty": 6192,
      "Learning": 6193,
      "##uries": 6194,
      "##tingu": 6195,
      "schedul": 6196,
      "500": 6197,
      "den": 6198,
      "reasons": 6199,
      "Inv": 6200,
      "##obic": 6201,
      "##ishing": 6202,
      "##water": 6203,
      "##ollow": 6204,
      "interference": 6205,
      "##obacter": 6206,
      "mitochond": 6207,
      "Several": 6208,
      "Because": 6209,
      "anterior": 6210,
      "51": 6211,
      "##we": 6212,
      "##ener": 6213,
      "##itively": 6214,
      "itself": 6215,
      "##eletal": 6216,
      "Information": 6217,
      "regulatory": 6218,
      "comparable": 6219,
      "ultrasound": 6220,
      "Treatment": 6221,
      "lact": 6222,
      "##DM": 6223,
      "##tid": 6224,
      "##stream": 6225,
      "##esthes": 6226,
      "Web": 6227,
      "participation": 6228,
      "introduction": 6229,
      "73": 6230,
      "revers": 6231,
      "##oted": 6232,
      "abund": 6233,
      "emerging": 6234,
      "recommended": 6235,
      "96": 6236,
      "NH": 6237,
      "mov": 6238,
      "frequent": 6239,
      "safe": 6240,
      "income": 6241,
      "##actor": 6242,
      "coli": 6243,
      "classes": 6244,
      "periods": 6245,
      "invasive": 6246,
      "##ifying": 6247,
      "distingu": 6248,
      "spontaneous": 6249,
      "emergency": 6250,
      "Time": 6251,
      "jus": 6252,
      "flux": 6253,
      "fluor": 6254,
      "##hyth": 6255,
      "78": 6256,
      "SL": 6257,
      "ten": 6258,
      "##atch": 6259,
      "##ortex": 6260,
      "bandwidth": 6261,
      "hab": 6262,
      "already": 6263,
      "Management": 6264,
      "morphology": 6265,
      "##etric": 6266,
      "measuring": 6267,
      "black": 6268,
      "Te": 6269,
      "univers": 6270,
      "basal": 6271,
      "ve": 6272,
      "elderly": 6273,
      "frequencies": 6274,
      "retrospective": 6275,
      "hepat": 6276,
      "adopted": 6277,
      "predom": 6278,
      "namely": 6279,
      "cerebral": 6280,
      "equivalent": 6281,
      "RT": 6282,
      "2010": 6283,
      "connected": 6284,
      "summar": 6285,
      "pit": 6286,
      "##raction": 6287,
      "##tition": 6288,
      "relig": 6289,
      "##teg": 6290,
      "closed": 6291,
      "trigg": 6292,
      "##kin": 6293,
      "stabil": 6294,
      "##ema": 6295,
      "World": 6296,
      "bey": 6297,
      "robot": 6298,
      "answ": 6299,
      "claim": 6300,
      "##ceptions": 6301,
      "utilized": 6302,
      "existence": 6303,
      "beyond": 6304,
      "How": 6305,
      "Experimental": 6306,
      "EP": 6307,
      "gel": 6308,
      "relax": 6309,
      "##ynthesis": 6310,
      "62": 6311,
      "neighb": 6312,
      "##load": 6313,
      "Post": 6314,
      "##ori": 6315,
      "forest": 6316,
      "##rocy": 6317,
      "schools": 6318,
      "acquisition": 6319,
      "Program": 6320,
      "##UT": 6321,
      "conv": 6322,
      "promote": 6323,
      "represents": 6324,
      "wavelength": 6325,
      "Gene": 6326,
      "grain": 6327,
      "comparing": 6328,
      "Medical": 6329,
      "Supp": 6330,
      "focuses": 6331,
      "North": 6332,
      "##perm": 6333,
      "modes": 6334,
      "regulated": 6335,
      "Del": 6336,
      "##day": 6337,
      "scanning": 6338,
      "Pur": 6339,
      "depends": 6340,
      "CD4": 6341,
      "multic": 6342,
      "Ed": 6343,
      "Ep": 6344,
      "End": 6345,
      "Jan": 6346,
      "sound": 6347,
      "##ees": 6348,
      "signs": 6349,
      "##force": 6350,
      "UV": 6351,
      "outs": 6352,
      "##otes": 6353,
      "compet": 6354,
      "curve": 6355,
      "Optim": 6356,
      "##uous": 6357,
      "##cers": 6358,
      "##0s": 6359,
      "proxim": 6360,
      "posterior": 6361,
      "axis": 6362,
      "83": 6363,
      "green": 6364,
      "vision": 6365,
      "##MC": 6366,
      "ana": 6367,
      "##ocyt": 6368,
      "concluded": 6369,
      "MO": 6370,
      "Western": 6371,
      "##son": 6372,
      "anat": 6373,
      "##iral": 6374,
      "computed": 6375,
      "effort": 6376,
      "metric": 6377,
      "manip": 6378,
      "upd": 6379,
      "myel": 6380,
      "Recent": 6381,
      "Organ": 6382,
      "fuzzy": 6383,
      "##tibility": 6384,
      "intr": 6385,
      "accom": 6386,
      "explored": 6387,
      "ultra": 6388,
      "reduces": 6389,
      "toxicity": 6390,
      "ker": 6391,
      "##isp": 6392,
      "web": 6393,
      "varied": 6394,
      "agric": 6395,
      "indicators": 6396,
      "largely": 6397,
      "gastric": 6398,
      "Department": 6399,
      "tomography": 6400,
      "NS": 6401,
      "description": 6402,
      "Instit": 6403,
      "companies": 6404,
      "Mal": 6405,
      "##iance": 6406,
      "too": 6407,
      "##acent": 6408,
      "room": 6409,
      "##wareness": 6410,
      "NP": 6411,
      "##ician": 6412,
      "2015": 6413,
      "2008": 6414,
      "challenging": 6415,
      "built": 6416,
      "oriented": 6417,
      "manufacturing": 6418,
      "##umb": 6419,
      "cul": 6420,
      "##organ": 6421,
      "##rab": 6422,
      "actions": 6423,
      "infusion": 6424,
      "schemes": 6425,
      "principle": 6426,
      "Evaluation": 6427,
      "CB": 6428,
      "dil": 6429,
      "fusion": 6430,
      "##iers": 6431,
      "ATP": 6432,
      "##omers": 6433,
      "##amb": 6434,
      "clearly": 6435,
      "malignant": 6436,
      "Red": 6437,
      "TNF": 6438,
      "##ament": 6439,
      "deposition": 6440,
      "transient": 6441,
      "uncertainty": 6442,
      "intensive": 6443,
      "define": 6444,
      "2012": 6445,
      "##rinary": 6446,
      "farm": 6447,
      "map": 6448,
      "##uality": 6449,
      "records": 6450,
      "Ang": 6451,
      "Work": 6452,
      "fung": 6453,
      "##ued": 6454,
      "validity": 6455,
      "Assess": 6456,
      "enhancement": 6457,
      "Appro": 6458,
      "pump": 6459,
      "##18": 6460,
      "##ortion": 6461,
      "healthcare": 6462,
      "synchron": 6463,
      "##ometer": 6464,
      "emphas": 6465,
      "private": 6466,
      "Pres": 6467,
      "##vity": 6468,
      "##FT": 6469,
      "Review": 6470,
      "2020": 6471,
      "##ensus": 6472,
      "plate": 6473,
      "auto": 6474,
      "cultures": 6475,
      "circum": 6476,
      "version": 6477,
      "Br": 6478,
      "##uary": 6479,
      "##aria": 6480,
      "##ley": 6481,
      "##roduction": 6482,
      "synthesized": 6483,
      "simultaneously": 6484,
      "BC": 6485,
      "Low": 6486,
      "##GA": 6487,
      "##flow": 6488,
      "##mentation": 6489,
      "##ellite": 6490,
      "proved": 6491,
      "smart": 6492,
      "extension": 6493,
      "##olecular": 6494,
      "nano": 6495,
      "Zn": 6496,
      "##ked": 6497,
      "##band": 6498,
      "##arin": 6499,
      "atmosp": 6500,
      "synthetic": 6501,
      "encour": 6502,
      "neutral": 6503,
      "consequences": 6504,
      "300": 6505,
      "dB": 6506,
      "became": 6507,
      "dimensions": 6508,
      "India": 6509,
      "economy": 6510,
      "composite": 6511,
      "adaptation": 6512,
      "97": 6513,
      "CL": 6514,
      "##itors": 6515,
      "underst": 6516,
      "sections": 6517,
      "mathematical": 6518,
      "93": 6519,
      "##habil": 6520,
      "##imen": 6521,
      "exhibit": 6522,
      "sectional": 6523,
      "Ga": 6524,
      "zone": 6525,
      "##acch": 6526,
      "##ulum": 6527,
      "chip": 6528,
      "##ologists": 6529,
      "mapping": 6530,
      "separation": 6531,
      "##dominal": 6532,
      "recurrence": 6533,
      "bed": 6534,
      "decades": 6535,
      "equip": 6536,
      "availability": 6537,
      "mutant": 6538,
      "substantial": 6539,
      "##usc": 6540,
      "standards": 6541,
      "silicon": 6542,
      "recommendations": 6543,
      "Form": 6544,
      "HT": 6545,
      "Id": 6546,
      "SA": 6547,
      "Soci": 6548,
      "discusses": 6549,
      "Studies": 6550,
      "nerv": 6551,
      "##GE": 6552,
      "bias": 6553,
      "calculations": 6554,
      "Perform": 6555,
      "orientation": 6556,
      "Impro": 6557,
      "nanoparticles": 6558,
      "dr": 6559,
      "pure": 6560,
      "##itals": 6561,
      "deploy": 6562,
      "enable": 6563,
      "introduce": 6564,
      "inser": 6565,
      "validated": 6566,
      "precision": 6567,
      "opportunities": 6568,
      "ring": 6569,
      "shel": 6570,
      "##itudinal": 6571,
      "placed": 6572,
      "##IA": 6573,
      "##utaneous": 6574,
      "##heric": 6575,
      "tract": 6576,
      "obstr": 6577,
      "minutes": 6578,
      "changed": 6579,
      "cathe": 6580,
      "instrument": 6581,
      "intracellular": 6582,
      "87": 6583,
      "city": 6584,
      "maternal": 6585,
      "pal": 6586,
      "##osity": 6587,
      "adren": 6588,
      "Through": 6589,
      "becomes": 6590,
      "deficiency": 6591,
      "moment": 6592,
      "spin": 6593,
      "share": 6594,
      "matching": 6595,
      "clusters": 6596,
      "interviews": 6597,
      "la": 6598,
      "chapter": 6599,
      "rele": 6600,
      "localization": 6601,
      "build": 6602,
      "mobility": 6603,
      "words": 6604,
      "interpretation": 6605,
      "##arrow": 6606,
      "##ompan": 6607,
      "perception": 6608,
      "69": 6609,
      "##off": 6610,
      "ones": 6611,
      "true": 6612,
      "arm": 6613,
      "insights": 6614,
      "matched": 6615,
      "nurses": 6616,
      "infrastr": 6617,
      "Mat": 6618,
      "contained": 6619,
      "considerable": 6620,
      "Immun": 6621,
      "haz": 6622,
      "writ": 6623,
      "projects": 6624,
      "price": 6625,
      "discrete": 6626,
      "serve": 6627,
      "behavioral": 6628,
      "89": 6629,
      "limits": 6630,
      "##fficients": 6631,
      "computation": 6632,
      "adolescents": 6633,
      "Case": 6634,
      "##irr": 6635,
      "capture": 6636,
      "demonstrates": 6637,
      "oxidation": 6638,
      "Joh": 6639,
      "intermediate": 6640,
      "##part": 6641,
      "Disc": 6642,
      "idea": 6643,
      "acquired": 6644,
      "adjusted": 6645,
      "occl": 6646,
      "LC": 6647,
      "##zation": 6648,
      "##lem": 6649,
      "##ids": 6650,
      "driving": 6651,
      "##actic": 6652,
      "##ospitals": 6653,
      "involves": 6654,
      "residual": 6655,
      "feeding": 6656,
      "tolerance": 6657,
      "tree": 6658,
      "##ris": 6659,
      "##mia": 6660,
      "##amide": 6661,
      "plus": 6662,
      "typically": 6663,
      "77": 6664,
      "82": 6665,
      "rhe": 6666,
      "##wide": 6667,
      "##iment": 6668,
      "vertical": 6669,
      "numerous": 6670,
      "embedded": 6671,
      "du": 6672,
      "##urance": 6673,
      "2016": 6674,
      "Europe": 6675,
      "nitrogen": 6676,
      "antagon": 6677,
      "Pa": 6678,
      "nine": 6679,
      "2005": 6680,
      "influenced": 6681,
      "crystall": 6682,
      "76": 6683,
      "##16": 6684,
      "decreases": 6685,
      "stimulated": 6686,
      "92": 6687,
      "##ochem": 6688,
      "epis": 6689,
      "marker": 6690,
      "Fr": 6691,
      "Lin": 6692,
      "##Cl": 6693,
      "##ayer": 6694,
      "##ifications": 6695,
      "multiv": 6696,
      "facilitate": 6697,
      "melan": 6698,
      "Power": 6699,
      "##igation": 6700,
      "##istr": 6701,
      "optimized": 6702,
      "goals": 6703,
      "prolong": 6704,
      "chromat": 6705,
      "fracture": 6706,
      "artificial": 6707,
      "##irect": 6708,
      "##omb": 6709,
      "induce": 6710,
      "comparative": 6711,
      "concerns": 6712,
      "configuration": 6713,
      "ech": 6714,
      "##akers": 6715,
      "probe": 6716,
      "IgG": 6717,
      "MT": 6718,
      "##orous": 6719,
      "##elves": 6720,
      "spinal": 6721,
      "surround": 6722,
      "geometry": 6723,
      "minimal": 6724,
      "Each": 6725,
      "cervical": 6726,
      "pow": 6727,
      "μm": 6728,
      "##olip": 6729,
      "##ifier": 6730,
      "apply": 6731,
      "2019": 6732,
      "spectrom": 6733,
      "appeared": 6734,
      "propagation": 6735,
      "84": 6736,
      "Rob": 6737,
      "hor": 6738,
      "##vis": 6739,
      "incub": 6740,
      "affects": 6741,
      "molecule": 6742,
      "construc": 6743,
      "gastro": 6744,
      "88": 6745,
      "Ni": 6746,
      "dental": 6747,
      "hierarch": 6748,
      "##BS": 6749,
      "##osin": 6750,
      "restor": 6751,
      "heavy": 6752,
      "clinically": 6753,
      "allowed": 6754,
      "width": 6755,
      "extremely": 6756,
      "align": 6757,
      "concerning": 6758,
      "79": 6759,
      "Long": 6760,
      "PL": 6761,
      "disru": 6762,
      "undergoing": 6763,
      "##habilitation": 6764,
      "SH": 6765,
      "mot": 6766,
      "morbidity": 6767,
      "rights": 6768,
      "hypox": 6769,
      "separate": 6770,
      "flexible": 6771,
      "Val": 6772,
      "##sh": 6773,
      "##sp": 6774,
      "##SH": 6775,
      "why": 6776,
      "##ogeneity": 6777,
      "hardware": 6778,
      "##ef": 6779,
      "accompan": 6780,
      "correspond": 6781,
      "nursing": 6782,
      "Character": 6783,
      "2D": 6784,
      "beh": 6785,
      "carry": 6786,
      "glass": 6787,
      "2014": 6788,
      "coefficients": 6789,
      "thyroid": 6790,
      "manag": 6791,
      "electrom": 6792,
      "asymmet": 6793,
      "foreign": 6794,
      "94": 6795,
      "MAT": 6796,
      "##wise": 6797,
      "enables": 6798,
      "applying": 6799,
      "controlling": 6800,
      "blind": 6801,
      "harmon": 6802,
      "categories": 6803,
      "stay": 6804,
      "recognized": 6805,
      "substit": 6806,
      "prognosis": 6807,
      "FD": 6808,
      "Sens": 6809,
      "zero": 6810,
      "forces": 6811,
      "probably": 6812,
      "remote": 6813,
      "similarity": 6814,
      "programming": 6815,
      "##BC": 6816,
      "protocols": 6817,
      "adequate": 6818,
      "ng": 6819,
      "coding": 6820,
      "##pted": 6821,
      "##14": 6822,
      "depos": 6823,
      "##andemic": 6824,
      "simpl": 6825,
      "structured": 6826,
      "equilibrium": 6827,
      "gives": 6828,
      "gradient": 6829,
      "closely": 6830,
      "illness": 6831,
      "understood": 6832,
      "PU": 6833,
      "Ul": 6834,
      "benz": 6835,
      "##ontal": 6836,
      "##asia": 6837,
      "##ulates": 6838,
      "ord": 6839,
      "subt": 6840,
      "Process": 6841,
      "placebo": 6842,
      "settings": 6843,
      "vo": 6844,
      "static": 6845,
      "##orthern": 6846,
      "inclusion": 6847,
      "Scale": 6848,
      "prostate": 6849,
      "manifest": 6850,
      "brid": 6851,
      "##ias": 6852,
      "##uth": 6853,
      "producing": 6854,
      "##eget": 6855,
      "distributions": 6856,
      "##undred": 6857,
      "Mg": 6858,
      "awareness": 6859,
      "##pati": 6860,
      "##itted": 6861,
      "##ecutive": 6862,
      "##usive": 6863,
      "##esthesia": 6864,
      "Performance": 6865,
      "##atigue": 6866,
      "chol": 6867,
      "Resp": 6868,
      "referred": 6869,
      "som": 6870,
      "##ounts": 6871,
      "##ophys": 6872,
      "depending": 6873,
      "plastic": 6874,
      "partially": 6875,
      "biopsy": 6876,
      "HB": 6877,
      "##itone": 6878,
      "##isis": 6879,
      "##trans": 6880,
      "##ulture": 6881,
      "capability": 6882,
      "randomly": 6883,
      "Africa": 6884,
      "Overall": 6885,
      "fragment": 6886,
      "scattering": 6887,
      "##EA": 6888,
      "genome": 6889,
      "conceptual": 6890,
      "milk": 6891,
      "CV": 6892,
      "##RS": 6893,
      "##isk": 6894,
      "##immun": 6895,
      "resection": 6896,
      "calculation": 6897,
      "Material": 6898,
      "##vals": 6899,
      "##group": 6900,
      "##ria": 6901,
      "decom": 6902,
      "column": 6903,
      "composed": 6904,
      "neurolog": 6905,
      "##ilitary": 6906,
      "74": 6907,
      "mer": 6908,
      "wr": 6909,
      "decl": 6910,
      "collagen": 6911,
      "explained": 6912,
      "targeted": 6913,
      "precip": 6914,
      "prognostic": 6915,
      "repeated": 6916,
      "emotional": 6917,
      "OS": 6918,
      "##unt": 6919,
      "##iley": 6920,
      "##otide": 6921,
      "NF": 6922,
      "##ze": 6923,
      "##ana": 6924,
      "##iltr": 6925,
      "impacts": 6926,
      "ranging": 6927,
      "January": 6928,
      "EM": 6929,
      "Pers": 6930,
      "urinary": 6931,
      "##ynam": 6932,
      "defect": 6933,
      "affecting": 6934,
      "CO2": 6935,
      "road": 6936,
      "socio": 6937,
      "apparent": 6938,
      "71": 6939,
      "Care": 6940,
      "dram": 6941,
      "##mod": 6942,
      "##matic": 6943,
      "enrol": 6944,
      "meet": 6945,
      "elastic": 6946,
      "cycles": 6947,
      "easy": 6948,
      "irradiation": 6949,
      "lands": 6950,
      "takes": 6951,
      "2017": 6952,
      "##ercul": 6953,
      "Simulation": 6954,
      "86": 6955,
      "DS": 6956,
      "Other": 6957,
      "SV": 6958,
      "##ife": 6959,
      "interesting": 6960,
      "potenti": 6961,
      "logic": 6962,
      "shaped": 6963,
      "switching": 6964,
      "PI": 6965,
      "rout": 6966,
      "win": 6967,
      "##onom": 6968,
      "prin": 6969,
      "inters": 6970,
      "dietary": 6971,
      "organizations": 6972,
      "fluct": 6973,
      "game": 6974,
      "deal": 6975,
      "##ohist": 6976,
      "Introduction": 6977,
      "institutional": 6978,
      "Education": 6979,
      "Vis": 6980,
      "writing": 6981,
      "##ls": 6982,
      "2018": 6983,
      "hepatic": 6984,
      "heterogeneous": 6985,
      "scenarios": 6986,
      "IFN": 6987,
      "hundred": 6988,
      "##ico": 6989,
      "##throp": 6990,
      "cool": 6991,
      "##itig": 6992,
      "mineral": 6993,
      "classified": 6994,
      "##oidal": 6995,
      "2009": 6996,
      "Coll": 6997,
      "John": 6998,
      "Six": 6999,
      "dest": 7000,
      "##esity": 7001,
      "##ectin": 7002,
      "##apse": 7003,
      "phases": 7004,
      "2011": 7005,
      "impairment": 7006,
      "rational": 7007,
      "##orter": 7008,
      "inhibitory": 7009,
      "asth": 7010,
      "Bay": 7011,
      "Function": 7012,
      "miss": 7013,
      "rural": 7014,
      "##cape": 7015,
      "##ask": 7016,
      "##struct": 7017,
      "enzymes": 7018,
      "equipment": 7019,
      "Li": 7020,
      "compression": 7021,
      "##rosion": 7022,
      "extra": 7023,
      "practition": 7024,
      "addressed": 7025,
      "validation": 7026,
      "check": 7027,
      "Children": 7028,
      "fetal": 7029,
      "pp": 7030,
      "org": 7031,
      "##outhern": 7032,
      "LH": 7033,
      "wat": 7034,
      "##ronch": 7035,
      "Prot": 7036,
      "##heless": 7037,
      "hepatitis": 7038,
      "Additionally": 7039,
      "ions": 7040,
      "rh": 7041,
      "tail": 7042,
      "##ols": 7043,
      "start": 7044,
      "2013": 7045,
      "net": 7046,
      "##ady": 7047,
      "##ading": 7048,
      "##oked": 7049,
      "absol": 7050,
      "sinus": 7051,
      "pseud": 7052,
      "##iation": 7053,
      "##ilos": 7054,
      "meta": 7055,
      "accurately": 7056,
      "belief": 7057,
      "##emporary": 7058,
      "IT": 7059,
      "##ontin": 7060,
      "bearing": 7061,
      "##ellar": 7062,
      "shared": 7063,
      "transf": 7064,
      "overl": 7065,
      "suppress": 7066,
      "##omestic": 7067,
      "utilization": 7068,
      "belong": 7069,
      "attitudes": 7070,
      "##olytic": 7071,
      "intestinal": 7072,
      "She": 7073,
      "gal": 7074,
      "locations": 7075,
      "explan": 7076,
      "conduct": 7077,
      "identifying": 7078,
      "61": 7079,
      "hospitals": 7080,
      "##pro": 7081,
      "once": 7082,
      "coverage": 7083,
      "overcome": 7084,
      "##factory": 7085,
      "Pe": 7086,
      "##EV": 7087,
      "perf": 7088,
      "grown": 7089,
      "Sing": 7090,
      "nod": 7091,
      "neurop": 7092,
      "##oscopic": 7093,
      "feasibility": 7094,
      "antim": 7095,
      "coating": 7096,
      "positively": 7097,
      "medication": 7098,
      "##argeting": 7099,
      "utility": 7100,
      "annual": 7101,
      "phosphorylation": 7102,
      "DM": 7103,
      "Num": 7104,
      "##cal": 7105,
      "##reted": 7106,
      "##ancies": 7107,
      "improves": 7108,
      "persons": 7109,
      "foot": 7110,
      "bleeding": 7111,
      "##ister": 7112,
      "today": 7113,
      "evaluating": 7114,
      "efficiently": 7115,
      "rib": 7116,
      "sti": 7117,
      "##tial": 7118,
      "##acting": 7119,
      "##acted": 7120,
      "preven": 7121,
      "frame": 7122,
      "curves": 7123,
      "PET": 7124,
      "##aid": 7125,
      "##urally": 7126,
      "##idine": 7127,
      "clar": 7128,
      "subc": 7129,
      "##mselves": 7130,
      "replacement": 7131,
      "infrared": 7132,
      "assembly": 7133,
      "bit": 7134,
      "rule": 7135,
      "##alities": 7136,
      "consisting": 7137,
      "decline": 7138,
      "toxic": 7139,
      "narrow": 7140,
      "sperm": 7141,
      "##otal": 7142,
      "discipl": 7143,
      "guide": 7144,
      "fuel": 7145,
      "##oscopy": 7146,
      "SU": 7147,
      "UK": 7148,
      "Prof": 7149,
      "generalized": 7150,
      "photo": 7151,
      "encoun": 7152,
      "susceptibility": 7153,
      "venti": 7154,
      "themselves": 7155,
      "##ulus": 7156,
      "metall": 7157,
      "electroc": 7158,
      "characterize": 7159,
      "semi": 7160,
      "camera": 7161,
      "tour": 7162,
      "imag": 7163,
      "##thal": 7164,
      "antioxid": 7165,
      "epidem": 7166,
      "square": 7167,
      "HF": 7168,
      "Its": 7169,
      "##bra": 7170,
      "retin": 7171,
      "exact": 7172,
      "assays": 7173,
      "associations": 7174,
      "consideration": 7175,
      "isolates": 7176,
      "##OT": 7177,
      "##eneration": 7178,
      "##idal": 7179,
      "impaired": 7180,
      "opin": 7181,
      "supporting": 7182,
      "greatly": 7183,
      "Science": 7184,
      "represented": 7185,
      "favor": 7186,
      "Neu": 7187,
      "TR": 7188,
      "aortic": 7189,
      "live": 7190,
      "ves": 7191,
      "##enic": 7192,
      "##uck": 7193,
      "##ifer": 7194,
      "##rag": 7195,
      "indirect": 7196,
      "prelim": 7197,
      "Incre": 7198,
      "pancreatic": 7199,
      "bulk": 7200,
      "81": 7201,
      "Mar": 7202,
      "iter": 7203,
      "##oe": 7204,
      "reach": 7205,
      "items": 7206,
      "Plas": 7207,
      "fish": 7208,
      "veget": 7209,
      "##iling": 7210,
      "never": 7211,
      "abdominal": 7212,
      "analyzing": 7213,
      "draw": 7214,
      "vulner": 7215,
      "Braz": 7216,
      "wet": 7217,
      "##tivated": 7218,
      "investigations": 7219,
      "travel": 7220,
      "receive": 7221,
      "nearly": 7222,
      "innovation": 7223,
      "##teen": 7224,
      "cord": 7225,
      "CSF": 7226,
      "trauma": 7227,
      "Dynamic": 7228,
      "##rous": 7229,
      "quad": 7230,
      "occurring": 7231,
      "tube": 7232,
      "paradig": 7233,
      "GHz": 7234,
      "OH": 7235,
      "##anic": 7236,
      "##aryng": 7237,
      "presenting": 7238,
      "determin": 7239,
      "##otropic": 7240,
      "diver": 7241,
      "residues": 7242,
      "illustrate": 7243,
      "aug": 7244,
      "##opic": 7245,
      "subun": 7246,
      "physicians": 7247,
      "symb": 7248,
      "##standing": 7249,
      "Measure": 7250,
      "soluble": 7251,
      "400": 7252,
      "au": 7253,
      "waves": 7254,
      "##IAL": 7255,
      "inside": 7256,
      "Surve": 7257,
      "##elihood": 7258,
      "outside": 7259,
      "infrastructure": 7260,
      "batter": 7261,
      "##ming": 7262,
      "##osing": 7263,
      "##owel": 7264,
      "except": 7265,
      "##adder": 7266,
      "substr": 7267,
      "undert": 7268,
      "lowest": 7269,
      "2007": 7270,
      "phenotype": 7271,
      "abnormalities": 7272,
      "vaccine": 7273,
      "hot": 7274,
      "##gu": 7275,
      "intervals": 7276,
      "options": 7277,
      "solving": 7278,
      "Disease": 7279,
      "steel": 7280,
      "Dr": 7281,
      "fig": 7282,
      "##ply": 7283,
      "stere": 7284,
      "overview": 7285,
      "##ococcus": 7286,
      "Vol": 7287,
      "fine": 7288,
      "Their": 7289,
      "insp": 7290,
      "valuable": 7291,
      "injuries": 7292,
      "graft": 7293,
      "Similar": 7294,
      "Sal": 7295,
      "dip": 7296,
      "fal": 7297,
      "##Es": 7298,
      "##arant": 7299,
      "##ocl": 7300,
      "university": 7301,
      "variance": 7302,
      "traject": 7303,
      "150": 7304,
      "##rophy": 7305,
      "cultured": 7306,
      "Multiple": 7307,
      "scholars": 7308,
      "insight": 7309,
      "Energy": 7310,
      "polarization": 7311,
      "donor": 7312,
      "Use": 7313,
      "drin": 7314,
      "##ided": 7315,
      "explicit": 7316,
      "##ighting": 7317,
      "mostly": 7318,
      "morphological": 7319,
      "Association": 7320,
      "pil": 7321,
      "vas": 7322,
      "##icular": 7323,
      "altered": 7324,
      "termin": 7325,
      "possess": 7326,
      "fibers": 7327,
      "hydroxy": 7328,
      "cavity": 7329,
      "##DNA": 7330,
      "##iding": 7331,
      "firms": 7332,
      "contributions": 7333,
      "keep": 7334,
      "moving": 7335,
      "GC": 7336,
      "ty": 7337,
      "##AV": 7338,
      "whom": 7339,
      "##apa": 7340,
      "reviews": 7341,
      "Environ": 7342,
      "intravenous": 7343,
      "delayed": 7344,
      "attempt": 7345,
      "Brazil": 7346,
      "lens": 7347,
      "sizes": 7348,
      "##15": 7349,
      "##ern": 7350,
      "2004": 7351,
      "routine": 7352,
      "Follow": 7353,
      "Key": 7354,
      "amounts": 7355,
      "newly": 7356,
      "longitudinal": 7357,
      "improvements": 7358,
      "##rophic": 7359,
      "INT": 7360,
      "movements": 7361,
      "Institute": 7362,
      "TP": 7363,
      "fresh": 7364,
      "##anks": 7365,
      "##imer": 7366,
      "sharing": 7367,
      "##ulties": 7368,
      "allowing": 7369,
      "ideal": 7370,
      "SAR": 7371,
      "fri": 7372,
      "pandemic": 7373,
      "##une": 7374,
      "failed": 7375,
      "Predic": 7376,
      "dogs": 7377,
      "surge": 7378,
      "topic": 7379,
      "positions": 7380,
      "olig": 7381,
      "reached": 7382,
      "preliminary": 7383,
      "pi": 7384,
      "##zing": 7385,
      "##ryl": 7386,
      "##Ds": 7387,
      "##ift": 7388,
      "##rought": 7389,
      "##ophy": 7390,
      "refr": 7391,
      "neck": 7392,
      "fatty": 7393,
      "School": 7394,
      "predominant": 7395,
      "reverse": 7396,
      "rehabilitation": 7397,
      "Compared": 7398,
      "Wiley": 7399,
      "##NT": 7400,
      "##head": 7401,
      "##osine": 7402,
      "Integ": 7403,
      "thereby": 7404,
      "admission": 7405,
      "aspect": 7406,
      "slightly": 7407,
      "acoustic": 7408,
      "##cles": 7409,
      "childhood": 7410,
      "##anned": 7411,
      "terr": 7412,
      "written": 7413,
      "BMI": 7414,
      "##omial": 7415,
      "exists": 7416,
      "clinic": 7417,
      "developmental": 7418,
      "retention": 7419,
      "Surg": 7420,
      "odds": 7421,
      "##itic": 7422,
      "##ratic": 7423,
      "##point": 7424,
      "##FS": 7425,
      "instead": 7426,
      "##osen": 7427,
      "##amination": 7428,
      "trust": 7429,
      "##rins": 7430,
      "purpos": 7431,
      "buff": 7432,
      "oxidative": 7433,
      "Micro": 7434,
      "horiz": 7435,
      "domestic": 7436,
      "native": 7437,
      "2006": 7438,
      "##helium": 7439,
      "reveals": 7440,
      "precurs": 7441,
      "situations": 7442,
      "lith": 7443,
      "lys": 7444,
      "pic": 7445,
      "##rant": 7446,
      "staining": 7447,
      "polyp": 7448,
      "correlations": 7449,
      "arthritis": 7450,
      "Austral": 7451,
      "##acchar": 7452,
      "km": 7453,
      "pip": 7454,
      "thym": 7455,
      "forec": 7456,
      "cooper": 7457,
      "concrete": 7458,
      "opportunity": 7459,
      "Assessment": 7460,
      "Do": 7461,
      "SM": 7462,
      "fatigue": 7463,
      "##oad": 7464,
      "lymphocytes": 7465,
      "maintained": 7466,
      "correction": 7467,
      "extracellular": 7468,
      "parent": 7469,
      "firm": 7470,
      "affinity": 7471,
      "conjug": 7472,
      "tre": 7473,
      "station": 7474,
      "carrier": 7475,
      "pairs": 7476,
      "investment": 7477,
      "EU": 7478,
      "Mus": 7479,
      "chest": 7480,
      "military": 7481,
      "objectives": 7482,
      "##athy": 7483,
      "##rown": 7484,
      "remark": 7485,
      "relevance": 7486,
      "biomark": 7487,
      "DO": 7488,
      "hour": 7489,
      "music": 7490,
      "statistics": 7491,
      "violence": 7492,
      "Early": 7493,
      "conflict": 7494,
      "Nan": 7495,
      "Prac": 7496,
      "gold": 7497,
      "rough": 7498,
      "##tt": 7499,
      "##19": 7500,
      "##osystem": 7501,
      "leaf": 7502,
      "Algorith": 7503,
      "##istics": 7504,
      "capabilities": 7505,
      "appearance": 7506,
      "beginning": 7507,
      "big": 7508,
      "##itus": 7509,
      "##acer": 7510,
      "prove": 7511,
      "usage": 7512,
      "##ranes": 7513,
      "professionals": 7514,
      "##uits": 7515,
      "##ato": 7516,
      "loading": 7517,
      "Comparison": 7518,
      "assisted": 7519,
      "Fre": 7520,
      "Prim": 7521,
      "pool": 7522,
      "##tious": 7523,
      "detecting": 7524,
      "likelihood": 7525,
      "protective": 7526,
      "##testinal": 7527,
      "##arbon": 7528,
      "attacks": 7529,
      "HA": 7530,
      "PH": 7531,
      "camp": 7532,
      "targeting": 7533,
      "vag": 7534,
      "##onduc": 7535,
      "##illance": 7536,
      "electroph": 7537,
      "cytotox": 7538,
      "LPS": 7539,
      "Up": 7540,
      "##osomal": 7541,
      "quick": 7542,
      "papers": 7543,
      "##pectives": 7544,
      "##robial": 7545,
      "starting": 7546,
      "absolute": 7547,
      "DR": 7548,
      "irr": 7549,
      "##pped": 7550,
      "pert": 7551,
      "consecutive": 7552,
      "ovarian": 7553,
      "##urk": 7554,
      "##lasts": 7555,
      "largest": 7556,
      "burden": 7557,
      "##erculosis": 7558,
      "Sol": 7559,
      "crop": 7560,
      "##Ns": 7561,
      "##ologous": 7562,
      "##cler": 7563,
      "##ords": 7564,
      "##sequently": 7565,
      "eyes": 7566,
      "##ptions": 7567,
      "Sci": 7568,
      "member": 7569,
      "documented": 7570,
      "##onin": 7571,
      "##enth": 7572,
      "enough": 7573,
      "cancers": 7574,
      "quite": 7575,
      "endogenous": 7576,
      "2002": 7577,
      "therapies": 7578,
      "SE": 7579,
      "er": 7580,
      "wear": 7581,
      "healing": 7582,
      "allocation": 7583,
      "iden": 7584,
      "hydroph": 7585,
      "macrophages": 7586,
      "cortex": 7587,
      "actin": 7588,
      "Chang": 7589,
      "capt": 7590,
      "assessing": 7591,
      "Due": 7592,
      "narr": 7593,
      "##uge": 7594,
      "##TP": 7595,
      "##fts": 7596,
      "##iders": 7597,
      "##ush": 7598,
      "modification": 7599,
      "translation": 7600,
      "formulation": 7601,
      "bios": 7602,
      "histological": 7603,
      "creating": 7604,
      "shear": 7605,
      "##oir": 7606,
      "##fort": 7607,
      "##raw": 7608,
      "progressive": 7609,
      "independently": 7610,
      "##ogenetic": 7611,
      "documents": 7612,
      "General": 7613,
      "alterations": 7614,
      "##lands": 7615,
      "##mal": 7616,
      "##abled": 7617,
      "leak": 7618,
      "recurrent": 7619,
      "unf": 7620,
      "powerful": 7621,
      "influences": 7622,
      "advance": 7623,
      "##urses": 7624,
      "negl": 7625,
      "argue": 7626,
      "0001": 7627,
      "ideas": 7628,
      "Previous": 7629,
      "competitive": 7630,
      "Bas": 7631,
      "La": 7632,
      "mol": 7633,
      "##oon": 7634,
      "##enn": 7635,
      "##etary": 7636,
      "##opol": 7637,
      "obesity": 7638,
      "philos": 7639,
      "designs": 7640,
      "achieving": 7641,
      "drive": 7642,
      "barriers": 7643,
      "Purpose": 7644,
      "##ochemistry": 7645,
      "##uclear": 7646,
      "emissions": 7647,
      "directions": 7648,
      "HCV": 7649,
      "adsorption": 7650,
      "substrates": 7651,
      "stat": 7652,
      "glob": 7653,
      "steady": 7654,
      "passive": 7655,
      "OP": 7656,
      "##ificant": 7657,
      "##ilep": 7658,
      "forming": 7659,
      "##ief": 7660,
      "insu": 7661,
      "operative": 7662,
      "engagement": 7663,
      "precise": 7664,
      "##queous": 7665,
      "dataset": 7666,
      "derivatives": 7667,
      "dramatic": 7668,
      "May": 7669,
      "Mechan": 7670,
      "sent": 7671,
      "##CE": 7672,
      "operational": 7673,
      "pathogenesis": 7674,
      "guarant": 7675,
      "venous": 7676,
      "Test": 7677,
      "##down": 7678,
      "##CR": 7679,
      "##LS": 7680,
      "##ucid": 7681,
      "##ional": 7682,
      "scales": 7683,
      "desired": 7684,
      "combining": 7685,
      "clustering": 7686,
      "AIDS": 7687,
      "H2": 7688,
      "##gent": 7689,
      "##uly": 7690,
      "##engt": 7691,
      "contrac": 7692,
      "Recently": 7693,
      "residents": 7694,
      "convergence": 7695,
      "electrode": 7696,
      "ben": 7697,
      "egg": 7698,
      "faster": 7699,
      "Only": 7700,
      "ligand": 7701,
      "Particip": 7702,
      "Current": 7703,
      "dro": 7704,
      "vibration": 7705,
      "##rated": 7706,
      "##oved": 7707,
      "##puts": 7708,
      "##achment": 7709,
      "supports": 7710,
      "follows": 7711,
      "organizational": 7712,
      "penet": 7713,
      "##oglobin": 7714,
      "iso": 7715,
      "##ilic": 7716,
      "expon": 7717,
      "crisis": 7718,
      "earth": 7719,
      "requirement": 7720,
      "isolation": 7721,
      "creation": 7722,
      "##cribed": 7723,
      "variants": 7724,
      "formula": 7725,
      "##nee": 7726,
      "pathological": 7727,
      "phosphate": 7728,
      "Evidence": 7729,
      "principal": 7730,
      "scheduling": 7731,
      "mitochondrial": 7732,
      "##itting": 7733,
      "##isons": 7734,
      "##inger": 7735,
      "contemporary": 7736,
      "##ylation": 7737,
      "technological": 7738,
      "Indian": 7739,
      "consisted": 7740,
      "details": 7741,
      "panel": 7742,
      "chromatography": 7743,
      "Not": 7744,
      "Ox": 7745,
      "Vi": 7746,
      "fair": 7747,
      "tens": 7748,
      "##li": 7749,
      "##plex": 7750,
      "biochemical": 7751,
      "##ographical": 7752,
      "120": 7753,
      "continued": 7754,
      "attempts": 7755,
      "segmentation": 7756,
      "##weight": 7757,
      "##lip": 7758,
      "##aline": 7759,
      "modelling": 7760,
      "detector": 7761,
      "beneficial": 7762,
      "teacher": 7763,
      "bench": 7764,
      "derm": 7765,
      "##bre": 7766,
      "productivity": 7767,
      "explores": 7768,
      "2003": 7769,
      "mention": 7770,
      "copper": 7771,
      "library": 7772,
      "SR": 7773,
      "Self": 7774,
      "##ione": 7775,
      "perme": 7776,
      "##iber": 7777,
      "##ourse": 7778,
      "##fully": 7779,
      "pathology": 7780,
      "##iotics": 7781,
      "restricted": 7782,
      "arrang": 7783,
      "million": 7784,
      "barrier": 7785,
      "possibly": 7786,
      "##iveness": 7787,
      "arbit": 7788,
      "advances": 7789,
      "verified": 7790,
      "automated": 7791,
      "identical": 7792,
      "##ediatric": 7793,
      "underg": 7794,
      "decade": 7795,
      "2001": 7796,
      "marrow": 7797,
      "Detection": 7798,
      "habit": 7799,
      "06": 7800,
      "DES": 7801,
      "bott": 7802,
      "##BM": 7803,
      "isot": 7804,
      "##actors": 7805,
      "##duction": 7806,
      "distal": 7807,
      "traits": 7808,
      "##ophage": 7809,
      "maximal": 7810,
      "directed": 7811,
      "platelet": 7812,
      "respondents": 7813,
      "vehicles": 7814,
      "Quality": 7815,
      "gir": 7816,
      "germ": 7817,
      "##anning": 7818,
      "valve": 7819,
      "focusing": 7820,
      "approximation": 7821,
      "GH": 7822,
      "reform": 7823,
      "chosen": 7824,
      "infiltr": 7825,
      "performing": 7826,
      "Ext": 7827,
      "requiring": 7828,
      "adhesion": 7829,
      "Society": 7830,
      "Are": 7831,
      "##17": 7832,
      "come": 7833,
      "module": 7834,
      "psychiatric": 7835,
      "deficient": 7836,
      "Risk": 7837,
      "let": 7838,
      "##oys": 7839,
      "imped": 7840,
      "defic": 7841,
      "sustainable": 7842,
      "catheter": 7843,
      "asthma": 7844,
      "woman": 7845,
      "##ached": 7846,
      "contents": 7847,
      "skeletal": 7848,
      "experimentally": 7849,
      "AA": 7850,
      "VE": 7851,
      "bind": 7852,
      "##hal": 7853,
      "##born": 7854,
      "inequ": 7855,
      "microg": 7856,
      "sugges": 7857,
      "datasets": 7858,
      "LV": 7859,
      "Type": 7860,
      "journal": 7861,
      "ru": 7862,
      "vic": 7863,
      "##iger": 7864,
      "remaining": 7865,
      "ultim": 7866,
      "ecological": 7867,
      "assigned": 7868,
      "##tible": 7869,
      "##anking": 7870,
      "ongoing": 7871,
      "shock": 7872,
      "##ensities": 7873,
      "excitation": 7874,
      "America": 7875,
      "attributed": 7876,
      "Networks": 7877,
      "prolonged": 7878,
      "ure": 7879,
      "accep": 7880,
      "discovery": 7881,
      "difficulties": 7882,
      "multim": 7883,
      "maintaining": 7884,
      "eryth": 7885,
      "dynam": 7886,
      "meeting": 7887,
      "##aceu": 7888,
      "predicting": 7889,
      "membranes": 7890,
      "Central": 7891,
      "satellite": 7892,
      "collaboration": 7893,
      "pneumonia": 7894,
      "Australia": 7895,
      "benign": 7896,
      "Mn": 7897,
      "Ret": 7898,
      "ice": 7899,
      "##ares": 7900,
      "indices": 7901,
      "volum": 7902,
      "fibrob": 7903,
      "encoding": 7904,
      "offered": 7905,
      "##patient": 7906,
      "gate": 7907,
      "##irty": 7908,
      "reflection": 7909,
      "##itoneal": 7910,
      "Flu": 7911,
      "##inating": 7912,
      "##icrobial": 7913,
      "##mented": 7914,
      "predictors": 7915,
      "Application": 7916,
      "semic": 7917,
      "##ony": 7918,
      "neoplas": 7919,
      "obst": 7920,
      "##arction": 7921,
      "bronch": 7922,
      "hol": 7923,
      "##uity": 7924,
      "##asi": 7925,
      "##illed": 7926,
      "former": 7927,
      "suppression": 7928,
      "##okines": 7929,
      "removed": 7930,
      "administr": 7931,
      "##iliary": 7932,
      "Technology": 7933,
      "Aug": 7934,
      "Mach": 7935,
      "youth": 7936,
      "##co": 7937,
      "theories": 7938,
      "consensus": 7939,
      "Comb": 7940,
      "250": 7941,
      "binary": 7942,
      "phenomena": 7943,
      "emphasis": 7944,
      "collaborative": 7945,
      "Cop": 7946,
      "ii": 7947,
      "##times": 7948,
      "##ribution": 7949,
      "##ovirus": 7950,
      "prototype": 7951,
      "##azole": 7952,
      "nucleus": 7953,
      "evolutionary": 7954,
      "adjustment": 7955,
      "inner": 7956,
      "##asive": 7957,
      "subgroup": 7958,
      "metastasis": 7959,
      "practitioners": 7960,
      "FP": 7961,
      "PK": 7962,
      "uter": 7963,
      "##25": 7964,
      "##rays": 7965,
      "spher": 7966,
      "subjected": 7967,
      "admitted": 7968,
      "Global": 7969,
      "deviation": 7970,
      "labeled": 7971,
      "91": 7972,
      "bor": 7973,
      "##omorph": 7974,
      "##rowth": 7975,
      "enterpr": 7976,
      "##engthen": 7977,
      "Mul": 7978,
      "##eties": 7979,
      "##BD": 7980,
      "##oded": 7981,
      "segments": 7982,
      "##apping": 7983,
      "subsequently": 7984,
      "ultrason": 7985,
      "Center": 7986,
      "retrieval": 7987,
      "##onomous": 7988,
      "Econ": 7989,
      "ball": 7990,
      "kn": 7991,
      "ple": 7992,
      "vital": 7993,
      "dehyd": 7994,
      "compact": 7995,
      "season": 7996,
      "proven": 7997,
      "markets": 7998,
      "Spect": 7999,
      "aspir": 8000,
      "connection": 8001,
      "surrounding": 8002,
      "Bu": 8003,
      "LD": 8004,
      "##MM": 8005,
      "entit": 8006,
      "intrins": 8007,
      "regime": 8008,
      "visible": 8009,
      "lymphoma": 8010,
      "##GFR": 8011,
      "Figure": 8012,
      "##aceutical": 8013,
      "##intestinal": 8014,
      "##asp": 8015,
      "deformation": 8016,
      "generating": 8017,
      "department": 8018,
      "demographic": 8019,
      "extend": 8020,
      "continue": 8021,
      "promoter": 8022,
      "kinetics": 8023,
      "cos": 8024,
      "##UC": 8025,
      "##activity": 8026,
      "##aptic": 8027,
      "leaves": 8028,
      "obvious": 8029,
      "genomic": 8030,
      "outl": 8031,
      "plasm": 8032,
      "Diagn": 8033,
      "Hyd": 8034,
      "pix": 8035,
      "##UD": 8036,
      "##itory": 8037,
      "initially": 8038,
      "magnet": 8039,
      "hearing": 8040,
      "semantic": 8041,
      "bring": 8042,
      "Arab": 8043,
      "Cap": 8044,
      "hip": 8045,
      "stop": 8046,
      "##essions": 8047,
      "complication": 8048,
      "perceptions": 8049,
      "studying": 8050,
      "developments": 8051,
      "centers": 8052,
      "contributes": 8053,
      "cytoplas": 8054,
      "yields": 8055,
      "competition": 8056,
      "househ": 8057,
      "bilateral": 8058,
      "##like": 8059,
      "##HC": 8060,
      "intended": 8061,
      "placement": 8062,
      "antibiotic": 8063,
      "purposes": 8064,
      "Part": 8065,
      "citiz": 8066,
      "drain": 8067,
      "tes": 8068,
      "##OG": 8069,
      "##ulative": 8070,
      "electr": 8071,
      "utilizing": 8072,
      "oppos": 8073,
      "unclear": 8074,
      "multivariate": 8075,
      "PE": 8076,
      "RS": 8077,
      "TO": 8078,
      "West": 8079,
      "aqueous": 8080,
      "codes": 8081,
      "nasal": 8082,
      "##Rs": 8083,
      "##MT": 8084,
      "athe": 8085,
      "seiz": 8086,
      "facilities": 8087,
      "fabricated": 8088,
      "SW": 8089,
      "##haps": 8090,
      "##disc": 8091,
      "##PD": 8092,
      "##ani": 8093,
      "cred": 8094,
      "reality": 8095,
      "1999": 8096,
      "trained": 8097,
      "coordination": 8098,
      "debate": 8099,
      "mothers": 8100,
      "mand": 8101,
      "##sk": 8102,
      "##otr": 8103,
      "cold": 8104,
      "##ochastic": 8105,
      "FT": 8106,
      "maps": 8107,
      "##oT": 8108,
      "##BL": 8109,
      "##urable": 8110,
      "##elled": 8111,
      "leadership": 8112,
      "facial": 8113,
      "receiver": 8114,
      "Findings": 8115,
      "displacement": 8116,
      "ranged": 8117,
      "routing": 8118,
      "tor": 8119,
      "##ners": 8120,
      "conform": 8121,
      "onc": 8122,
      "sensory": 8123,
      "potent": 8124,
      "promin": 8125,
      "younger": 8126,
      "aver": 8127,
      "drop": 8128,
      "##uated": 8129,
      "##vascular": 8130,
      "##ires": 8131,
      "views": 8132,
      "catalytic": 8133,
      "scenario": 8134,
      "dispersion": 8135,
      "perturb": 8136,
      "Au": 8137,
      "anomal": 8138,
      "##rip": 8139,
      "##anger": 8140,
      "urine": 8141,
      "##ophageal": 8142,
      "##upp": 8143,
      "##gar": 8144,
      "cond": 8145,
      "Adv": 8146,
      "Impact": 8147,
      "Russian": 8148,
      "##yc": 8149,
      "##HD": 8150,
      "congen": 8151,
      "reper": 8152,
      "elucid": 8153,
      "functioning": 8154,
      "elevation": 8155,
      "false": 8156,
      "HD": 8157,
      "LT": 8158,
      "ML": 8159,
      "mitig": 8160,
      "##eur": 8161,
      "##ulators": 8162,
      "##umor": 8163,
      "caps": 8164,
      "emerged": 8165,
      "Behavi": 8166,
      "company": 8167,
      "communications": 8168,
      "candidate": 8169,
      "proximal": 8170,
      "bar": 8171,
      "##pread": 8172,
      "##anine": 8173,
      "##ategory": 8174,
      "extracts": 8175,
      "absorb": 8176,
      "##cription": 8177,
      "argues": 8178,
      "ischemic": 8179,
      "Dem": 8180,
      "ign": 8181,
      "nons": 8182,
      "##rotid": 8183,
      "neph": 8184,
      "timing": 8185,
      "##heses": 8186,
      "perspectives": 8187,
      "immunos": 8188,
      "immunohist": 8189,
      "conductivity": 8190,
      "losses": 8191
    }
  }
}