[PAD]
[UNK]
[CLS]
[SEP]
[MASK]
!
"
#
$
%
&
'
(
)
*
+
,
-
.
/
0
1
2
3
4
5
6
7
8
9
:
;
<
=
>
?
@
A
B
C
D
E
F
G
H
I
J
K
L
M
N
O
P
Q
R
S
T
U
V
W
X
Y
Z
[
\
]
^
_
`
a
b
c
d
e
f
g
h
i
j
k
l
m
n
o
p
q
r
s
t
u
v
w
x
y
z
{
|
}
~
¡
¢
£
¤
¥
§
¨
©
ª
«
¬
®
¯
°
±
²
³
´
µ
¶
·
¸
¹
º
»
¼
½
¿
À
Á
Â
Ã
Ä
Å
Æ
Ç
È
É
Í
Î
Ï
Ð
Ñ
Ò
Ó
Ô
Õ
Ö
×
Ø
Ú
Ü
Þ
ß
à
á
â
ã
ä
å
æ
ç
è
é
ê
ë
ì
í
ï
ð
ñ
ò
ó
ô
õ
ö
÷
ø
ù
ú
û
ü
ý
þ
ÿ
Ā
ā
ă
ą
Ć
ć
Č
č
Đ
Ē
ē
ė
ę
ě
ğ
ĩ
ī
İ
ı
ł
ń
ŋ
ō
ŏ
ő
œ
ř
Ś
ś
ŝ
Ş
ş
Š
š
ţ
ū
ŵ
Ż
ż
ž
Ɛ
ƒ
Ɵ
Ʃ
ǁ
Ș
ș
ț
ɕ
ɛ
ɜ
ɲ
ʂ
ʃ
ʹ
ʼ
ʾ
ʿ
˂
˃
ˇ
˙
˚
˜
˭
́
̂
̃
̄
̅
̇
̈
̊
̲
̸
ͻ
Α
Β
Γ
Δ
Ε
Ζ
Θ
Κ
Λ
Μ
Ν
Π
Σ
Τ
Υ
Φ
Χ
Ψ
Ω
ί
α
β
γ
δ
ε
ζ
η
θ
ι
κ
λ
μ
ν
ξ
π
ρ
ς
σ
τ
υ
φ
χ
ψ
ω
ϑ
ϕ
ϱ
ϵ
Ђ
Ѓ
Є
І
А
Б
В
Г
Е
И
К
Л
М
Н
О
П
Р
С
Т
Ф
Х
Э
Ю
а
б
в
г
д
е
з
и
й
к
л
м
н
о
п
р
с
т
у
х
ц
ч
щ
ы
ь
ю
я
ё
є
і
ў
ѱ
א
،
أ
ئ
ا
ب
ة
ت
ث
ج
ح
د
ر
ز
س
ش
ط
ع
ـ
ف
ق
ل
م
ن
ه
و
ى
ي
٠
پ
ک
ی
ᵓ
ᵣ
Ḟ
Ḥ
ḥ
Ṁ
ṃ
ṅ
ṇ
ṣ
ẓ
ạ
ệ
ἐ
ῆ
ῶ
‐
‑
‒
–
—
―
‖
‘
’
‚
‛
“
”
„
‟
†
‡
•
…
‰
′
″
‹
›
⁄
⁶
⁹
⁺
⁻
₀
₁
₂
₃
₄
₅
ₑ
€
⃑
⃝
⃞
℃
ℏ
ℓ
ℕ
№
ℚ
ℜ
ℝ
™
ℨ
ℬ
ℰ
ℱ
Ⅰ
Ⅱ
Ⅲ
Ⅵ
←
↑
→
↓
↔
↵
⇐
⇒
⇓
∀
∂
∃
∅
∆
∇
∈
∊
∑
−
∓
∕
∖
∗
∘
∙
√
∝
∞
∣
∥
∧
∨
∩
∪
∫
∶
∼
∽
≃
≅
≈
≒
≠
≡
≤
≥
≦
≧
≪
≫
≰
≲
≳
≺
⊂
⊆
⊕
⊗
⊘
⊙
⊢
⊥
⊿
⋅
⋆
⋊
⋯
①
②
─
═
║
▒
■
▪
▶
►
●
◦
☆
☉
♀
♂
♦
✓
✱
❏
❑
⟨
⟩
⟹
⩽
⩾
、
。
〈
〉
《
》
【
】
あ
い
う
え
お
か
が
き
く
け
こ
さ
し
じ
す
た
だ
っ
つ
て
で
と
ど
な
に
の
は
び
へ
ま
も
よ
ら
る
れ
わ
を
ア
イ
ゥ
エ
ケ
コ
サ
シ
ス
セ
ダ
ト
ニ
バ
ビ
ブ
ミ
ュ
ョ
ラ
リ
ル
ン
・
ー
㎎
㎏
一
七
上
下
不
丑
世
丘
个
中
为
主
丿
九
了
予
二
于
交
人
仍
代
以
件
会
传
伴
似
但
位
低
体
作
使
例
価
侧
俗
保
修
值
元
入
全
关
其
内
准
出
分
切
判
別
利
制
刻
力
加
動
勞
化
区
升
单
南
即
卵
历
压
及
发
受
古
可
合
同
名
后
呈
告
和
四
回
国
图
在
型
基
場
复
外
多
大
女
奴
子
存
季
学
學
安
完
定
实
実
宫
害
家
对
対
尊
小
尚
尹
居
屈
屋
属
屬
嵌
巢
工
差
巷
市
常
平
年
并
序
府
度
庸
建
开
引
弯
当
影
律
得
応
念
性
恶
患
愛
態
战
投
抗
护
报
拟
拱
挑
据
接
提
撑
擁
支
改
效
敏
数
整
文
新
方
於
无
时
明
是
時
暴
更
替
最
月
有
服
未
本
术
条
极
构
析
果
架
柚
样
根
案
梁
極
概
模
樣
次
正
步
比
民
水
汶
没
河
治
況
法
洛
流
演
灵
点
無
物
特
状
现
現
理
環
生
用
留
疗
病
症
瘤
発
白
的
目
相
知
矩
研
确
示
社
秋
移
程
稿
究
突
第
算
管
築
精
紀
索
結
经
结
编
缺
罕
者
育
肿
能
腔
自
般
船
荷
華
藏
蛋
蠅
行
術
表
被
要
见
解
言
記
評
該
課
論
講
議
计
论
设
访
证
语
象
資
路
身
較
輸
软
轻
较
输
过
近
这
进
送
這
通
速
道
違
遺
部
重
鉄
镜
閩
间
阳
限
除
陷
随
際
障
隸
集
靠
響
題
验
高
魅
齢
ꞌ
갑
개
막
자
ﬀ
ﬁ
ﬂ
ﬃ
︁
％
＇
（
）
＋
，
－
．
：
；
＜
＝
＞
［
］
～
･
𝒞
𝒢
𝓁
𝜈
𝜋
##a
##k
##h
##d
##z
##i
##r
##e
##l
##u
##s
##t
##o
##n
##C
##9
##c
##p
##v
##y
##I
##G
##A
##R
##T
##N
##L
##E
##B
##2
##7
##0
##b
##q
##f
##g
##m
##x
##ﬁ
##U
##4
##M
##X
##S
##O
##F
##±
##K
##3
##P
##D
##Z
##5
##H
##V
##8
##β
##1
##J
##w
##j
##ì
##6
##Y
##W
##−
##½
##Q
##©
##⁻
##¹
##°
##™
##ä
##é
##∶
##×
##á
##®
##∼
##→
##∞
##ö
##Å
##Ɵ
##€
##œ
##â
##ś
##О
##˜
##ë
##о
##Â
##ó
##≥
##⊂
##í
##š
##µ
##ω
##τ
##る
##æ
##λ
##е
##а
##و
##ئ
##س
##م
##α
##～
##℃
##⋅
##Γ
##ü
##²
##⁺
##∕
##Ѓ
##ł
##т
##ь
##φ
##∖
##＝
##₄
##ˇ
##č
##ḥ
##₂
##ā
##σ
##р
##д
##с
##в
##л
##н
##è
##ʾ
##ī
##ξ
##₃
##ل
##ع
##ي
##ı
##̂
##ñ
##ϕ
##≤
##ɛ
##Õ
##∈
##μ
##ş
##ă
##∗
##и
##я
##¤
##ε
##ق
##ا
##ب
##ن
##∽
##ï
##ʂ
##à
##⊥
##χ
##も
##の
##で
##あ
##く
##つ
##か
##コ
##リ
##ー
##́
##ø
##ç
##ﬂ
##£
##γ
##π
##ṣ
##お
##い
##て
##は
##ė
##ệ
##É
##☉
##ℝ
##ꞌ
##þ
##̃
##⇓
##ـ
##ż
##√
##ú
##¬
##ʿ
##Δ
##ã
##Ω
##Μ
##м
##щ
##й
##´
##د
##ی
##ê
##₁
##Ã
##¥
##С
##∝
##ﬀ
##º
##θ
##≈
##Æ
##б
##з
##№
##と
##Ó
##ô
##к
##∊
##∘
##ё
##ğ
##ν
##⩾
##ō
##ṅ
##ž
##Α
##ت
##ز
##ル
##ア
##ビ
##ブ
##▒
##Ð
##に
##す
##こ
##⁹
##ò
##ṇ
##̄
##Τ
##̲
##ح
##ف
##п
##г
##ر
##⊆
##⊙
##ß
##う
##ę
##ک
##ю
##◦
##υ
##δ
##Р
##─
##∅
##ʼ
##õ
##た
##ѱ
##≠
##κ
##ρ
##⃞
##●
##♂
##ē
##Í
##≡
##ć
##¸
##エ
##イ
##ラ
##ト
##を
##な
##˃
##ط
##ń
##ψ
##ạ
##¢
##ʹ
##ج
##ř
##ŋ
##å
##ζ
##Ç
##∙
##̇
##Н
##И
##←
##∑
##Î
##⋯
##Υ
##Ḥ
##⁄
##³
##ℕ
##Ʃ
##ス
##ţ
##η
##ί
##Π
##サ
##Г
##ĩ
##∪
##ū
##Φ
##Θ
##Σ
##ン
##ы
##х
##¯
##¨
##ÿ
##ه
##ℓ
##ą
##≳
##═
##û
##ﬃ
##ῆ
##ŏ
##ͻ
##˭
##Ø
##˚
##⩽
##＜
##ч
##Þ
##ṃ
##↔
##ة
##よ
##び
##ミ
##ュ
##ニ
##ケ
##シ
##ョ
##І
##П
##Х
##∂
##♀
##っ
##≒
##ð
##ő
##ě
##⁶
##È
##Ä
##Λ
##پ
##М
##Ђ
##ў
##⇒
##ɕ
##ɜ
##↵
##̅
##Т
##れ
##≺
##ῶ
##ι
##і
##Е
##∣
##⋆
##ý
##が
##わ
##ら
##ù
##Ю
##✱
##ᵓ
##け
##し
##バ
##Á
##ش
##¼
##ど
##Ф
##∆
##ц
##Ē
##Ú
##أ
##ƒ
##∥
##⃑
##Č
##Ψ
##ș
##̈
##ث
##ª
##ى
##˂
##■
##÷
##☆
##ϵ
##ま
##⊕
##у
##∨
##자
##⊗
##≧
##ț
##∩
##Ö
##Ï
##∃
##︁
##ẓ
##٠
##˙
##ᵣ
##ₑ
##₅
##₀
##ϱ
##ti
##he
##on
##er
##en
##es
the
##in
##ed
##al
##or
##nd
of
in
##at
##tion
##ro
##an
##ar
and
##ic
##it
##is
##re
##as
##ent
##ing
##ec
##el
##ation
to
##om
##et
##ac
##ol
##ur
##ul
th
##st
##le
##ve
##ith
for
##id
pro
con
##ly
st
##ig
##us
with
##os
##ati
##ce
is
##il
##ter
The
##od
##em
##ts
an
##uc
##ow
##im
##ut
##am
##ess
re
##ot
on
##tic
##ity
as
##if
ex
##um
##ir
##ver
that
##ra
com
##ment
##oc
be
##op
res
##ate
##ab
##ag
##ion
##ated
##ri
##ng
##ud
##ect
##og
##pl
##per
was
by
ac
al
##se
de
##ere
##ical
##ad
are
##rom
##un
##ure
im
were
##ents
##her
##vel
ch
##ff
##qu
pr
##ant
##ain
or
##ay
su
##ers
##th
##ear
##iz
dis
##ell
comp
wh
at
##orm
##ations
In
##ch
##ence
##igh
##pp
us
from
##ine
sp
##ign
##ase
stud
ad
##ies
##ting
sh
##ort
inc
##tive
##ial
cont
##ph
this
sy
##fer
per
##ge
##ore
##ous
ne
##ans
##ou
##and
##ys
en
##ib
##ens
##rou
##ance
##form
tr
##act
mod
##est
co
##ition
eff
imp
##iv
int
##ap
##ist
met
par
##ased
ind
pati
##ific
le
##olog
##ary
##ich
we
##enti
Th
rec
##ip
can
se
inter
cl
##ual
##ress
rel
##duc
##enc
##ave
##tiv
##etw
##ors
##stem
##age
##ia
dif
which
ass
##end
##able
##str
##all
di
patients
pre
##ard
##ep
##ost
anal
sc
resul
##iti
not
##ular
ob
system
##ork
pl
##ech
cell
study
##ther
have
gen
sign
ev
##tions
##ative
me
trans
##yp
##our
ab
ar
##ak
##hod
##ast
##ong
##ach
##vi
ph
This
##pos
##ari
differ
str
pres
app
un
##cess
##ory
##erm
##tim
has
##ide
des
##ue
##ility
##te
##rol
##reat
det
cons
##ric
model
##ew
show
##erv
sub
##velop
20
##low
##ally
##ill
##een
inf
##rib
method
We
##etween
##ata
##gh
reg
resp
between
incre
##ection
##ates
##ied
##ass
sur
##ight
##hen
develop
##ding
##ound
using
rep
high
##ob
it
##dition
##roup
##ome
##ating
inv
##nder
##out
tim
their
he
been
##ive
##ects
results
##uct
##are
man
##ace
##unc
based
##wo
##ang
data
##anc
signific
##ysis
under
##ution
##so
##ater
##plic
##ros
used
spec
##ures
am
than
##ulation
el
group
##tical
##oth
##ose
these
##ub
##ted
control
suc
##oci
##alu
##ization
##ree
significant
em
##ack
cor
##ected
sim
pa
##tin
##lu
##one
also
vari
##cl
no
perform
##ely
appro
pos
##ized
two
ag
##ath
##ms
pol
##tr
##mun
exp
##ood
dec
more
prov
##yl
ap
##echn
##ons
##ective
out
acc
##uld
all
##ases
op
##uring
time
level
##fter
##ments
##ile
##ram
col
over
##ult
10
##ym
but
##pt
##ust
##acter
exper
##tain
low
use
##ici
##tivity
compar
##ple
##hem
##ond
present
##rain
##atic
##iss
##ex
meas
analysis
##ron
mic
red
19
##ities
techn
##hes
##ite
med
qu
id
its
process
##vely
paper
##ven
##ression
##ency
treat
##urr
##agn
##der
##ail
year
other
##ature
##ability
##ational
##unction
##ology
cells
##aus
incl
##ry
##earch
##tern
form
##als
gener
one
##ions
prob
##erg
##ological
fact
##rec
both
hy
new
different
sam
##tig
##cer
after
fin
##ined
##ever
sol
es
disc
##ulti
char
such
may
##iqu
bl
includ
propos
work
##res
##rap
mon
produc
##ber
treatment
##raph
associ
##av
up
non
##ural
typ
##ential
##ange
##entif
##alth
##iver
##row
St
##ning
##ene
into
##ement
dep
car
struct
##ved
partic
##rough
##ild
whe
##hed
##tein
##tit
exam
dist
supp
dem
##cent
bi
num
An
##ox
##formation
##action
##ration
during
well
impro
##yn
##ark
##ays
elect
Al
fol
##ole
##ences
design
function
##now
##ism
##osis
sel
##gg
##ease
##ord
##ie
prog
had
sec
##eld
##ium
##ten
obs
fe
##ru
evalu
##owever
most
ma
It
ins
##eg
##istic
aut
character
##ible
Ch
##rop
##over
fir
##NA
multi
##itive
##ice
##estig
##les
def
import
found
##rad
##00
clin
##eng
loc
##ants
ris
Con
determ
##ON
through
##ov
##ield
##uced
##edic
##til
min
##ental
##ian
##par
##ok
gl
##ould
##oin
investig
##led
there
so
##ane
##ines
##arg
##ider
##ption
##ize
sm
##ination
observ
protein
##ery
##mon
identif
sens
##etwork
anti
research
##ik
##onstr
hum
cy
##ently
##ital
##ix
##lex
##gor
##cc
ser
only
##ale
##hib
development
effect
end
proble
health
sugg
##ograph
hig
pot
##its
##ited
##ful
cap
Res
requ
when
experim
associated
indic
##view
val
compared
##ral
rem
follow
test
##ages
studies
term
years
performance
##rel
first
applic
##ough
##echan
##usion
##ne
##ower
know
##amet
##lement
##ren
clinical
desc
risk
condition
ext
##gan
##atory
proposed
##uction
effects
As
our
three
##tively
will
tra
##hip
approach
disease
##uss
main
fre
##arge
increased
##ft
class
information
consider
##oun
##ness
coll
##ise
assess
##por
network
##ute
##gorith
##oid
activity
##idence
rate
##ha
report
conf
Com
##xim
rad
some
##inal
number
specific
expl
bec
mechan
need
techniqu
significantly
human
analy
sever
##ured
##vir
##ks
##ish
important
systems
tem
##etic
To
grow
higher
provid
However
##ectively
obtain
##urther
These
levels
chang
about
cal
demonstr
##ties
post
##fore
##ake
##amic
showed
they
child
oper
set
##rog
##tal
path
cr
##face
frequ
algorith
power
201
##acy
##iter
##rapy
where
who
qual
##ire
##ication
12
curr
caus
occ
##ivid
equ
predic
each
##ues
cent
diagn
##viron
##ES
mat
related
##emb
##ormal
aff
##ld
commun
##havi
##cop
measure
##ergy
care
lin
##round
##ubl
bas
comb
##CT
##iod
##omen
##ty
200
prac
within
concent
##vers
syn
##ulated
mo
optim
activ
##rect
lim
##ves
vol
##osp
lik
methods
##ma
age
cases
##ogen
##ision
##ically
ear
describ
long
poss
##onse
those
do
case
##oph
type
field
expression
##ults
##atis
##ices
prot
complex
##ross
##oy
##con
factors
depend
order
among
phys
##ety
pers
paramet
del
##ily
##ocial
##ived
##agement
pop
decre
immun
addition
pe
tum
proper
Ex
observed
behavi
inhib
cancer
increase
##ind
discuss
organ
##ples
##ject
groups
There
estim
##ynamic
environ
hist
Un
##omet
improve
role
##ator
coun
how
response
distrib
effici
av
artic
##ension
Pro
ep
##olec
mark
##ilar
potential
period
##ock
while
micro
att
##sy
energy
could
##aterial
##ateg
large
real
patient
##ired
lo
##ann
pat
rat
ret
##vention
prim
review
changes
lead
##omic
mean
##ets
15
developed
structure
lear
serv
##olution
conditions
due
influ
##ission
small
quality
##tor
bet
including
adv
##ogn
##ividual
spect
##itor
sing
##ocy
##ET
relations
calc
##ength
total
##uce
##omes
prof
obtained
radi
hyd
ox
##oint
##ade
invol
publ
##omy
less
##oma
acid
##ience
should
analyz
##vious
correl
ach
11
current
##rug
##hel
ref
state
est
achie
program
problem
##val
models
##old
##tis
surg
support
lif
##cept
For
suggest
##ext
fil
induced
children
prom
lower
##dings
##ified
individual
second
##ward
growth
temper
##und
great
conduc
##roduc
sym
fl
##ION
surface
provide
many
##AT
##fic
vis
##lear
##ests
##ores
##asing
##art
##asc
##urs
without
valu
##irc
integ
algorithm
flu
characteristic
##atures
social
##ving
##ality
range
aim
respectively
##ody
stand
##oss
environment
##jor
foc
tri
single
##stand
##ced
##pec
blood
inj
##rid
similar
##reated
performed
##ished
##ces
te
common
Am
##ification
##rin
##ey
local
##put
adm
extr
deg
strateg
material
major
##jects
presented
Met
repres
##roph
##ists
management
normal
add
vir
various
##ax
##esting
molec
month
##ause
vi
factor
##af
##aging
reve
water
##ulations
sk
##TS
##ronic
chem
##abl
relationship
##ick
flow
cult
initi
##plet
Re
drug
18
phase
part
general
accur
educ
Im
positive
same
##ately
##tics
enh
##orph
sequ
article
pattern
them
any
dom
dim
hyper
Ad
fac
dev
cost
tiss
life
giv
##ensity
focus
outc
sit
##ains
parameters
sour
##DS
##ploy
cat
##amm
##arm
##aw
plas
##ardi
neg
hyp
particular
##utions
properties
##CL
II
rece
frequency
learning
lab
my
very
##ool
14
pur
##ivers
contrib
##uted
Ind
##ior
auth
##erc
respons
value
allow
reported
press
##ledge
change
therapy
effective
13
##ography
fam
women
##air
##oper
standard
hel
particip
region
##hesis
fib
previous
##ival
contr
implement
four
##cle
gu
##eness
##IV
rati
abs
compon
##med
iss
30
Results
##AR
##onal
##uch
##ER
contin
understand
temperature
values
der
early
impact
##ances
gene
multiple
##osph
##cin
00
then
studied
several
dynamic
##tice
magn
##ude
result
##ference
Ab
reveal
further
##ier
circ
area
##anced
##ators
##sych
species
targ
25
students
##though
##de
199
ques
##ST
##ings
measured
size
avail
##aking
synt
##oles
findings
##roscop
nan
phot
##lin
At
##ffici
appl
##tes
memb
##rr
signal
sch
##ev
technique
characteristics
##ode
recep
##ran
being
mus
CO
He
bu
##sequ
##ount
##otyp
##aining
differences
possible
##els
##ware
Sc
shown
application
##emic
nec
##oh
evidence
Our
##nal
##US
increasing
stim
wor
knowledge
On
##anti
success
chall
##ands
bre
##plications
identified
16
expos
tool
##ptom
fram
mut
##isms
did
liter
##ospital
direct
##ening
##las
##otic
Ac
Ph
if
better
et
##RA
phen
##ung
##ained
behavior
lay
##eed
resist
##king
constr
pri
##ised
tumor
wee
reduced
again
population
##inc
50
##actions
loss
##orts
experimental
features
##cep
self
detection
days
ul
##ince
econ
super
applications
##ND
investigated
CD
establ
##mit
##ins
##ules
cri
would
##ascular
Tr
like
fail
##izing
##ler
##eter
##verage
production
primary
presence
##line
mass
##up
mal
antib
pul
const
novel
##ressed
fem
95
ver
##eric
##ither
treated
known
cyt
distribution
il
compos
ele
applied
complet
Wh
strong
proced
pressure
##ering
##aneous
because
##uture
represent
##ient
samples
off
##ording
##ibility
##olic
problems
day
bin
##ually
Sp
eng
##epend
diagnosis
free
##andom
techniques
stress
##UL
##itation
given
train
##HO
##rm
##AC
Us
considered
DNA
determine
##abil
appear
##ople
fr
enc
##ended
##atively
##ury
image
months
good
##red
24
##ters
##urn
CON
sl
##isting
##ug
util
nuc
##rogen
##pective
17
before
ge
##verse
neu
##eu
##uration
following
concentration
##ison
made
concl
mg
##hers
weight
help
##ially
cardi
ratio
ang
require
##ics
against
maxim
bene
bel
exc
rates
bo
##ner
##IC
available
ful
100
employ
identify
top
target
grad
body
statis
carri
admin
##ectiv
Method
read
symptom
psych
dri
medical
carb
key
ro
short
public
vit
influence
whether
##ume
RES
demonstrated
##ble
##ector
##ste
reduction
hem
##ymph
determined
isol
##az
PC
Stud
Rec
included
light
##jective
tissue
technology
diagnos
linear
Further
cre
functional
With
random
infection
adap
hand
##reg
##ystem
CI
recom
concentr
minim
##of
analys
regard
##aly
##gen
provides
##ides
consum
##ries
theory
consist
people
05
##tered
often
##own
##atus
content
##ables
valid
rob
prec
Fin
revealed
even
solution
polic
##ework
types
physical
En
sw
##rial
surv
negative
point
formation
soft
evaluated
evaluation
##yd
##OS
##ections
polym
chann
##ule
##tically
##cri
##oor
##obal
his
literature
Based
introduc
phosph
recogn
##USION
##pose
##itivity
occurr
##olar
##plant
dependent
line
mice
continu
conducted
##active
##na
##CLUSION
go
##IN
analyzed
##aches
capac
world
CONCLUSION
orig
difference
##mission
##ising
future
##ensive
err
RESUL
adj
scale
education
infl
cross
##uter
##eth
back
##och
space
position
##zym
examined
Using
##stract
moder
##way
tas
mm
RESULTS
load
##IS
cur
resour
mechanism
efficiency
De
independ
##amin
MET
plasma
either
##ret
terms
integr
Mod
lymph
simulation
##ling
surgery
surve
Des
active
##ographic
access
her
schem
recent
brain
hear
processes
All
##ae
Ar
required
40
dose
confir
monitor
##othe
##roc
decreased
##ason
via
resid
##MP
##ogene
##orb
##ument
##ining
improved
cer
medi
refl
##AL
hospital
##eration
doc
##ably
arter
greater
##ious
larg
evaluate
asp
##till
view
##ecting
sample
areas
##fact
described
you
##AS
##vement
question
bound
##RO
molecular
##ean
therm
atten
Concl
framework
eth
##eh
vers
strain
##port
##ights
ed
pain
##itis
subjects
saf
plan
##angu
METHO
anim
dig
emerg
source
act
count
les
binding
##urb
##amp
density
serum
##rane
##aces
##unctions
step
##read
way
No
approxim
critical
however
##ession
play
stage
practice
##atter
##operative
average
##iat
men
experiments
dat
##iversity
##vent
direc
discussed
family
arg
record
emb
dimension
understanding
conn
##apid
##ustr
visual
ess
benef
feed
##odes
##wn
##ground
##eral
##ulate
measurements
challeng
designed
length
metab
acute
index
##ones
Although
subs
structures
context
Par
nat
Cl
clear
##RNA
##ct
##tional
prepar
21
##aps
##pr
concept
tradition
60
highly
##tle
Abstract
useful
sex
proteins
diffic
investigate
scre
accuracy
air
demonstrate
lip
times
find
school
concentrations
##ching
Co
therap
assessment
old
##pecially
22
##resp
receptor
##ulin
inflamm
concer
mix
history
resistance
training
transfer
situ
call
separ
toward
Dis
mob
ability
##overn
##lation
necess
##ense
##fficient
##ID
##EN
##other
arch
System
kg
Americ
##GF
shows
outcomes
genetic
reli
volume
mechanisms
More
##rim
##iving
networks
log
##ame
does
hep
##lying
rats
chronic
indicate
interaction
link
##ying
##ancy
##antit
genes
mem
##ryst
wave
##EM
##usions
##tors
##PS
imaging
##rac
las
cycl
meth
images
survival
poly
##eti
global
01
relative
##ours
communication
approaches
enzym
deliver
authors
economic
across
experience
especially
prol
correlation
reduc
layer
##rome
rest
five
much
activities
gluc
near
METHODS
soci
diab
involved
few
components
opp
ur
what
##ologies
000
services
reduce
##urity
initial
symptoms
liver
rapid
bro
sal
derived
functions
bacter
Eff
##inant
still
##ture
shap
caused
ren
New
##akes
ide
basis
limited
sensitivity
interest
combination
##esis
##aken
##ina
bone
Inter
status
##oints
band
percent
##pha
provided
##ventional
##ored
special
##io
##emia
reaction
propose
Man
leg
patterns
Per
##OR
##otherapy
subst
princ
ol
means
##roscopy
presents
gra
least
##oupl
processing
Ass
##ocytes
optical
##lor
relev
community
responses
##ateral
purpose
exposure
##fusion
##rem
simple
##ilit
mul
##gment
open
##acc
##AP
tested
successful
After
##gn
sil
##rient
altern
vs
overall
##app
recomm
##utes
##ocol
synd
##acts
clos
##alysis
experi
clust
198
##hemical
issues
Ca
##icity
AB
death
hydro
Di
compound
detail
##outh
contrast
##istration
optimal
Eu
make
##asis
service
##ites
##onding
##ird
prior
Ob
wid
sus
efficient
langu
numer
materials
best
heter
intra
##ove
Is
dam
##atin
corresp
according
yield
mort
Methods
Trans
##more
central
##hest
exhib
comparison
##duce
##abor
produced
followed
experiment
strategy
sem
poli
##helial
spati
she
##overy
site
detected
nucle
cour
carried
Sim
series
##umm
##aching
whereas
weeks
El
##orption
ever
##iting
##ales
cause
##aving
capacity
##20
23
##land
##pri
software
lack
##encies
IL
measurement
decrease
ST
##equ
##uk
conver
virus
mac
displ
##onic
##brid
hom
parti
defined
comm
interp
generation
measures
failure
tests
guid
##ECT
##epti
##iatric
br
##ressive
##ellular
quantit
##met
autom
By
Pati
domain
chrom
electron
importance
strategies
poor
##enting
##iness
##opath
individuals
include
natural
collected
likely
plat
events
##etes
buil
001
##for
received
down
since
instr
##otor
participants
address
criter
##ectiveness
text
testing
##ether
sci
activation
must
existing
theore
##ray
##AN
dise
carbon
speed
surgical
devices
Furthermore
##pir
implementation
One
Pre
##ulating
##went
##ouse
##enced
vitro
CT
diss
analyses
govern
inhibit
established
might
along
##resh
selected
improvement
heart
##ways
place
tub
wide
##iological
thus
independent
OF
chemical
operation
mortality
fund
morph
Col
mid
labor
achieved
six
increases
##SA
##ote
dys
##hetic
##elf
resolution
##ends
##omp
##sc
##ots
containing
##titution
severe
muscle
preval
conventional
comput
##rical
association
procedure
food
law
##RI
##ED
maximum
countries
transition
ste
breast
pass
##atal
IN
Sur
##tage
appropri
previously
hypot
cop
##rob
##ologic
transform
block
Ev
##ender
laser
membrane
policy
traditional
##ibr
channel
young
diseases
##erve
28
Europ
assessed
IC
##inary
differenti
##earc
algorithms
Here
##ke
electro
##au
##MS
coupl
see
combined
cho
Med
##aling
transport
scheme
synthesis
certain
##odies
evolution
##otype
When
lung
##rie
difficult
##medi
##ared
become
##Cs
##uit
##ream
nit
magnetic
##eutic
##icacy
##astic
Sh
eas
effectiveness
Thus
35
agg
##etal
syndrome
ax
##aff
##rix
##ficial
outcome
dimensional
left
head
sequence
Cont
##ortun
##ges
example
satis
transmission
survey
thin
ampl
Intern
carcin
protocol
Therefore
cryst
##itect
regions
##eline
HIV
Pl
80
Two
ir
profession
inst
extract
##order
user
Or
TH
##go
able
mach
making
##izes
Health
star
structural
describe
##arri
monitoring
##man
enhance
##atives
requir
advant
oxid
##ank
Analysis
Eng
MS
shif
controlled
search
maintain
mode
controls
achieve
neur
output
users
author
attention
error
seen
right
decision
Exper
male
conc
products
##ump
affected
##IT
##ems
alpha
##arr
culture
##orn
solutions
side
sensor
intern
resulting
necessary
own
##ogenic
engine
##plication
broad
##MA
strength
injury
nature
##arc
incidence
hal
adop
section
##lo
prop
language
characterized
spatial
##hood
##tinal
bus
cm
gas
##aged
##ometric
fluid
fa
acqu
sites
##ygen
##ehic
AT
Data
ion
##ique
resources
composition
Research
hard
optimization
variables
##uting
Finally
degree
Af
additional
soil
University
##position
##orpor
26
AD
##tices
exist
##umin
enhanced
##pite
stability
##strate
environmental
indicated
Le
##ognitive
##10
Patients
course
transcri
Moreover
developing
account
efficacy
component
constrain
PD
##cence
27
past
Inc
perce
book
states
Comp
##CC
though
female
45
##enz
##arb
##aries
##ino
gly
plant
suggests
matrix
peak
task
computer
project
##amine
##ope
##here
digital
complete
objective
tox
voltage
product
##orders
action
##certain
points
regression
gast
Study
appropriate
dynamics
ter
release
needed
isolated
##itude
##rum
lit
detect
issue
theoretical
##acement
90
setting
skin
##bo
##tif
##oplas
limit
interactions
allows
glucose
Op
noise
needs
amount
ill
biological
ens
##ivo
essential
##ars
sources
hypert
market
input
pregn
concern
OB
##iquid
particularly
safety
relevant
AND
device
media
healthy
##less
cycle
continuous
##que
##hens
Int
diet
##elect
elements
fix
inn
classification
calculated
orient
##monary
##ered
fat
epit
architect
Multi
rather
##back
selection
Compar
agents
beta
CS
challenges
Reg
affect
American
criteria
last
Str
dou
pharm
quanti
##pers
ec
##ify
now
coe
variation
lesions
vivo
antig
delay
generated
Fe
##elling
sensitive
wa
radiation
##ime
offer
drugs
thermal
Ag
hybrid
neut
mig
##yro
dos
thick
beam
secondary
pred
internal
subsequ
therapeutic
Bl
summ
##ili
##entially
upon
tempor
metabol
Pol
medic
##ometry
refer
##ulf
therefore
administration
tumors
inflammatory
CONCLUSIONS
##allel
fer
##ending
ultr
aspects
32
run
examine
Em
prost
##AD
Si
##uts
da
intervention
prevalence
Sec
adult
##ises
above
consumption
full
estimated
adjust
complications
heat
descri
tools
mediated
##ustry
##oding
Me
around
##not
##normal
##RP
reference
reson
chain
distin
memory
regulation
Afric
fu
pros
##eloc
##ict
##itable
respond
##omer
expressed
security
polymer
called
graph
propor
suggested
teac
renal
element
examination
consistent
36
##ton
construct
##aring
immune
dra
Acc
##ritis
neural
##omal
coron
High
forms
##O2
##ereb
correlated
damage
31
Gen
Sub
national
##inated
relatively
elev
3D
##LA
##JECT
programm
track
confirmed
##ills
Imp
While
33
Cent
vehic
Ins
regarding
29
pack
rang
whole
kin
taken
polar
##ident
medium
feature
From
##rehens
core
sust
colon
##urrent
liquid
motion
Back
##try
requirements
alternative
Cons
animals
Ne
##ulatory
here
nm
score
##linear
stable
They
disorders
oxygen
tog
political
spe
prolif
together
AC
corresponding
##ash
##eling
exerc
##ochemical
biom
resulted
oral
identification
flex
##rete
##tine
person
phenomen
duration
wall
##hy
deep
filter
epid
Rel
##radi
United
Ap
adults
recognition
70
##ban
highl
compounds
##use
veloc
##entific
##ont
ey
cardiac
belie
##pping
##RACT
prevent
recently
##ogenesis
diabetes
OBJECT
oil
metast
vent
##50
distributed
variety
week
Be
Su
histor
Over
China
satisf
metal
##arch
reason
mechanical
48
attem
diagnostic
##den
incorpor
##rade
daily
##isions
lines
##II
##oring
Inf
organization
force
##oscop
OBJECTIV
SP
##istry
illu
abnormal
##set
##IM
##orting
US
##yr
consequ
extrem
approximately
establish
solid
occurred
having
##udes
cognitive
##rees
researc
modern
datab
modeling
mainly
##isation
versus
Sch
fra
##oti
enzyme
trials
wind
##ternal
every
home
##oral
avoid
ground
directly
little
rou
##sts
swit
##rit
imm
integrated
robust
mobile
base
##zy
remains
inhibition
opportun
ray
attrib
bal
industry
depth
##know
##aced
##ucture
##aster
anten
although
signals
fast
working
EC
##AM
##coh
constant
delivery
intensity
##arily
RNA
facilit
distance
fit
nurs
##ta
recovery
transplant
defin
##version
##ership
coh
parallel
##to
##ancial
estimation
princip
Experim
pepti
cataly
hours
##aves
ha
modified
systematic
uncertain
##ney
larger
Conclusions
##hyd
##ilities
unit
trial
Design
ped
subject
implications
introduced
PS
repl
197
vascular
##ultaneous
mit
simulations
Mic
##isc
third
Rep
pH
leading
AS
##ention
##omas
restric
Ig
ml
toler
infr
expected
programs
##uded
Both
##ula
endot
promo
international
lat
highest
spectrum
ABST
CH
##idity
##abric
published
##dom
reconstr
document
Fir
mel
uses
ABSTRACT
cover
relation
unique
towards
##romb
compare
##ipher
nonlinear
practical
##EC
cellular
smok
##des
unc
origin
Background
##eting
relationships
75
Na
squ
widely
nam
progn
investigation
practices
accurate
assist
lig
mental
comprehens
scores
##itiz
sat
##EL
indust
III
OR
##retion
screening
States
##ufact
##faces
populations
##ull
implemented
##mic
So
##encing
enter
fraction
event
defici
recorded
contact
providing
##ovascular
requires
##Ps
##ectomy
Bi
Dif
later
mes
mRNA
##Hz
##rolog
procedures
##reshold
Network
quantitative
stor
##ifically
segment
host
emph
turn
Se
##tual
explore
fract
business
Dec
technologies
substanti
##uments
predict
##hern
enti
intell
injection
silic
location
don
analyze
color
basic
tissues
cut
nut
statistical
##eding
assay
parameter
App
##sis
diff
##abilities
far
take
##ched
Of
vide
respir
produce
sup
disorder
behaviour
har
##opt
Elect
vary
##ocard
invas
34
prediction
Clin
##irth
variable
motor
##orth
##occ
others
extent
pathway
gam
older
aden
stimulation
fluores
teaching
alter
compan
amino
carcinoma
tw
exch
innov
describes
scientific
mar
asym
advanced
half
coord
costs
oste
object
word
##enge
##iles
accum
coronary
scan
platform
During
##istered
external
horm
##opro
pulmonary
bur
Conclusion
online
##hematic
por
rot
inform
excl
tel
usually
AP
done
##most
##izations
scen
Develop
First
demand
cultural
methodology
questions
prefer
sampl
recommend
face
estimate
vacc
##irel
rev
exercise
Gl
##iform
cereb
empir
pair
SO
##last
##bit
median
observations
##artment
weak
electronic
insulin
Spec
spl
respect
another
European
complexity
##ipl
##bers
underwent
molecules
benefits
velocity
alcoh
##ively
methyl
causes
goal
38
PA
numerical
transcription
reports
underlying
##EG
##ireless
norm
##reatment
##going
yet
agre
sequences
deb
National
##estern
threshold
simultaneous
baseline
##ocyte
##atitis
ent
aims
collabor
integration
Among
37
gender
led
temporal
financial
reducing
interface
artery
##dle
adaptive
gain
##ese
suitable
interview
aged
##ademic
##ocal
manufact
CM
employed
strains
shape
government
Control
pharmac
42
##tib
alone
##oxid
antigen
Dep
occur
##roke
SC
tun
##irus
##ategor
clim
divers
supply
contribute
fabric
laboratory
suggesting
malign
generally
machine
##jection
operating
aimed
##ench
HC
land
##ventions
priv
##rand
competi
mouse
##oud
che
challenge
adapt
##ING
##mediate
ways
absence
reliability
##ocation
CR
DC
late
##yroid
Det
##reen
##naire
CP
accept
##icians
antibodies
urban
interpret
##erior
attack
prepared
BAC
cust
##21
repe
degrad
ann
agent
dop
stages
##issions
fold
43
electric
##rogram
leads
divid
personal
SD
und
diamet
planning
peripher
interval
members
double
##yt
profile
direction
display
Qu
gr
slow
famil
##imens
film
##ricular
remov
PR
##KG
##MI
appar
probability
##ethyl
##ROU
##ocks
acet
##andid
science
PP
Can
ca
susp
AR
joint
ov
##ynt
upper
statistically
Ser
antibody
IV
assemb
benefit
neuro
intrac
Since
##ats
induc
##arian
aud
##aph
##otrop
config
Techn
##xt
arr
##rosis
beg
conserv
constit
accel
##artic
architecture
rare
65
fed
electrical
fields
Some
##by
trig
final
original
lipid
##ffic
IS
##agnetic
hydrox
categor
kid
Sm
cannot
##tivation
nuclear
##ogeneous
##ember
differential
##orr
disch
distinct
CA
Aut
##otox
progress
mill
##tra
##EP
feedback
Three
sched
##xi
kind
##function
signaling
##IR
implant
plants
fully
organic
angi
makes
##ancer
##olester
fundam
tax
##odium
commerc
mixed
Mon
formed
##leep
infections
invest
scenari
fo
##inity
educational
successfully
ra
##ulator
##osa
apopt
marked
skills
##bs
circuit
##ROUND
Group
reproduc
infected
correc
receptors
construction
##electric
BACKG
storage
##ensions
learn
##inate
effectively
significance
team
alcohol
BACKGROUND
And
##ades
subsequent
predicted
experiences
chlor
fiber
partial
eight
##ients
works
thickness
Under
##oster
treatments
growing
linked
Cor
cohort
Hum
correct
accoun
##roscopic
angle
nodes
##ged
adoles
##ibration
##ancre
##oids
appears
quantif
reac
##rospective
hypothesis
Most
strongly
films
birth
##agen
assum
emo
feas
computational
##12
focused
tasks
leuk
analog
perspective
THE
OBJECTIVE
HP
transformation
substrate
living
return
sets
Mo
##chem
##NF
##elines
choice
##etry
02
MP
cle
##amer
comprehensive
fav
aer
frequently
respiratory
##VID
##tile
##olesterol
give
activated
onset
##gments
##itative
array
majority
viol
thromb
stroke
units
exposed
contribution
regional
barri
almost
aggreg
MC
NO
academic
##hesized
longer
proliferation
##ogenous
stimul
movement
##apan
mathematic
##lob
tom
HR
muc
##nel
prevention
MR
pen
stem
##chron
##ards
datas
whose
deriv
diagnosed
gran
##uls
improving
Cal
South
pig
particles
resource
professional
wavel
Four
close
extraction
vector
##ened
institution
39
Ear
engineering
##tives
particle
##bal
##alian
emission
oxide
building
##ee
##IP
##OL
interventions
teachers
##rine
##olved
amb
finding
commonly
PCR
Model
induction
Japan
occup
chemotherapy
##known
peripheral
HS
oc
##ooth
##raz
##ophil
industrial
##phal
extended
inhibitor
sin
includes
video
exchange
##ging
MD
orth
biop
##ike
##utive
##neum
differentiation
entire
CN
protection
automatic
fixed
background
database
conj
progression
acids
##IG
##ather
##erman
loop
##otypes
44
##ancing
microscopy
46
##rate
postoperative
minimum
##11
##rium
arti
reviewed
99
ast
nanop
##apter
##ories
seven
finite
currently
embed
Engl
bio
traum
##ectives
moderate
attit
##astr
calcium
antenna
##asting
identi
grade
located
Development
spectral
suscep
alk
##exp
throughout
pregnancy
AL
IP
##ape
Non
##hing
##MD
transmit
equations
markers
absorption
shift
irradi
AI
promising
cardiovascular
glyc
##OC
##ortic
##plicated
numbers
diameter
selective
empirical
##iology
##ert
unknown
consists
Second
55
transl
##zzy
##empor
art
COVID
proportion
English
hypertension
researchers
ES
Ge
Sever
##ipp
##ycl
equival
center
iron
manif
driven
AN
questionnaire
47
detailed
Car
nerve
confirm
suff
channels
percentage
fault
sleep
infer
##ptake
##cepts
PT
tend
##ectivity
56
dry
pancre
counter
hydrogen
##inations
ster
41
CC
environments
administered
##odynamic
##antum
##xiety
wireless
assign
migration
##BP
##oms
##illary
charge
traffic
rich
ant
##seud
objects
neurons
myocard
resonance
Differ
##ostic
##ements
adequ
microb
root
families
code
##asons
adverse
remain
collection
systemic
depression
arth
look
sampling
##anol
confl
##ATION
excell
##pts
##ceed
student
doses
diversity
##antic
communic
fundamental
pan
##ster
expans
##me
##jectives
variability
advantages
Addition
errors
##ai
##ococc
Clinical
fill
divided
port
##iotic
bond
superior
##elet
compens
responsible
sulf
##crib
uniform
cruc
##uation
##war
variations
vehicle
sed
computing
supported
occurs
virtual
bacterial
##iples
equation
Human
If
mil
##ives
##time
supplement
country
reliable
Then
attr
03
Pr
mutations
middle
Austr
Fig
##LC
##alk
workers
confidence
century
move
coefficient
definition
degradation
##fl
express
females
climate
52
mamm
##herent
ads
discussion
mom
technical
males
RF
node
##ultural
indicating
persist
Child
##inese
RA
TC
hous
##IF
##agon
coupled
Cell
My
49
##ring
##lim
ischem
white
propag
72
kine
degrees
##rief
##ps
animal
agreement
kidney
But
impair
involving
pulse
Min
taking
##ded
regular
inhibited
radio
sexual
53
Chinese
pathways
psychological
cav
##As
##ariate
##ergic
solar
severity
sustain
CF
reactions
Cu
fall
##UR
##aternal
instit
observation
profiles
situation
Bec
##raft
randomized
marg
typical
Char
Effect
BP
IF
spread
##ournal
candid
##OP
##ero
##ils
Rad
##ache
characterization
earl
intellig
##ds
nutri
MA
##idth
formal
od
##DL
resistant
##asound
##oglob
##ochond
examples
estimates
conclusion
Ma
##care
##osed
compl
##ested
ER
SS
rein
parts
Evalu
seed
elim
discrim
Phys
commercial
excellent
Cr
preserv
##ilateral
spectra
##IL
##eli
anter
expand
terminal
operations
Despite
Dist
TB
##inning
alb
PM
war
##yle
spectroscopy
below
create
57
Such
##stead
legal
elevated
surfaces
generate
possibility
ethn
Associ
64
##okine
##onia
196
##tenance
wild
smooth
considering
constraints
diffusion
potentially
removal
##aim
medicine
list
##come
cholesterol
trade
antic
manner
turb
cloud
bacteria
According
Hospital
Ti
smaller
##EE
##width
explain
analytical
GP
uptake
##oming
society
rapidly
ke
dispers
metabolic
##eal
specifically
rise
##mark
##ilib
kinase
peptide
efforts
repair
policies
Meas
##oly
extensive
meaning
reflect
advantage
metabolism
##vant
simulated
Commun
58
Hy
cluster
inhibitors
African
ventricular
##sw
concepts
stri
##ella
compr
serious
physiological
receiving
boundary
dysfunction
##scill
py
glut
popular
##oman
threat
controller
proposes
added
Sign
prote
actual
Partic
Medic
staff
secretion
indicates
ven
##urg
fore
exec
##plicit
Internet
##ii
equal
possib
extrac
balance
expect
lateral
decisions
##oxide
guidelines
endothelial
varying
crucial
54
put
infants
determination
matter
Effects
chromos
constructed
apoptosis
dog
recurr
disturb
specificity
completed
highlight
ET
Gu
##MR
until
Sw
poll
involvement
ensure
epithelial
height
sensors
perceived
##ontaneous
Bo
aid
div
mess
radical
predictive
intes
##ches
##overed
exhibited
85
just
libr
##oll
capital
principles
historical
illustr
mis
tracking
gap
##ectal
increasingly
phenomenon
##articles
##olds
acceler
Lear
fron
##ck
offers
steps
solub
property
next
colle
minor
diabetic
mL
mild
interfer
despite
showing
retrie
67
Tra
ble
sodium
##OM
##ectors
##oxy
representation
expansion
##acial
explo
##isition
plays
viral
coupling
##let
anxiety
quantum
qualitative
uns
polymorph
macroph
Russ
sense
##ception
##ogram
recip
2000
temperatures
analysed
mi
##13
##ruit
sensing
What
arterial
jud
##roduce
stream
##used
paras
inflammation
pneum
##rot
##uctive
puls
##orbidity
experienced
devi
hormone
Out
dy
complement
adhes
##derly
International
bul
roles
phosphory
vess
##ucle
##rosp
gamma
68
##zo
##jected
presentation
magnitude
prospective
dual
##ighb
solve
capable
primarily
contains
behaviors
04
tet
##wing
##forms
modulation
seems
reconstruction
59
wound
##ah
##zed
##acing
##ENT
crystal
po
seem
Vari
##ervical
dominant
gest
tit
reactive
layers
recomb
edge
lesion
eye
##oprotein
camer
forward
maintenance
Hist
66
##ypt
examines
articles
occurrence
discharge
always
##exts
##mosp
plane
slight
preparation
thought
Mean
date
##onomic
conversion
neon
noted
##ype
dependence
Many
Es
grid
impl
vitamin
hemat
extracted
haem
##orrh
ED
ery
##aired
##cents
##AB
waste
intake
sector
##2O
scatter
Class
##opathy
accumulation
German
created
amplitude
limitations
AF
job
nor
##ians
##ester
##riting
##ept
speech
MRI
##ott
break
easily
rab
##umn
Exp
Educ
brief
##ptive
##herence
communities
satisfaction
EL
label
ratios
##ilibrium
##igen
trend
conclude
pediatric
earlier
vul
##CA
mutation
IR
##SS
smoking
Serv
Wor
oscill
rig
##mental
scal
latter
trends
targets
transplantation
fluorescence
Mark
State
embry
Systems
myocardial
##53
##iction
excess
commit
scholar
Cancer
dial
##ele
prem
63
get
vac
##−1
##udinal
##avy
determining
##tility
##ublic
symmet
completely
reading
Ca2
Objective
##min
##asal
thor
diverse
AM
rules
##uate
sufficient
parad
parents
risks
changing
##ierarch
Social
##°C
##oration
reserv
defects
etc
98
PV
specimens
##venous
domains
##ready
##ada
remained
classical
institutions
pay
##gence
##ows
contain
##oustic
complexes
identity
SN
##gue
Also
humans
##wenty
Learning
##uries
##tingu
schedul
500
den
reasons
Inv
##obic
##ishing
##water
##ollow
interference
##obacter
mitochond
Several
Because
anterior
51
##we
##ener
##itively
itself
##eletal
Information
regulatory
comparable
ultrasound
Treatment
lact
##DM
##tid
##stream
##esthes
Web
participation
introduction
73
revers
##oted
abund
emerging
recommended
96
NH
mov
frequent
safe
income
##actor
coli
classes
periods
invasive
##ifying
distingu
spontaneous
emergency
Time
jus
flux
fluor
##hyth
78
SL
ten
##atch
##ortex
bandwidth
hab
already
Management
morphology
##etric
measuring
black
Te
univers
basal
ve
elderly
frequencies
retrospective
hepat
adopted
predom
namely
cerebral
equivalent
RT
2010
connected
summar
pit
##raction
##tition
relig
##teg
closed
trigg
##kin
stabil
##ema
World
bey
robot
answ
claim
##ceptions
utilized
existence
beyond
How
Experimental
EP
gel
relax
##ynthesis
62
neighb
##load
Post
##ori
forest
##rocy
schools
acquisition
Program
##UT
conv
promote
represents
wavelength
Gene
grain
comparing
Medical
Supp
focuses
North
##perm
modes
regulated
Del
##day
scanning
Pur
depends
CD4
multic
Ed
Ep
End
Jan
sound
##ees
signs
##force
UV
outs
##otes
compet
curve
Optim
##uous
##cers
##0s
proxim
posterior
axis
83
green
vision
##MC
ana
##ocyt
concluded
MO
Western
##son
anat
##iral
computed
effort
metric
manip
upd
myel
Recent
Organ
fuzzy
##tibility
intr
accom
explored
ultra
reduces
toxicity
ker
##isp
web
varied
agric
indicators
largely
gastric
Department
tomography
NS
description
Instit
companies
Mal
##iance
too
##acent
room
##wareness
NP
##ician
2015
2008
challenging
built
oriented
manufacturing
##umb
cul
##organ
##rab
actions
infusion
schemes
principle
Evaluation
CB
dil
fusion
##iers
ATP
##omers
##amb
clearly
malignant
Red
TNF
##ament
deposition
transient
uncertainty
intensive
define
2012
##rinary
farm
map
##uality
records
Ang
Work
fung
##ued
validity
Assess
enhancement
Appro
pump
##18
##ortion
healthcare
synchron
##ometer
emphas
private
Pres
##vity
##FT
Review
2020
##ensus
plate
auto
cultures
circum
version
Br
##uary
##aria
##ley
##roduction
synthesized
simultaneously
BC
Low
##GA
##flow
##mentation
##ellite
proved
smart
extension
##olecular
nano
Zn
##ked
##band
##arin
atmosp
synthetic
encour
neutral
consequences
300
dB
became
dimensions
India
economy
composite
adaptation
97
CL
##itors
underst
sections
mathematical
93
##habil
##imen
exhibit
sectional
Ga
zone
##acch
##ulum
chip
##ologists
mapping
separation
##dominal
recurrence
bed
decades
equip
availability
mutant
substantial
##usc
standards
silicon
recommendations
Form
HT
Id
SA
Soci
discusses
Studies
nerv
##GE
bias
calculations
Perform
orientation
Impro
nanoparticles
dr
pure
##itals
deploy
enable
introduce
inser
validated
precision
opportunities
ring
shel
##itudinal
placed
##IA
##utaneous
##heric
tract
obstr
minutes
changed
cathe
instrument
intracellular
87
city
maternal
pal
##osity
adren
Through
becomes
deficiency
moment
spin
share
matching
clusters
interviews
la
chapter
rele
localization
build
mobility
words
interpretation
##arrow
##ompan
perception
69
##off
ones
true
arm
insights
matched
nurses
infrastr
Mat
contained
considerable
Immun
haz
writ
projects
price
discrete
serve
behavioral
89
limits
##fficients
computation
adolescents
Case
##irr
capture
demonstrates
oxidation
Joh
intermediate
##part
Disc
idea
acquired
adjusted
occl
LC
##zation
##lem
##ids
driving
##actic
##ospitals
involves
residual
feeding
tolerance
tree
##ris
##mia
##amide
plus
typically
77
82
rhe
##wide
##iment
vertical
numerous
embedded
du
##urance
2016
Europe
nitrogen
antagon
Pa
nine
2005
influenced
crystall
76
##16
decreases
stimulated
92
##ochem
epis
marker
Fr
Lin
##Cl
##ayer
##ifications
multiv
facilitate
melan
Power
##igation
##istr
optimized
goals
prolong
chromat
fracture
artificial
##irect
##omb
induce
comparative
concerns
configuration
ech
##akers
probe
IgG
MT
##orous
##elves
spinal
surround
geometry
minimal
Each
cervical
pow
μm
##olip
##ifier
apply
2019
spectrom
appeared
propagation
84
Rob
hor
##vis
incub
affects
molecule
construc
gastro
88
Ni
dental
hierarch
##BS
##osin
restor
heavy
clinically
allowed
width
extremely
align
concerning
79
Long
PL
disru
undergoing
##habilitation
SH
mot
morbidity
rights
hypox
separate
flexible
Val
##sh
##sp
##SH
why
##ogeneity
hardware
##ef
accompan
correspond
nursing
Character
2D
beh
carry
glass
2014
coefficients
thyroid
manag
electrom
asymmet
foreign
94
MAT
##wise
enables
applying
controlling
blind
harmon
categories
stay
recognized
substit
prognosis
FD
Sens
zero
forces
probably
remote
similarity
programming
##BC
protocols
adequate
ng
coding
##pted
##14
depos
##andemic
simpl
structured
equilibrium
gives
gradient
closely
illness
understood
PU
Ul
benz
##ontal
##asia
##ulates
ord
subt
Process
placebo
settings
vo
static
##orthern
inclusion
Scale
prostate
manifest
brid
##ias
##uth
producing
##eget
distributions
##undred
Mg
awareness
##pati
##itted
##ecutive
##usive
##esthesia
Performance
##atigue
chol
Resp
referred
som
##ounts
##ophys
depending
plastic
partially
biopsy
HB
##itone
##isis
##trans
##ulture
capability
randomly
Africa
Overall
fragment
scattering
##EA
genome
conceptual
milk
CV
##RS
##isk
##immun
resection
calculation
Material
##vals
##group
##ria
decom
column
composed
neurolog
##ilitary
74
mer
wr
decl
collagen
explained
targeted
precip
prognostic
repeated
emotional
OS
##unt
##iley
##otide
NF
##ze
##ana
##iltr
impacts
ranging
January
EM
Pers
urinary
##ynam
defect
affecting
CO2
road
socio
apparent
71
Care
dram
##mod
##matic
enrol
meet
elastic
cycles
easy
irradiation
lands
takes
2017
##ercul
Simulation
86
DS
Other
SV
##ife
interesting
potenti
logic
shaped
switching
PI
rout
win
##onom
prin
inters
dietary
organizations
fluct
game
deal
##ohist
Introduction
institutional
Education
Vis
writing
##ls
2018
hepatic
heterogeneous
scenarios
IFN
hundred
##ico
##throp
cool
##itig
mineral
classified
##oidal
2009
Coll
John
Six
dest
##esity
##ectin
##apse
phases
2011
impairment
rational
##orter
inhibitory
asth
Bay
Function
miss
rural
##cape
##ask
##struct
enzymes
equipment
Li
compression
##rosion
extra
practition
addressed
validation
check
Children
fetal
pp
org
##outhern
LH
wat
##ronch
Prot
##heless
hepatitis
Additionally
ions
rh
tail
##ols
start
2013
net
##ady
##ading
##oked
absol
sinus
pseud
##iation
##ilos
meta
accurately
belief
##emporary
IT
##ontin
bearing
##ellar
shared
transf
overl
suppress
##omestic
utilization
belong
attitudes
##olytic
intestinal
She
gal
locations
explan
conduct
identifying
61
hospitals
##pro
once
coverage
overcome
##factory
Pe
##EV
perf
grown
Sing
nod
neurop
##oscopic
feasibility
antim
coating
positively
medication
##argeting
utility
annual
phosphorylation
DM
Num
##cal
##reted
##ancies
improves
persons
foot
bleeding
##ister
today
evaluating
efficiently
rib
sti
##tial
##acting
##acted
preven
frame
curves
PET
##aid
##urally
##idine
clar
subc
##mselves
replacement
infrared
assembly
bit
rule
##alities
consisting
decline
toxic
narrow
sperm
##otal
discipl
guide
fuel
##oscopy
SU
UK
Prof
generalized
photo
encoun
susceptibility
venti
themselves
##ulus
metall
electroc
characterize
semi
camera
tour
imag
##thal
antioxid
epidem
square
HF
Its
##bra
retin
exact
assays
associations
consideration
isolates
##OT
##eneration
##idal
impaired
opin
supporting
greatly
Science
represented
favor
Neu
TR
aortic
live
ves
##enic
##uck
##ifer
##rag
indirect
prelim
Incre
pancreatic
bulk
81
Mar
iter
##oe
reach
items
Plas
fish
veget
##iling
never
abdominal
analyzing
draw
vulner
Braz
wet
##tivated
investigations
travel
receive
nearly
innovation
##teen
cord
CSF
trauma
Dynamic
##rous
quad
occurring
tube
paradig
GHz
OH
##anic
##aryng
presenting
determin
##otropic
diver
residues
illustrate
aug
##opic
subun
physicians
symb
##standing
Measure
soluble
400
au
waves
##IAL
inside
Surve
##elihood
outside
infrastructure
batter
##ming
##osing
##owel
except
##adder
substr
undert
lowest
2007
phenotype
abnormalities
vaccine
hot
##gu
intervals
options
solving
Disease
steel
Dr
fig
##ply
stere
overview
##ococcus
Vol
fine
Their
insp
valuable
injuries
graft
Similar
Sal
dip
fal
##Es
##arant
##ocl
university
variance
traject
150
##rophy
cultured
Multiple
scholars
insight
Energy
polarization
donor
Use
drin
##ided
explicit
##ighting
mostly
morphological
Association
pil
vas
##icular
altered
termin
possess
fibers
hydroxy
cavity
##DNA
##iding
firms
contributions
keep
moving
GC
ty
##AV
whom
##apa
reviews
Environ
intravenous
delayed
attempt
Brazil
lens
sizes
##15
##ern
2004
routine
Follow
Key
amounts
newly
longitudinal
improvements
##rophic
INT
movements
Institute
TP
fresh
##anks
##imer
sharing
##ulties
allowing
ideal
SAR
fri
pandemic
##une
failed
Predic
dogs
surge
topic
positions
olig
reached
preliminary
pi
##zing
##ryl
##Ds
##ift
##rought
##ophy
refr
neck
fatty
School
predominant
reverse
rehabilitation
Compared
Wiley
##NT
##head
##osine
Integ
thereby
admission
aspect
slightly
acoustic
##cles
childhood
##anned
terr
written
BMI
##omial
exists
clinic
developmental
retention
Surg
odds
##itic
##ratic
##point
##FS
instead
##osen
##amination
trust
##rins
purpos
buff
oxidative
Micro
horiz
domestic
native
2006
##helium
reveals
precurs
situations
lith
lys
pic
##rant
staining
polyp
correlations
arthritis
Austral
##acchar
km
pip
thym
forec
cooper
concrete
opportunity
Assessment
Do
SM
fatigue
##oad
lymphocytes
maintained
correction
extracellular
parent
firm
affinity
conjug
tre
station
carrier
pairs
investment
EU
Mus
chest
military
objectives
##athy
##rown
remark
relevance
biomark
DO
hour
music
statistics
violence
Early
conflict
Nan
Prac
gold
rough
##tt
##19
##osystem
leaf
Algorith
##istics
capabilities
appearance
beginning
big
##itus
##acer
prove
usage
##ranes
professionals
##uits
##ato
loading
Comparison
assisted
Fre
Prim
pool
##tious
detecting
likelihood
protective
##testinal
##arbon
attacks
HA
PH
camp
targeting
vag
##onduc
##illance
electroph
cytotox
LPS
Up
##osomal
quick
papers
##pectives
##robial
starting
absolute
DR
irr
##pped
pert
consecutive
ovarian
##urk
##lasts
largest
burden
##erculosis
Sol
crop
##Ns
##ologous
##cler
##ords
##sequently
eyes
##ptions
Sci
member
documented
##onin
##enth
enough
cancers
quite
endogenous
2002
therapies
SE
er
wear
healing
allocation
iden
hydroph
macrophages
cortex
actin
Chang
capt
assessing
Due
narr
##uge
##TP
##fts
##iders
##ush
modification
translation
formulation
bios
histological
creating
shear
##oir
##fort
##raw
progressive
independently
##ogenetic
documents
General
alterations
##lands
##mal
##abled
leak
recurrent
unf
powerful
influences
advance
##urses
negl
argue
0001
ideas
Previous
competitive
Bas
La
mol
##oon
##enn
##etary
##opol
obesity
philos
designs
achieving
drive
barriers
Purpose
##ochemistry
##uclear
emissions
directions
HCV
adsorption
substrates
stat
glob
steady
passive
OP
##ificant
##ilep
forming
##ief
insu
operative
engagement
precise
##queous
dataset
derivatives
dramatic
May
Mechan
sent
##CE
operational
pathogenesis
guarant
venous
Test
##down
##CR
##LS
##ucid
##ional
scales
desired
combining
clustering
AIDS
H2
##gent
##uly
##engt
contrac
Recently
residents
convergence
electrode
ben
egg
faster
Only
ligand
Particip
Current
dro
vibration
##rated
##oved
##puts
##achment
supports
follows
organizational
penet
##oglobin
iso
##ilic
expon
crisis
earth
requirement
isolation
creation
##cribed
variants
formula
##nee
pathological
phosphate
Evidence
principal
scheduling
mitochondrial
##itting
##isons
##inger
contemporary
##ylation
technological
Indian
consisted
details
panel
chromatography
Not
Ox
Vi
fair
tens
##li
##plex
biochemical
##ographical
120
continued
attempts
segmentation
##weight
##lip
##aline
modelling
detector
beneficial
teacher
bench
derm
##bre
productivity
explores
2003
mention
copper
library
SR
Self
##ione
perme
##iber
##ourse
##fully
pathology
##iotics
restricted
arrang
million
barrier
possibly
##iveness
arbit
advances
verified
automated
identical
##ediatric
underg
decade
2001
marrow
Detection
habit
06
DES
bott
##BM
isot
##actors
##duction
distal
traits
##ophage
maximal
directed
platelet
respondents
vehicles
Quality
gir
germ
##anning
valve
focusing
approximation
GH
reform
chosen
infiltr
performing
Ext
requiring
adhesion
Society
Are
##17
come
module
psychiatric
deficient
Risk
let
##oys
imped
defic
sustainable
catheter
asthma
woman
##ached
contents
skeletal
experimentally
AA
VE
bind
##hal
##born
inequ
microg
sugges
datasets
LV
Type
journal
ru
vic
##iger
remaining
ultim
ecological
assigned
##tible
##anking
ongoing
shock
##ensities
excitation
America
attributed
Networks
prolonged
ure
accep
discovery
difficulties
multim
maintaining
eryth
dynam
meeting
##aceu
predicting
membranes
Central
satellite
collaboration
pneumonia
Australia
benign
Mn
Ret
ice
##ares
indices
volum
fibrob
encoding
offered
##patient
gate
##irty
reflection
##itoneal
Flu
##inating
##icrobial
##mented
predictors
Application
semic
##ony
neoplas
obst
##arction
bronch
hol
##uity
##asi
##illed
former
suppression
##okines
removed
administr
##iliary
Technology
Aug
Mach
youth
##co
theories
consensus
Comb
250
binary
phenomena
emphasis
collaborative
Cop
ii
##times
##ribution
##ovirus
prototype
##azole
nucleus
evolutionary
adjustment
inner
##asive
subgroup
metastasis
practitioners
FP
PK
uter
##25
##rays
spher
subjected
admitted
Global
deviation
labeled
91
bor
##omorph
##rowth
enterpr
##engthen
Mul
##eties
##BD
##oded
segments
##apping
subsequently
ultrason
Center
retrieval
##onomous
Econ
ball
kn
ple
vital
dehyd
compact
season
proven
markets
Spect
aspir
connection
surrounding
Bu
LD
##MM
entit
intrins
regime
visible
lymphoma
##GFR
Figure
##aceutical
##intestinal
##asp
deformation
generating
department
demographic
extend
continue
promoter
kinetics
cos
##UC
##activity
##aptic
leaves
obvious
genomic
outl
plasm
Diagn
Hyd
pix
##UD
##itory
initially
magnet
hearing
semantic
bring
Arab
Cap
hip
stop
##essions
complication
perceptions
studying
developments
centers
contributes
cytoplas
yields
competition
househ
bilateral
##like
##HC
intended
placement
antibiotic
purposes
Part
citiz
drain
tes
##OG
##ulative
electr
utilizing
oppos
unclear
multivariate
PE
RS
TO
West
aqueous
codes
nasal
##Rs
##MT
athe
seiz
facilities
fabricated
SW
##haps
##disc
##PD
##ani
cred
reality
1999
trained
coordination
debate
mothers
mand
##sk
##otr
cold
##ochastic
FT
maps
##oT
##BL
##urable
##elled
leadership
facial
receiver
Findings
displacement
ranged
routing
tor
##ners
conform
onc
sensory
potent
promin
younger
aver
drop
##uated
##vascular
##ires
views
catalytic
scenario
dispersion
perturb
Au
anomal
##rip
##anger
urine
##ophageal
##upp
##gar
cond
Adv
Impact
Russian
##yc
##HD
congen
reper
elucid
functioning
elevation
false
HD
LT
ML
mitig
##eur
##ulators
##umor
caps
emerged
Behavi
company
communications
candidate
proximal
bar
##pread
##anine
##ategory
extracts
absorb
##cription
argues
ischemic
Dem
ign
nons
##rotid
neph
timing
##heses
perspectives
immunos
immunohist
conductivity
losses
